{
  "version": "1.0",
  "truncation": null,
  "padding": null,
  "added_tokens": [
    {
      "id": 0,
      "content": "[UNK]",
      "single_word": false,
      "lstrip": false,
      "rstrip": false,
      "normalized": false,
      "special": true
    },
    {
      "id": 1,
      "content": "[PAD]",
      "single_word": false,
      "lstrip": false,
      "rstrip": false,
      "normalized": false,
      "special": true
    },
    {
      "id": 2,
      "content": "[BOS]",
      "single_word": false,
      "lstrip": false,
      "rstrip": false,
      "normalized": false,
      "special": true
    },
    {
      "id": 3,
      "content": "[EOS]",
      "single_word": false,
      "lstrip": false,
      "rstrip": false,
      "normalized": false,
      "special": true
    }
  ],
  "normalizer": null,
  "pre_tokenizer": {
    "type": "Whitespace"
  },
  "post_processor": null,
  "decoder": null,
  "model": {
    "type": "BPE",
    "dropout": null,
    "unk_token": "[UNK]",
    "continuing_subword_prefix": null,
    "end_of_word_suffix": null,
    "fuse_unk": false,
    "byte_fallback": false,
    "ignore_merges": false,
    "vocab": {
      "[UNK]": 0,
      "[PAD]": 1,
      "[BOS]": 2,
      "[EOS]": 3,
      "!": 4,
      "\"": 5,
      "'": 6,
      "(": 7,
      ")": 8,
      "*": 9,
      "+": 10,
      ",": 11,
      "-": 12,
      ".": 13,
      "/": 14,
      "0": 15,
      "1": 16,
      "2": 17,
      "3": 18,
      "4": 19,
      "5": 20,
      "6": 21,
      "7": 22,
      "8": 23,
      "9": 24,
      ":": 25,
      ";": 26,
      "?": 27,
      "A": 28,
      "B": 29,
      "C": 30,
      "D": 31,
      "E": 32,
      "F": 33,
      "G": 34,
      "H": 35,
      "I": 36,
      "J": 37,
      "K": 38,
      "L": 39,
      "M": 40,
      "N": 41,
      "O": 42,
      "P": 43,
      "Q": 44,
      "R": 45,
      "S": 46,
      "T": 47,
      "U": 48,
      "V": 49,
      "W": 50,
      "X": 51,
      "Y": 52,
      "Z": 53,
      "[": 54,
      "]": 55,
      "_": 56,
      "a": 57,
      "b": 58,
      "c": 59,
      "d": 60,
      "e": 61,
      "f": 62,
      "g": 63,
      "h": 64,
      "i": 65,
      "j": 66,
      "k": 67,
      "l": 68,
      "m": 69,
      "n": 70,
      "o": 71,
      "p": 72,
      "q": 73,
      "r": 74,
      "s": 75,
      "t": 76,
      "u": 77,
      "v": 78,
      "w": 79,
      "x": 80,
      "y": 81,
      "z": 82,
      "«": 83,
      "°": 84,
      "·": 85,
      "º": 86,
      "»": 87,
      "À": 88,
      "Â": 89,
      "Æ": 90,
      "Ç": 91,
      "È": 92,
      "É": 93,
      "Ê": 94,
      "Ë": 95,
      "Î": 96,
      "Ï": 97,
      "Ô": 98,
      "Ù": 99,
      "à": 100,
      "á": 101,
      "â": 102,
      "æ": 103,
      "ç": 104,
      "è": 105,
      "é": 106,
      "ê": 107,
      "ë": 108,
      "í": 109,
      "î": 110,
      "ï": 111,
      "ñ": 112,
      "ô": 113,
      "ö": 114,
      "ù": 115,
      "û": 116,
      "ü": 117,
      "Œ": 118,
      "œ": 119,
      "’": 120,
      "es": 121,
      "ai": 122,
      "en": 123,
      "ou": 124,
      "le": 125,
      "de": 126,
      "re": 127,
      "on": 128,
      "an": 129,
      "qu": 130,
      "ait": 131,
      "et": 132,
      "la": 133,
      "er": 134,
      "ent": 135,
      "ne": 136,
      "ar": 137,
      "te": 138,
      "il": 139,
      "au": 140,
      "is": 141,
      "it": 142,
      "in": 143,
      "ch": 144,
      "eu": 145,
      "se": 146,
      "que": 147,
      "om": 148,
      "les": 149,
      "av": 150,
      "ce": 151,
      "or": 152,
      "as": 153,
      "ant": 154,
      "me": 155,
      "ur": 156,
      "ét": 157,
      "our": 158,
      "un": 159,
      "oi": 160,
      "pr": 161,
      "lu": 162,
      "ans": 163,
      "ous": 164,
      "est": 165,
      "lle": 166,
      "ais": 167,
      "des": 168,
      "tr": 169,
      "une": 170,
      "qui": 171,
      "ri": 172,
      "at": 173,
      "du": 174,
      "par": 175,
      "si": 176,
      "ment": 177,
      "tre": 178,
      "dans": 179,
      "al": 180,
      "était": 181,
      "--": 182,
      "pas": 183,
      "out": 184,
      "son": 185,
      "li": 186,
      "com": 187,
      "sa": 188,
      "Il": 189,
      "avait": 190,
      "ée": 191,
      "di": 192,
      "us": 193,
      "ti": 194,
      "ap": 195,
      "os": 196,
      "ge": 197,
      "ab": 198,
      "dé": 199,
      "con": 200,
      "sur": 201,
      "vi": 202,
      "elle": 203,
      "ette": 204,
      "ré": 205,
      "res": 206,
      "aient": 207,
      "che": 208,
      "ain": 209,
      "ère": 210,
      "am": 211,
      "ci": 212,
      "ons": 213,
      "ois": 214,
      "pour": 215,
      "lui": 216,
      "dit": 217,
      "plu": 218,
      "eur": 219,
      "ff": 220,
      "ouv": 221,
      "gr": 222,
      "ec": 223,
      "tout": 224,
      "eux": 225,
      "ue": 226,
      "ont": 227,
      "vous": 228,
      "plus": 229,
      "end": 230,
      "je": 231,
      "and": 232,
      "ille": 233,
      "mp": 234,
      "su": 235,
      "vo": 236,
      "mi": 237,
      "co": 238,
      "ort": 239,
      "oir": 240,
      "ra": 241,
      "ses": 242,
      "ces": 243,
      "ux": 244,
      "té": 245,
      "aux": 246,
      "cette": 247,
      "comme": 248,
      "pu": 249,
      "ie": 250,
      "ro": 251,
      "ag": 252,
      "avec": 253,
      "Le": 254,
      "Je": 255,
      "ers": 256,
      "és": 257,
      "ion": 258,
      "ac": 259,
      "mes": 260,
      "lo": 261,
      "po": 262,
      "mon": 263,
      "omme": 264,
      "pro": 265,
      "ve": 266,
      "mo": 267,
      "br": 268,
      "tu": 269,
      "ir": 270,
      "ser": 271,
      "éc": 272,
      "ard": 273,
      "ter": 274,
      "aire": 275,
      "ien": 276,
      "quel": 277,
      "ès": 278,
      "ma": 279,
      "La": 280,
      "leur": 281,
      "fait": 282,
      "omb": 283,
      "cou": 284,
      "dis": 285,
      "jour": 286,
      "ble": 287,
      "peu": 288,
      "tes": 289,
      "deux": 290,
      "onn": 291,
      "être": 292,
      "pe": 293,
      "mê": 294,
      "able": 295,
      "Qu": 296,
      "so": 297,
      "mais": 298,
      "ité": 299,
      "ier": 300,
      "gu": 301,
      "fr": 302,
      "où": 303,
      "per": 304,
      "ins": 305,
      "là": 306,
      "homme": 307,
      "ven": 308,
      "pl": 309,
      "tou": 310,
      "cr": 311,
      "lait": 312,
      "Et": 313,
      "ex": 314,
      "aut": 315,
      "Ce": 316,
      "fi": 317,
      "nous": 318,
      "nu": 319,
      "main": 320,
      "enf": 321,
      "eau": 322,
      "én": 323,
      "ine": 324,
      "ver": 325,
      "lé": 326,
      "gn": 327,
      "orte": 328,
      "int": 329,
      "bien": 330,
      "mar": 331,
      "ence": 332,
      "même": 333,
      "ang": 334,
      "el": 335,
      "ut": 336,
      "mb": 337,
      "aine": 338,
      "ation": 339,
      "ord": 340,
      "cu": 341,
      "ér": 342,
      "sé": 343,
      "puis": 344,
      "sans": 345,
      "ques": 346,
      "reg": 347,
      "Les": 348,
      "ante": 349,
      "ête": 350,
      "oire": 351,
      "sous": 352,
      "sait": 353,
      "ond": 354,
      "temp": 355,
      "Elle": 356,
      "tres": 357,
      "ût": 358,
      "ieu": 359,
      "tant": 360,
      "ez": 361,
      "On": 362,
      "mé": 363,
      "ens": 364,
      "près": 365,
      "cher": 366,
      "vre": 367,
      "ph": 368,
      "ils": 369,
      "sou": 370,
      "ure": 371,
      "autre": 372,
      "ance": 373,
      "age": 374,
      "ail": 375,
      "pet": 376,
      "ite": 377,
      "lon": 378,
      "Mar": 379,
      "Ch": 380,
      "im": 381,
      "ni": 382,
      "hu": 383,
      "vie": 384,
      "ing": 385,
      "tour": 386,
      "for": 387,
      "prit": 388,
      "entre": 389,
      "sent": 390,
      "coup": 391,
      "bon": 392,
      "ten": 393,
      "dev": 394,
      "cela": 395,
      "dou": 396,
      "car": 397,
      "heu": 398,
      "der": 399,
      "été": 400,
      "ca": 401,
      "ert": 402,
      "fais": 403,
      "ta": 404,
      "em": 405,
      "rép": 406,
      "ors": 407,
      "eff": 408,
      "cour": 409,
      "En": 410,
      "va": 411,
      "ob": 412,
      "tion": 413,
      "ég": 414,
      "rait": 415,
      "enfant": 416,
      "roi": 417,
      "temps": 418,
      "moi": 419,
      "bou": 420,
      "gne": 421,
      "fois": 422,
      "rent": 423,
      "onc": 424,
      "cho": 425,
      "bre": 426,
      "étaient": 427,
      "asse": 428,
      "vers": 429,
      "pos": 430,
      "ple": 431,
      "air": 432,
      "voi": 433,
      "pa": 434,
      "mis": 435,
      "tous": 436,
      "sont": 437,
      "pi": 438,
      "lan": 439,
      "regard": 440,
      "fer": 441,
      "man": 442,
      "cri": 443,
      "jus": 444,
      "grand": 445,
      "ombre": 446,
      "ru": 447,
      "quelque": 448,
      "pre": 449,
      "jours": 450,
      "ées": 451,
      "ts": 452,
      "vis": 453,
      "aî": 454,
      "arri": 455,
      "Par": 456,
      "core": 457,
      "ius": 458,
      "encore": 459,
      "lar": 460,
      "porte": 461,
      "dire": 462,
      "do": 463,
      "mer": 464,
      "De": 465,
      "Marius": 466,
      "faire": 467,
      "min": 468,
      "sieur": 469,
      "voy": 470,
      "pen": 471,
      "Jean": 472,
      "tête": 473,
      "rien": 474,
      "mom": 475,
      "pla": 476,
      "ale": 477,
      "endre": 478,
      "men": 479,
      "moment": 480,
      "ches": 481,
      "ép": 482,
      "Un": 483,
      "aille": 484,
      "char": 485,
      "heure": 486,
      "pris": 487,
      "rou": 488,
      "point": 489,
      "eût": 490,
      "tin": 491,
      "sus": 492,
      "fem": 493,
      "lis": 494,
      "yeux": 495,
      "tomb": 496,
      "ati": 497,
      "év": 498,
      "toute": 499,
      "lais": 500,
      "sement": 501,
      "chose": 502,
      "rue": 503,
      "st": 504,
      "dont": 505,
      "voir": 506,
      "sant": 507,
      "no": 508,
      "mur": 509,
      "ler": 510,
      "petit": 511,
      "port": 512,
      "ommes": 513,
      "endant": 514,
      "mal": 515,
      "Gr": 516,
      "emp": 517,
      "rê": 518,
      "ad": 519,
      "vent": 520,
      "Que": 521,
      "toutes": 522,
      "nuit": 523,
      "cor": 524,
      "aus": 525,
      "Val": 526,
      "terre": 527,
      "leurs": 528,
      "fa": 529,
      "avoir": 530,
      "seu": 531,
      "fit": 532,
      "att": 533,
      "ande": 534,
      "Dieu": 535,
      "fin": 536,
      "cha": 537,
      "jeu": 538,
      "pres": 539,
      "jean": 540,
      "ass": 541,
      "Valjean": 542,
      "..": 543,
      "pie": 544,
      "ill": 545,
      "fond": 546,
      "cet": 547,
      "teur": 548,
      "aint": 549,
      "let": 550,
      "trouv": 551,
      "trav": 552,
      "cô": 553,
      "ici": 554,
      "ist": 555,
      "lit": 556,
      "voix": 557,
      "peut": 558,
      "vit": 559,
      ".»": 560,
      "bas": 561,
      "hé": 562,
      "be": 563,
      "cent": 564,
      "Tout": 565,
      "oe": 566,
      "illes": 567,
      "onne": 568,
      "pied": 569,
      "Vous": 570,
      "appe": 571,
      "quoi": 572,
      "toujours": 573,
      "chev": 574,
      "fut": 575,
      "nom": 576,
      "trois": 577,
      "beau": 578,
      "Cos": 579,
      "nes": 580,
      "Mais": 581,
      "devant": 582,
      "Cosette": 583,
      "ol": 584,
      "semb": 585,
      "chi": 586,
      "donc": 587,
      "fille": 588,
      "père": 589,
      "sour": 590,
      "vou": 591,
      "chant": 592,
      "met": 593,
      "donn": 594,
      "ique": 595,
      "suis": 596,
      "bour": 597,
      "fou": 598,
      "op": 599,
      "faisait": 600,
      "Au": 601,
      "jet": 602,
      "pré": 603,
      "premi": 604,
      "yn": 605,
      "lant": 606,
      "dem": 607,
      "plaine": 608,
      "cham": 609,
      "quand": 610,
      "eut": 611,
      "avaient": 612,
      ".--": 613,
      "ement": 614,
      "côté": 615,
      "sais": 616,
      "ange": 617,
      "enne": 618,
      "ères": 619,
      "mu": 620,
      "gar": 621,
      "ren": 622,
      "né": 623,
      "oc": 624,
      "mort": 625,
      "mit": 626,
      "rai": 627,
      "elles": 628,
      "ude": 629,
      "pau": 630,
      "pendant": 631,
      "êtes": 632,
      "ynplaine": 633,
      "Gw": 634,
      "pé": 635,
      "quat": 636,
      "lou": 637,
      "bar": 638,
      "Gwynplaine": 639,
      "imp": 640,
      "femme": 641,
      "jam": 642,
      "bli": 643,
      "!»": 644,
      "Une": 645,
      "èrent": 646,
      "hommes": 647,
      "après": 648,
      "pli": 649,
      "sion": 650,
      "Th": 651,
      "pec": 652,
      "pouv": 653,
      "cin": 654,
      "Paris": 655,
      "âme": 656,
      "lement": 657,
      "blan": 658,
      "ire": 659,
      "bout": 660,
      "roit": 661,
      "venait": 662,
      "ret": 663,
      "apit": 664,
      "moins": 665,
      "ges": 666,
      "non": 667,
      "quatre": 668,
      "urs": 669,
      "avez": 670,
      "ame": 671,
      "rest": 672,
      "sort": 673,
      "vait": 674,
      "ot": 675,
      "Cette": 676,
      "uit": 677,
      "vu": 678,
      "Saint": 679,
      "gent": 680,
      "Mon": 681,
      "hab": 682,
      "répon": 683,
      "gi": 684,
      "sor": 685,
      "fort": 686,
      "mont": 687,
      "ème": 688,
      "pit": 689,
      "ras": 690,
      "Ils": 691,
      "ray": 692,
      "dent": 693,
      "aff": 694,
      "toi": 695,
      "ça": 696,
      "anc": 697,
      "fau": 698,
      "autres": 699,
      "roy": 700,
      "long": 701,
      "parti": 702,
      "rer": 703,
      "tourn": 704,
      "ys": 705,
      "contre": 706,
      "jusqu": 707,
      "quelques": 708,
      "conn": 709,
      "tel": 710,
      "Pour": 711,
      "ilà": 712,
      "faut": 713,
      "tri": 714,
      "bres": 715,
      "vres": 716,
      "bras": 717,
      "aussi": 718,
      "use": 719,
      "ton": 720,
      "souff": 721,
      "lent": 722,
      "lier": 723,
      "mble": 724,
      "hi": 725,
      "feu": 726,
      "très": 727,
      "rit": 728,
      "ants": 729,
      "eurs": 730,
      "ître": 731,
      "monsieur": 732,
      "grande": 733,
      "ardi": 734,
      "Ma": 735,
      "person": 736,
      "mère": 737,
      "An": 738,
      "cur": 739,
      "ay": 740,
      "tait": 741,
      "allait": 742,
      "app": 743,
      "mil": 744,
      "bi": 745,
      "gros": 746,
      "aise": 747,
      "bat": 748,
      "prés": 749,
      "reprit": 750,
      "écri": 751,
      "esp": 752,
      "las": 753,
      "gle": 754,
      "haut": 755,
      "ainsi": 756,
      "jeune": 757,
      "petite": 758,
      "Nous": 759,
      "ché": 760,
      "ments": 761,
      "cas": 762,
      "répondit": 763,
      "sei": 764,
      "vieux": 765,
      "Dans": 766,
      "ingoire": 767,
      "Gringoire": 768,
      "cer": 769,
      "uis": 770,
      "Quand": 771,
      "hor": 772,
      "cle": 773,
      "couv": 774,
      "avant": 775,
      "disait": 776,
      "sui": 777,
      "ierre": 778,
      "reste": 779,
      "rie": 780,
      "sil": 781,
      "alle": 782,
      "dre": 783,
      "ju": 784,
      "voyait": 785,
      "lles": 786,
      "auche": 787,
      "jamais": 788,
      "oy": 789,
      "prof": 790,
      "Ou": 791,
      "noir": 792,
      "ature": 793,
      "ôt": 794,
      "fu": 795,
      "monde": 796,
      "bes": 797,
      "rais": 798,
      "votre": 799,
      "sin": 800,
      "ures": 801,
      "mains": 802,
      "Si": 803,
      "rière": 804,
      "chez": 805,
      "mat": 806,
      "onde": 807,
      "Al": 808,
      "ture": 809,
      "Ph": 810,
      "ole": 811,
      "esprit": 812,
      "cé": 813,
      "rap": 814,
      "iste": 815,
      "col": 816,
      "pren": 817,
      "presque": 818,
      "off": 819,
      "vient": 820,
      "auv": 821,
      "asi": 822,
      "obs": 823,
      "pieds": 824,
      "dét": 825,
      "lè": 826,
      "oie": 827,
      "ciel": 828,
      "Thén": 829,
      "inter": 830,
      "ardier": 831,
      "lumi": 832,
      "comp": 833,
      "Thénardier": 834,
      "oses": 835,
      "semblait": 836,
      "cl": 837,
      "clo": 838,
      "cert": 839,
      "gen": 840,
      "mot": 841,
      "II": 842,
      "tru": 843,
      "oeil": 844,
      "cal": 845,
      "travers": 846,
      "pauvre": 847,
      "place": 848,
      "chait": 849,
      "ber": 850,
      "chambre": 851,
      "tenant": 852,
      "habit": 853,
      "vrai": 854,
      "bus": 855,
      "dessus": 856,
      "assez": 857,
      "pens": 858,
      "sol": 859,
      "ze": 860,
      "gé": 861,
      "éch": 862,
      "téri": 863,
      "part": 864,
      "amour": 865,
      "étr": 866,
      "trou": 867,
      "ière": 868,
      "rom": 869,
      "venu": 870,
      "lot": 871,
      "Ur": 872,
      "tra": 873,
      "maître": 874,
      "quelle": 875,
      "depuis": 876,
      "pti": 877,
      "aper": 878,
      "autour": 879,
      "vant": 880,
      "ise": 881,
      "lord": 882,
      "arrê": 883,
      "bles": 884,
      "ore": 885,
      "ente": 886,
      "sible": 887,
      "euse": 888,
      "endait": 889,
      "ps": 890,
      "fen": 891,
      "sorte": 892,
      "effet": 893,
      "lée": 894,
      "comm": 895,
      "cons": 896,
      "mée": 897,
      "jou": 898,
      "Oh": 899,
      "Tu": 900,
      "bruit": 901,
      "èce": 902,
      "ions": 903,
      "maison": 904,
      "fla": 905,
      "trop": 906,
      "mille": 907,
      "Ursus": 908,
      "ât": 909,
      "art": 910,
      "acre": 911,
      "ardin": 912,
      "rée": 913,
      "ville": 914,
      "erne": 915,
      "derrière": 916,
      "Quel": 917,
      "voit": 918,
      "ages": 919,
      "évê": 920,
      "arde": 921,
      "ations": 922,
      "avert": 923,
      "commen": 924,
      "lumière": 925,
      "coeur": 926,
      "Qui": 927,
      "ign": 928,
      "soir": 929,
      "id": 930,
      "lie": 931,
      "acc": 932,
      "Puis": 933,
      "ves": 934,
      "peuple": 935,
      "seigne": 936,
      "crois": 937,
      "face": 938,
      "pouvait": 939,
      "tions": 940,
      "cre": 941,
      "illa": 942,
      "semble": 943,
      "peine": 944,
      "hors": 945,
      "ième": 946,
      "rec": 947,
      "modo": 948,
      "écl": 949,
      "cul": 950,
      "seul": 951,
      "Quasi": 952,
      "Quasimodo": 953,
      "rés": 954,
      "18": 955,
      "mag": 956,
      "ouis": 957,
      "souv": 958,
      "rez": 959,
      "bu": 960,
      "çon": 961,
      "instant": 962,
      "avons": 963,
      "ger": 964,
      "pierre": 965,
      "ving": 966,
      "Cela": 967,
      "pous": 968,
      "tent": 969,
      "notre": 970,
      "lieu": 971,
      "jo": 972,
      "prendre": 973,
      "dam": 974,
      "laient": 975,
      "archi": 976,
      "mor": 977,
      "Vo": 978,
      "jà": 979,
      "rire": 980,
      "front": 981,
      "Fr": 982,
      "four": 983,
      "dor": 984,
      "indi": 985,
      "bonne": 986,
      "Ah": 987,
      "droit": 988,
      "enten": 989,
      "phe": 990,
      "présent": 991,
      "premier": 992,
      "cré": 993,
      "heur": 994,
      "fus": 995,
      "vé": 996,
      "contin": 997,
      "appar": 998,
      "Javert": 999,
      "froi": 1000,
      "personne": 1001,
      "déjà": 1002,
      "églis": 1003,
      "choses": 1004,
      "Ces": 1005,
      "chemin": 1006,
      "foule": 1007,
      "siè": 1008,
      "hau": 1009,
      "aître": 1010,
      "sombre": 1011,
      "bo": 1012,
      "née": 1013,
      "édi": 1014,
      "Du": 1015,
      "ct": 1016,
      "leva": 1017,
      "vois": 1018,
      "Cependant": 1019,
      "No": 1020,
      "reur": 1021,
      "blanc": 1022,
      "han": 1023,
      "table": 1024,
      "ba": 1025,
      "ner": 1026,
      "appelle": 1027,
      "nos": 1028,
      "sole": 1029,
      "mons": 1030,
      "oign": 1031,
      "vag": 1032,
      "pensée": 1033,
      "ies": 1034,
      "silence": 1035,
      "Phoe": 1036,
      "évêque": 1037,
      "ables": 1038,
      "sorti": 1039,
      "lut": 1040,
      "connu": 1041,
      "can": 1042,
      "prêtre": 1043,
      "Phoebus": 1044,
      "barri": 1045,
      "gén": 1046,
      "diacre": 1047,
      "venir": 1048,
      "jout": 1049,
      "Comme": 1050,
      "ram": 1051,
      "matin": 1052,
      "aires": 1053,
      "vingt": 1054,
      "mand": 1055,
      "anger": 1056,
      "nouv": 1057,
      "enfants": 1058,
      "lons": 1059,
      "mas": 1060,
      "iles": 1061,
      "hui": 1062,
      "heures": 1063,
      "archidiacre": 1064,
      "voilà": 1065,
      "cla": 1066,
      "vieille": 1067,
      "six": 1068,
      "bais": 1069,
      "pt": 1070,
      "pav": 1071,
      "sang": 1072,
      "ayant": 1073,
      "milieu": 1074,
      "bois": 1075,
      "agne": 1076,
      "soit": 1077,
      "visage": 1078,
      "marqu": 1079,
      "Oui": 1080,
      "nature": 1081,
      "quet": 1082,
      "ave": 1083,
      "gue": 1084,
      "ète": 1085,
      "continu": 1086,
      "belle": 1087,
      "oit": 1088,
      "quin": 1089,
      "mieux": 1090,
      "roite": 1091,
      "ajout": 1092,
      "perdu": 1093,
      "apitre": 1094,
      "ié": 1095,
      "vint": 1096,
      "volu": 1097,
      "cinq": 1098,
      "pou": 1099,
      "chap": 1100,
      "alors": 1101,
      "diff": 1102,
      "église": 1103,
      "fût": 1104,
      "publi": 1105,
      "force": 1106,
      "eaux": 1107,
      "arch": 1108,
      "teau": 1109,
      "rible": 1110,
      "jourd": 1111,
      "erre": 1112,
      "lus": 1113,
      "soleil": 1114,
      "mait": 1115,
      "çait": 1116,
      "issait": 1117,
      "Louis": 1118,
      "sign": 1119,
      "font": 1120,
      "fix": 1121,
      "tenait": 1122,
      "demand": 1123,
      "spec": 1124,
      "forme": 1125,
      "cria": 1126,
      "femmes": 1127,
      "Alors": 1128,
      "cteur": 1129,
      "capit": 1130,
      "alité": 1131,
      "da": 1132,
      "pap": 1133,
      "celle": 1134,
      "pir": 1135,
      "prin": 1136,
      "joie": 1137,
      "loin": 1138,
      "connais": 1139,
      "vol": 1140,
      "iers": 1141,
      "itu": 1142,
      "prend": 1143,
      "dix": 1144,
      "roche": 1145,
      "obscur": 1146,
      "lard": 1147,
      "red": 1148,
      "?»": 1149,
      "Cla": 1150,
      "figu": 1151,
      "ceux": 1152,
      "pes": 1153,
      "songe": 1154,
      "gens": 1155,
      "ines": 1156,
      "pri": 1157,
      "Chapitre": 1158,
      "doute": 1159,
      "êtres": 1160,
      "demi": 1161,
      "lop": 1162,
      "mou": 1163,
      "vas": 1164,
      "lig": 1165,
      "serait": 1166,
      "saient": 1167,
      "inte": 1168,
      "chaque": 1169,
      "garde": 1170,
      "sup": 1171,
      ":--": 1172,
      "soi": 1173,
      "aller": 1174,
      "fé": 1175,
      "lez": 1176,
      "grands": 1177,
      "meur": 1178,
      "vos": 1179,
      "èbres": 1180,
      "certain": 1181,
      "appro": 1182,
      "prom": 1183,
      "distin": 1184,
      "pal": 1185,
      "vér": 1186,
      "Char": 1187,
      "ancs": 1188,
      "fam": 1189,
      "cel": 1190,
      "suite": 1191,
      "Notre": 1192,
      "gre": 1193,
      "vin": 1194,
      "seigneur": 1195,
      "Des": 1196,
      "cience": 1197,
      "cab": 1198,
      "ypti": 1199,
      "auc": 1200,
      "passé": 1201,
      "égypti": 1202,
      "Es": 1203,
      "bal": 1204,
      "trait": 1205,
      "ouver": 1206,
      "heureux": 1207,
      "première": 1208,
      "fini": 1209,
      "Jac": 1210,
      "dom": 1211,
      "go": 1212,
      "aujourd": 1213,
      "écla": 1214,
      "sentait": 1215,
      "Mont": 1216,
      "barrica": 1217,
      "passa": 1218,
      "Jehan": 1219,
      "Est": 1220,
      "cat": 1221,
      "quest": 1222,
      "desc": 1223,
      "!--": 1224,
      "regarda": 1225,
      "France": 1226,
      "parler": 1227,
      "dispar": 1228,
      "»,": 1229,
      "éb": 1230,
      "dra": 1231,
      "tré": 1232,
      "vais": 1233,
      "issement": 1234,
      "Dea": 1235,
      "Claude": 1236,
      "her": 1237,
      "idée": 1238,
      "Où": 1239,
      "écu": 1240,
      "Monsieur": 1241,
      "bé": 1242,
      "dame": 1243,
      "sau": 1244,
      "faite": 1245,
      "Se": 1246,
      "mir": 1247,
      "ablement": 1248,
      "tourna": 1249,
      "mouv": 1250,
      "quer": 1251,
      "corps": 1252,
      "Sur": 1253,
      "croy": 1254,
      "aime": 1255,
      "argent": 1256,
      "genou": 1257,
      "ori": 1258,
      "atta": 1259,
      "salle": 1260,
      "Dame": 1261,
      "dest": 1262,
      "reux": 1263,
      "plein": 1264,
      "figure": 1265,
      "ane": 1266,
      "duc": 1267,
      "minu": 1268,
      "Sa": 1269,
      "soci": 1270,
      "hist": 1271,
      "quement": 1272,
      "écria": 1273,
      "siècle": 1274,
      "passant": 1275,
      "anci": 1276,
      "pourtant": 1277,
      "francs": 1278,
      "Voilà": 1279,
      "pâ": 1280,
      "passer": 1281,
      "profonde": 1282,
      "Son": 1283,
      "cau": 1284,
      "illard": 1285,
      "beso": 1286,
      "mois": 1287,
      "âce": 1288,
      "Angle": 1289,
      "Angleterre": 1290,
      "ible": 1291,
      "peur": 1292,
      "chau": 1293,
      "rac": 1294,
      "ainte": 1295,
      "log": 1296,
      "ron": 1297,
      "Eh": 1298,
      "sée": 1299,
      "tén": 1300,
      "Gav": 1301,
      "droite": 1302,
      "étant": 1303,
      "veille": 1304,
      "Non": 1305,
      "Tous": 1306,
      "mour": 1307,
      "por": 1308,
      "simp": 1309,
      "bran": 1310,
      "justi": 1311,
      "attent": 1312,
      "Gavroche": 1313,
      "veut": 1314,
      "tier": 1315,
      "ordre": 1316,
      "rette": 1317,
      "Com": 1318,
      "oute": 1319,
      "gran": 1320,
      "sub": 1321,
      "bâ": 1322,
      "iens": 1323,
      "pén": 1324,
      "trans": 1325,
      "êt": 1326,
      "sec": 1327,
      "aperç": 1328,
      "emb": 1329,
      "veux": 1330,
      "tement": 1331,
      "uni": 1332,
      "capitaine": 1333,
      "ténèbres": 1334,
      "èvre": 1335,
      "ît": 1336,
      "lev": 1337,
      "ban": 1338,
      "if": 1339,
      "lâ": 1340,
      "loi": 1341,
      "levent": 1342,
      "ition": 1343,
      "dés": 1344,
      "beaucoup": 1345,
      "basse": 1346,
      "jardin": 1347,
      "nier": 1348,
      "ême": 1349,
      "ités": 1350,
      "regardait": 1351,
      "petits": 1352,
      "Pas": 1353,
      "tran": 1354,
      "maintenant": 1355,
      "ailleurs": 1356,
      "Fauche": 1357,
      "geois": 1358,
      "bor": 1359,
      "lég": 1360,
      "fur": 1361,
      "ément": 1362,
      "eure": 1363,
      "préc": 1364,
      "mari": 1365,
      "ailles": 1366,
      "jeunes": 1367,
      "prenait": 1368,
      "Fauchelevent": 1369,
      "idé": 1370,
      "mauv": 1371,
      "ende": 1372,
      "dement": 1373,
      "...": 1374,
      "cheveux": 1375,
      "Jacques": 1376,
      "aign": 1377,
      "oubli": 1378,
      "debout": 1379,
      "ds": 1380,
      "gauche": 1381,
      "ats": 1382,
      "pul": 1383,
      "oles": 1384,
      "misér": 1385,
      "fai": 1386,
      "Made": 1387,
      "Ne": 1388,
      "vue": 1389,
      "ève": 1390,
      "coin": 1391,
      "brus": 1392,
      "bord": 1393,
      "ène": 1394,
      "immen": 1395,
      "cheval": 1396,
      "espèce": 1397,
      "na": 1398,
      "éco": 1399,
      "leine": 1400,
      "erie": 1401,
      "phil": 1402,
      "savait": 1403,
      "prob": 1404,
      "sieurs": 1405,
      "sance": 1406,
      "enir": 1407,
      "écout": 1408,
      "frère": 1409,
      "bouche": 1410,
      "maine": 1411,
      "quit": 1412,
      "diable": 1413,
      "dents": 1414,
      "barricade": 1415,
      "Madeleine": 1416,
      "Ar": 1417,
      "gl": 1418,
      "secon": 1419,
      "parole": 1420,
      "abord": 1421,
      "vier": 1422,
      "aît": 1423,
      "mouvement": 1424,
      "toit": 1425,
      "douce": 1426,
      "Gu": 1427,
      "laquelle": 1428,
      "épau": 1429,
      "vague": 1430,
      "rô": 1431,
      "uil": 1432,
      "deman": 1433,
      "ili": 1434,
      "pay": 1435,
      "façon": 1436,
      "offici": 1437,
      "destin": 1438,
      "clar": 1439,
      "fe": 1440,
      "pont": 1441,
      "quelqu": 1442,
      "rues": 1443,
      "gri": 1444,
      "bourgeois": 1445,
      "Cour": 1446,
      "allu": 1447,
      "oso": 1448,
      "illé": 1449,
      "antes": 1450,
      "égyptienne": 1451,
      "dehors": 1452,
      "huit": 1453,
      "liers": 1454,
      "sera": 1455,
      "pare": 1456,
      "sommes": 1457,
      "sez": 1458,
      "entrer": 1459,
      "rant": 1460,
      "quar": 1461,
      "neu": 1462,
      "qué": 1463,
      "sidé": 1464,
      "ouff": 1465,
      "mul": 1466,
      "Hé": 1467,
      "doi": 1468,
      "fra": 1469,
      "celui": 1470,
      "aurait": 1471,
      "itude": 1472,
      "livres": 1473,
      "faute": 1474,
      "étrange": 1475,
      "demanda": 1476,
      "philoso": 1477,
      "ha": 1478,
      "cep": 1479,
      "servi": 1480,
      "solu": 1481,
      "donner": 1482,
      "dres": 1483,
      "parce": 1484,
      "suff": 1485,
      "effray": 1486,
      "assis": 1487,
      "appelait": 1488,
      "occu": 1489,
      "pavé": 1490,
      "fant": 1491,
      "cieux": 1492,
      "froid": 1493,
      "livre": 1494,
      "mala": 1495,
      "humain": 1496,
      "ormand": 1497,
      "aissait": 1498,
      "mine": 1499,
      "vement": 1500,
      "énor": 1501,
      "prise": 1502,
      "fenêtre": 1503,
      "archite": 1504,
      "immense": 1505,
      "sens": 1506,
      "ume": 1507,
      "cru": 1508,
      "charm": 1509,
      "genoux": 1510,
      "Tr": 1511,
      "telle": 1512,
      "chet": 1513,
      "regar": 1514,
      "stat": 1515,
      "sourire": 1516,
      "cav": 1517,
      "hér": 1518,
      "jol": 1519,
      "intéri": 1520,
      "passe": 1521,
      "amin": 1522,
      "profond": 1523,
      "vil": 1524,
      "aie": 1525,
      "dessous": 1526,
      "passait": 1527,
      "Enjol": 1528,
      "Enjolras": 1529,
      "donne": 1530,
      "sauv": 1531,
      "lice": 1532,
      "tombe": 1533,
      "travail": 1534,
      "nouveau": 1535,
      "tro": 1536,
      "ris": 1537,
      "entendit": 1538,
      "derni": 1539,
      "donné": 1540,
      "ade": 1541,
      "got": 1542,
      "lequel": 1543,
      "seule": 1544,
      "amp": 1545,
      "rouge": 1546,
      "fré": 1547,
      "remarqu": 1548,
      "sif": 1549,
      "révolu": 1550,
      "dos": 1551,
      "sy": 1552,
      "déses": 1553,
      "soeur": 1554,
      "fran": 1555,
      "val": 1556,
      "fig": 1557,
      "question": 1558,
      "Bar": 1559,
      "Rien": 1560,
      "filles": 1561,
      "ic": 1562,
      "mys": 1563,
      "esse": 1564,
      "entend": 1565,
      "osse": 1566,
      "moy": 1567,
      "onné": 1568,
      "humaine": 1569,
      "besoin": 1570,
      "gag": 1571,
      "noire": 1572,
      "saint": 1573,
      "considé": 1574,
      "grâce": 1575,
      "suc": 1576,
      "oreille": 1577,
      "prim": 1578,
      "rir": 1579,
      "madame": 1580,
      "répond": 1581,
      "pays": 1582,
      "cy": 1583,
      "gal": 1584,
      "maisons": 1585,
      "illen": 1586,
      "histoire": 1587,
      "bri": 1588,
      "nent": 1589,
      "um": 1590,
      "entendait": 1591,
      "sept": 1592,
      "doux": 1593,
      "cents": 1594,
      "préci": 1595,
      "Gillen": 1596,
      "jest": 1597,
      "pil": 1598,
      "trouver": 1599,
      "mettre": 1600,
      "éclair": 1601,
      "Gillenormand": 1602,
      "flot": 1603,
      "tort": 1604,
      "aveu": 1605,
      "enfin": 1606,
      "ailli": 1607,
      "possible": 1608,
      "ajouta": 1609,
      "remp": 1610,
      "pourquoi": 1611,
      "bris": 1612,
      "édifi": 1613,
      "chée": 1614,
      "chaî": 1615,
      "étais": 1616,
      "atte": 1617,
      "signe": 1618,
      "pect": 1619,
      "haute": 1620,
      "mystéri": 1621,
      "my": 1622,
      "paroles": 1623,
      "Cet": 1624,
      "Re": 1625,
      "ues": 1626,
      "issant": 1627,
      "plan": 1628,
      "faisant": 1629,
      "raison": 1630,
      "Jo": 1631,
      "meu": 1632,
      "isson": 1633,
      "venue": 1634,
      "longtemps": 1635,
      "iz": 1636,
      "gues": 1637,
      "ction": 1638,
      "lors": 1639,
      "appu": 1640,
      "grou": 1641,
      "arrêta": 1642,
      "ho": 1643,
      "faisaient": 1644,
      "justice": 1645,
      "clarté": 1646,
      "XI": 1647,
      "gla": 1648,
      "vain": 1649,
      "prév": 1650,
      "abî": 1651,
      "autant": 1652,
      "obser": 1653,
      "savoir": 1654,
      "tor": 1655,
      "contr": 1656,
      "tomber": 1657,
      "architec": 1658,
      "parmi": 1659,
      "ussi": 1660,
      "iez": 1661,
      "propre": 1662,
      "sortir": 1663,
      "alla": 1664,
      "tranqu": 1665,
      "cap": 1666,
      "lang": 1667,
      "pain": 1668,
      "».": 1669,
      "ettes": 1670,
      "indre": 1671,
      "coups": 1672,
      "seulement": 1673,
      "ents": 1674,
      "seau": 1675,
      "triste": 1676,
      "bonheur": 1677,
      "fils": 1678,
      "sav": 1679,
      "stu": 1680,
      "ouvrit": 1681,
      "fleurs": 1682,
      "lour": 1683,
      "deur": 1684,
      "Après": 1685,
      "cs": 1686,
      "gré": 1687,
      "hô": 1688,
      "déli": 1689,
      "mots": 1690,
      "Pourquoi": 1691,
      "misérable": 1692,
      "resse": 1693,
      "cier": 1694,
      "compag": 1695,
      "doig": 1696,
      "has": 1697,
      "pét": 1698,
      "euf": 1699,
      "état": 1700,
      "méde": 1701,
      "far": 1702,
      "somme": 1703,
      "istre": 1704,
      "brusquement": 1705,
      "aque": 1706,
      "çà": 1707,
      "sul": 1708,
      "regarde": 1709,
      "aperce": 1710,
      "Comment": 1711,
      "bête": 1712,
      "cès": 1713,
      "traî": 1714,
      "geait": 1715,
      "police": 1716,
      "velop": 1717,
      "commence": 1718,
      "hon": 1719,
      "vieillard": 1720,
      "quelquefois": 1721,
      "he": 1722,
      "immo": 1723,
      "sold": 1724,
      "bonn": 1725,
      "drap": 1726,
      "gout": 1727,
      "âge": 1728,
      "escal": 1729,
      "condam": 1730,
      "grav": 1731,
      "terrible": 1732,
      "marche": 1733,
      "Ses": 1734,
      "ceci": 1735,
      "antine": 1736,
      "raient": 1737,
      "sout": 1738,
      "épo": 1739,
      "comment": 1740,
      "poursui": 1741,
      "plais": 1742,
      "impos": 1743,
      "Toute": 1744,
      "mité": 1745,
      "olé": 1746,
      "pat": 1747,
      "oui": 1748,
      "entra": 1749,
      "oix": 1750,
      "Fantine": 1751,
      "arr": 1752,
      "due": 1753,
      "vide": 1754,
      "viens": 1755,
      "enfer": 1756,
      "gale": 1757,
      "lin": 1758,
      "éri": 1759,
      "lever": 1760,
      "qua": 1761,
      "eusement": 1762,
      "unes": 1763,
      "guerre": 1764,
      "pleine": 1765,
      "mise": 1766,
      "épouv": 1767,
      "flamb": 1768,
      "distingu": 1769,
      "arra": 1770,
      "robe": 1771,
      "écrit": 1772,
      "sentit": 1773,
      "dernier": 1774,
      "fat": 1775,
      "reau": 1776,
      "relig": 1777,
      "sier": 1778,
      "singu": 1779,
      "attention": 1780,
      "moyen": 1781,
      "fleur": 1782,
      "nait": 1783,
      "ueil": 1784,
      "frisson": 1785,
      "mét": 1786,
      "déf": 1787,
      "ains": 1788,
      "empê": 1789,
      "souffle": 1790,
      "fallait": 1791,
      "nav": 1792,
      "tas": 1793,
      "angle": 1794,
      "beauté": 1795,
      "horiz": 1796,
      "Di": 1797,
      "don": 1798,
      "lés": 1799,
      "intel": 1800,
      "contemp": 1801,
      "vite": 1802,
      "tours": 1803,
      "large": 1804,
      "pression": 1805,
      "chèvre": 1806,
      "doit": 1807,
      "Or": 1808,
      "tard": 1809,
      "remu": 1810,
      "chande": 1811,
      "tiers": 1812,
      "regarder": 1813,
      "Car": 1814,
      "ieux": 1815,
      "sonne": 1816,
      "oiselle": 1817,
      "visible": 1818,
      "hémi": 1819,
      "souvent": 1820,
      "bohémi": 1821,
      "éblou": 1822,
      "az": 1823,
      "poign": 1824,
      "sal": 1825,
      "acun": 1826,
      "stère": 1827,
      "génér": 1828,
      "jesté": 1829,
      "hasard": 1830,
      "fle": 1831,
      "maire": 1832,
      "grosse": 1833,
      "fo": 1834,
      "lai": 1835,
      "morte": 1836,
      "usement": 1837,
      "éte": 1838,
      "êle": 1839,
      "ets": 1840,
      "inqui": 1841,
      "cad": 1842,
      "ignor": 1843,
      "redout": 1844,
      "escalier": 1845,
      "are": 1846,
      "action": 1847,
      "tenir": 1848,
      "jeta": 1849,
      ",--": 1850,
      "but": 1851,
      "iques": 1852,
      "thé": 1853,
      "entendre": 1854,
      "ceau": 1855,
      "tile": 1856,
      "put": 1857,
      "brû": 1858,
      "sées": 1859,
      "cause": 1860,
      "Hélas": 1861,
      "ige": 1862,
      "tac": 1863,
      "chaus": 1864,
      "pitié": 1865,
      "conscience": 1866,
      "simple": 1867,
      "adis": 1868,
      "tôt": 1869,
      "évi": 1870,
      "uns": 1871,
      "ordin": 1872,
      "ieuse": 1873,
      "attend": 1874,
      "cellu": 1875,
      "tal": 1876,
      "quait": 1877,
      "inconnu": 1878,
      "parlait": 1879,
      "tremb": 1880,
      "déser": 1881,
      "cris": 1882,
      "court": 1883,
      "loup": 1884,
      "Ju": 1885,
      "âtre": 1886,
      "entr": 1887,
      "prouv": 1888,
      "lées": 1889,
      "heureuse": 1890,
      "bourg": 1891,
      "mai": 1892,
      "viv": 1893,
      "pièce": 1894,
      "arrière": 1895,
      "corde": 1896,
      "cation": 1897,
      "ry": 1898,
      "lation": 1899,
      "chance": 1900,
      "pron": 1901,
      "lière": 1902,
      "propos": 1903,
      "ferme": 1904,
      "aucun": 1905,
      "ales": 1906,
      "nées": 1907,
      "yrac": 1908,
      "duit": 1909,
      "uses": 1910,
      "poit": 1911,
      "faites": 1912,
      "cule": 1913,
      "porter": 1914,
      "péri": 1915,
      "feyrac": 1916,
      "Courfeyrac": 1917,
      "époque": 1918,
      "reti": 1919,
      "chu": 1920,
      "cess": 1921,
      "onner": 1922,
      "angé": 1923,
      "resta": 1924,
      "affaire": 1925,
      "abîme": 1926,
      "Pont": 1927,
      "hy": 1928,
      "pent": 1929,
      "sû": 1930,
      "ul": 1931,
      "illon": 1932,
      "isait": 1933,
      "lots": 1934,
      "Quoi": 1935,
      "nité": 1936,
      "comte": 1937,
      "onté": 1938,
      "iller": 1939,
      "rage": 1940,
      "obscurité": 1941,
      "promen": 1942,
      "architecture": 1943,
      "content": 1944,
      "double": 1945,
      "dro": 1946,
      "ances": 1947,
      "poing": 1948,
      "égout": 1949,
      "lentement": 1950,
      "cellule": 1951,
      "Ger": 1952,
      "har": 1953,
      "parle": 1954,
      "expli": 1955,
      "tomba": 1956,
      "teurs": 1957,
      "Jond": 1958,
      "âmes": 1959,
      "die": 1960,
      "tés": 1961,
      "devait": 1962,
      "portait": 1963,
      "lettre": 1964,
      "continua": 1965,
      "vérité": 1966,
      "tranquille": 1967,
      "Jondrette": 1968,
      "reine": 1969,
      "sions": 1970,
      "andis": 1971,
      "sergent": 1972,
      "crou": 1973,
      "sourd": 1974,
      "colère": 1975,
      "ancien": 1976,
      "cit": 1977,
      "éterne": 1978,
      "rine": 1979,
      "compli": 1980,
      "vez": 1981,
      "frap": 1982,
      "lords": 1983,
      "grandes": 1984,
      "intérieur": 1985,
      "pan": 1986,
      "avent": 1987,
      "ali": 1988,
      "surtout": 1989,
      "gnes": 1990,
      "murmur": 1991,
      "certaine": 1992,
      "genre": 1993,
      "III": 1994,
      "rav": 1995,
      "sat": 1996,
      "lucar": 1997,
      "trom": 1998,
      "compl": 1999,
      "éni": 2000,
      "juste": 2001,
      "rêver": 2002,
      "rayon": 2003,
      "Elles": 2004,
      "In": 2005,
      "Pet": 2006,
      "cardin": 2007,
      "vont": 2008,
      "avais": 2009,
      "lugu": 2010,
      "parut": 2011,
      "Enfin": 2012,
      "trouva": 2013,
      "horrible": 2014,
      "famille": 2015,
      "neuf": 2016,
      "langue": 2017,
      "pte": 2018,
      "ilité": 2019,
      "inf": 2020,
      "insi": 2021,
      "combat": 2022,
      "ombres": 2023,
      "rêve": 2024,
      "mettait": 2025,
      "éto": 2026,
      "loy": 2027,
      "trouve": 2028,
      "dernière": 2029,
      "bohémienne": 2030,
      "ensemble": 2031,
      "champ": 2032,
      "interrom": 2033,
      "chapeau": 2034,
      "mourir": 2035,
      "cro": 2036,
      "ls": 2037,
      "nation": 2038,
      "pers": 2039,
      "lecteur": 2040,
      "ater": 2041,
      "sac": 2042,
      "sage": 2043,
      "viol": 2044,
      "chercher": 2045,
      "publique": 2046,
      "ordinaire": 2047,
      "quant": 2048,
      "entrée": 2049,
      "isme": 2050,
      "selon": 2051,
      "nifi": 2052,
      "sortit": 2053,
      "berté": 2054,
      "fenêtres": 2055,
      "vaste": 2056,
      "poitrine": 2057,
      "Bour": 2058,
      "Sans": 2059,
      "nez": 2060,
      "istes": 2061,
      "chir": 2062,
      "chef": 2063,
      "ands": 2064,
      "devoir": 2065,
      "docteur": 2066,
      "lettres": 2067,
      "voulait": 2068,
      "nécess": 2069,
      "partie": 2070,
      "particu": 2071,
      "horizon": 2072,
      "ES": 2073,
      "ûte": 2074,
      "grave": 2075,
      "accent": 2076,
      "Quant": 2077,
      "épais": 2078,
      "portes": 2079,
      "pauvres": 2080,
      "longue": 2081,
      "public": 2082,
      "palais": 2083,
      "société": 2084,
      "officier": 2085,
      "Ainsi": 2086,
      "pair": 2087,
      "ries": 2088,
      "lique": 2089,
      "ami": 2090,
      "voulez": 2091,
      "quinze": 2092,
      "papier": 2093,
      "idées": 2094,
      "mauvais": 2095,
      "philosoph": 2096,
      "médecin": 2097,
      "ivre": 2098,
      "têtes": 2099,
      "neige": 2100,
      "ouvert": 2101,
      "veill": 2102,
      "posé": 2103,
      "blanche": 2104,
      "hiver": 2105,
      "personn": 2106,
      "bataille": 2107,
      "horreur": 2108,
      "juge": 2109,
      "énorme": 2110,
      "appuy": 2111,
      "lucarne": 2112,
      "Ni": 2113,
      "rons": 2114,
      "arbres": 2115,
      "faits": 2116,
      "moments": 2117,
      "éclai": 2118,
      "farou": 2119,
      "belles": 2120,
      "vê": 2121,
      "aug": 2122,
      "partout": 2123,
      "say": 2124,
      "prodi": 2125,
      "demoiselle": 2126,
      "flam": 2127,
      "Tour": 2128,
      "pai": 2129,
      "ennent": 2130,
      "reconnu": 2131,
      "tez": 2132,
      "dément": 2133,
      "Toutes": 2134,
      "monter": 2135,
      "lèvres": 2136,
      "Sainte": 2137,
      "sés": 2138,
      "paraissait": 2139,
      "quels": 2140,
      "lette": 2141,
      "aucune": 2142,
      "Bark": 2143,
      "gor": 2144,
      "oeu": 2145,
      "situ": 2146,
      "science": 2147,
      "reconnais": 2148,
      "rier": 2149,
      "bleu": 2150,
      "alement": 2151,
      "laissé": 2152,
      "phedro": 2153,
      "pâle": 2154,
      "Barkil": 2155,
      "pér": 2156,
      "som": 2157,
      "zar": 2158,
      "armes": 2159,
      "chair": 2160,
      "lueur": 2161,
      "onnement": 2162,
      "triom": 2163,
      "bile": 2164,
      "couvent": 2165,
      "profon": 2166,
      "magnifi": 2167,
      "cardinal": 2168,
      "Barkilphedro": 2169,
      "més": 2170,
      "infini": 2171,
      "plutôt": 2172,
      "posa": 2173,
      "inex": 2174,
      "trouvé": 2175,
      "instants": 2176,
      "épaules": 2177,
      "mystère": 2178,
      "impossible": 2179,
      "dur": 2180,
      "jur": 2181,
      "land": 2182,
      "pier": 2183,
      "vertu": 2184,
      "cure": 2185,
      "misère": 2186,
      "admir": 2187,
      "trouvait": 2188,
      "Charles": 2189,
      "ouverte": 2190,
      "édifice": 2191,
      "nombre": 2192,
      "scul": 2193,
      "tap": 2194,
      "utile": 2195,
      "dez": 2196,
      "châ": 2197,
      "tient": 2198,
      "ards": 2199,
      "mées": 2200,
      "meral": 2201,
      "sinistre": 2202,
      "commençait": 2203,
      "aperçut": 2204,
      "révolution": 2205,
      "?--": 2206,
      "Hom": 2207,
      "ah": 2208,
      "gés": 2209,
      "îtres": 2210,
      "ome": 2211,
      "lue": 2212,
      "tron": 2213,
      "voici": 2214,
      "évan": 2215,
      "laissa": 2216,
      "donnait": 2217,
      "Là": 2218,
      "manger": 2219,
      "essay": 2220,
      "dedans": 2221,
      "liberté": 2222,
      "absolu": 2223,
      "vivre": 2224,
      "pourrait": 2225,
      "mêmes": 2226,
      "vieilles": 2227,
      "baron": 2228,
      "clair": 2229,
      "monstre": 2230,
      "figur": 2231,
      "meralda": 2232,
      "honn": 2233,
      "mment": 2234,
      "chas": 2235,
      "chaient": 2236,
      "oiseau": 2237,
      "colon": 2238,
      "solit": 2239,
      "croix": 2240,
      "voyant": 2241,
      "troisième": 2242,
      "morts": 2243,
      "rapi": 2244,
      "ailes": 2245,
      "ari": 2246,
      "vivant": 2247,
      "cir": 2248,
      "soy": 2249,
      "effort": 2250,
      "sembla": 2251,
      "calme": 2252,
      "souvenir": 2253,
      "Per": 2254,
      "ling": 2255,
      "pon": 2256,
      "pait": 2257,
      "ousse": 2258,
      "dus": 2259,
      "gra": 2260,
      "examin": 2261,
      "emport": 2262,
      "diffor": 2263,
      "Deux": 2264,
      "Pr": 2265,
      "Pierre": 2266,
      "bons": 2267,
      "rois": 2268,
      "apolé": 2269,
      "espér": 2270,
      "aveugle": 2271,
      "cis": 2272,
      "dès": 2273,
      "dence": 2274,
      "rang": 2275,
      "iné": 2276,
      "euses": 2277,
      "oiseaux": 2278,
      "petites": 2279,
      "souri": 2280,
      "sortait": 2281,
      "Quelque": 2282,
      "Av": 2283,
      "bl": 2284,
      "cen": 2285,
      "dait": 2286,
      "ombe": 2287,
      "soupir": 2288,
      "route": 2289,
      "laisser": 2290,
      "noirs": 2291,
      "probablement": 2292,
      "doucement": 2293,
      "destinée": 2294,
      "glis": 2295,
      "gouff": 2296,
      "nant": 2297,
      "tir": 2298,
      "conse": 2299,
      "tantôt": 2300,
      "cours": 2301,
      "onneur": 2302,
      "voulu": 2303,
      "demeur": 2304,
      "gib": 2305,
      "logis": 2306,
      "Moi": 2307,
      "Sire": 2308,
      "XV": 2309,
      "ace": 2310,
      "zième": 2311,
      "inno": 2312,
      "étu": 2313,
      "tremble": 2314,
      "dité": 2315,
      "plusieurs": 2316,
      "cuir": 2317,
      "devint": 2318,
      "effar": 2319,
      "Depuis": 2320,
      "Esmeralda": 2321,
      "poursuivit": 2322,
      "oires": 2323,
      "lire": 2324,
      "ossu": 2325,
      "amis": 2326,
      "veau": 2327,
      "irent": 2328,
      "adres": 2329,
      "herbe": 2330,
      "pant": 2331,
      "demain": 2332,
      "confus": 2333,
      "gon": 2334,
      "lion": 2335,
      "amou": 2336,
      "ouvre": 2337,
      "grès": 2338,
      "mêle": 2339,
      "restait": 2340,
      "spectac": 2341,
      "croyait": 2342,
      "minutes": 2343,
      "Josi": 2344,
      "général": 2345,
      "Seu": 2346,
      "bro": 2347,
      "sc": 2348,
      "spl": 2349,
      "insur": 2350,
      "trente": 2351,
      "mid": 2352,
      "senti": 2353,
      "douleur": 2354,
      "couvert": 2355,
      "jolie": 2356,
      "quarante": 2357,
      "çant": 2358,
      "reuse": 2359,
      "eté": 2360,
      "change": 2361,
      "chaise": 2362,
      "conf": 2363,
      "arriv": 2364,
      "voyez": 2365,
      "prison": 2366,
      "murs": 2367,
      "chevaux": 2368,
      "apoléon": 2369,
      "Clop": 2370,
      "Lu": 2371,
      "sante": 2372,
      "tâ": 2373,
      "ôme": 2374,
      "quette": 2375,
      "atten": 2376,
      "gea": 2377,
      "formid": 2378,
      "voie": 2379,
      "arriver": 2380,
      "feuille": 2381,
      "lugubre": 2382,
      "Josiane": 2383,
      "Clopin": 2384,
      "LA": 2385,
      "Mes": 2386,
      "Napoléon": 2387,
      "dout": 2388,
      "lende": 2389,
      "ège": 2390,
      "envelop": 2391,
      "chacun": 2392,
      "parfois": 2393,
      "amar": 2394,
      "majesté": 2395,
      "exist": 2396,
      "enfon": 2397,
      "tress": 2398,
      "Châ": 2399,
      "épée": 2400,
      "cheminée": 2401,
      "cathé": 2402,
      "immobile": 2403,
      "Br": 2404,
      "Cor": 2405,
      "envi": 2406,
      "recu": 2407,
      "entour": 2408,
      "aura": 2409,
      "chante": 2410,
      "aband": 2411,
      "endroit": 2412,
      "super": 2413,
      "rale": 2414,
      "pot": 2415,
      "polit": 2416,
      "guet": 2417,
      "marcher": 2418,
      "pouvoir": 2419,
      "échelle": 2420,
      "cathédra": 2421,
      "mati": 2422,
      "aim": 2423,
      "devenu": 2424,
      "inté": 2425,
      "cesse": 2426,
      "marchait": 2427,
      "obé": 2428,
      "groupe": 2429,
      "sûr": 2430,
      "Mi": 2431,
      "banc": 2432,
      "fil": 2433,
      "tandis": 2434,
      "levé": 2435,
      "étin": 2436,
      "dist": 2437,
      "trouble": 2438,
      "illage": 2439,
      "monstru": 2440,
      "passage": 2441,
      "écolier": 2442,
      "seconde": 2443,
      "mystérieux": 2444,
      "étoiles": 2445,
      "Fleur": 2446,
      "aret": 2447,
      "batt": 2448,
      "haine": 2449,
      "pée": 2450,
      "veu": 2451,
      "illait": 2452,
      "déchi": 2453,
      "gris": 2454,
      "mode": 2455,
      "muraille": 2456,
      "Quelques": 2457,
      "goût": 2458,
      "redoutable": 2459,
      "Petit": 2460,
      "pierres": 2461,
      "lendemain": 2462,
      "Bo": 2463,
      "Ici": 2464,
      "hâ": 2465,
      "honneur": 2466,
      "ref": 2467,
      "chien": 2468,
      "maîtres": 2469,
      "Quelle": 2470,
      "chesse": 2471,
      "laissait": 2472,
      "emple": 2473,
      "suppli": 2474,
      "disparu": 2475,
      "Maître": 2476,
      "cos": 2477,
      "ly": 2478,
      "moire": 2479,
      "pend": 2480,
      "yr": 2481,
      "élé": 2482,
      "lets": 2483,
      "représent": 2484,
      "quée": 2485,
      "llement": 2486,
      "grille": 2487,
      "endor": 2488,
      "quelles": 2489,
      "anges": 2490,
      "médi": 2491,
      "oncer": 2492,
      "ruis": 2493,
      "présence": 2494,
      "malade": 2495,
      "franç": 2496,
      "lorsqu": 2497,
      "Main": 2498,
      "Sous": 2499,
      "cles": 2500,
      "drô": 2501,
      "jau": 2502,
      "ose": 2503,
      "riche": 2504,
      "aines": 2505,
      "pointe": 2506,
      "vert": 2507,
      "vision": 2508,
      "prisonn": 2509,
      "isto": 2510,
      "obscure": 2511,
      "compte": 2512,
      "Bas": 2513,
      "err": 2514,
      "nement": 2515,
      "oile": 2516,
      "lune": 2517,
      "alais": 2518,
      "sable": 2519,
      "diri": 2520,
      "poche": 2521,
      "serv": 2522,
      "venons": 2523,
      "croire": 2524,
      "sépul": 2525,
      "répét": 2526,
      "spectacle": 2527,
      "Bou": 2528,
      "Bon": 2529,
      "Voy": 2530,
      "crép": 2531,
      "loir": 2532,
      "poir": 2533,
      "reaux": 2534,
      "retourna": 2535,
      "argot": 2536,
      "dieu": 2537,
      "agit": 2538,
      "monseigneur": 2539,
      "arriva": 2540,
      "malheur": 2541,
      "voud": 2542,
      "jeter": 2543,
      "rencon": 2544,
      "faud": 2545,
      "grosses": 2546,
      "entendu": 2547,
      "princi": 2548,
      "cabaret": 2549,
      "mauvaise": 2550,
      "pleur": 2551,
      "çons": 2552,
      "eus": 2553,
      "sons": 2554,
      "cile": 2555,
      "beaux": 2556,
      "bizar": 2557,
      "clef": 2558,
      "silen": 2559,
      "créature": 2560,
      "désespoir": 2561,
      "navire": 2562,
      "bén": 2563,
      "ppe": 2564,
      "devient": 2565,
      "tif": 2566,
      "midi": 2567,
      "montre": 2568,
      "tumul": 2569,
      "venaient": 2570,
      "imag": 2571,
      "occas": 2572,
      "rêverie": 2573,
      "Lys": 2574,
      "Pendant": 2575,
      "ceur": 2576,
      "gles": 2577,
      "jec": 2578,
      "nie": 2579,
      "tte": 2580,
      "reç": 2581,
      "remit": 2582,
      "agon": 2583,
      "loge": 2584,
      "poète": 2585,
      "bru": 2586,
      "marbre": 2587,
      "aventure": 2588,
      "ate": 2589,
      "gy": 2590,
      "savez": 2591,
      "éten": 2592,
      "forç": 2593,
      "pensif": 2594,
      "noms": 2595,
      "prési": 2596,
      "prends": 2597,
      "minute": 2598,
      "hés": 2599,
      "llo": 2600,
      "enez": 2601,
      "audit": 2602,
      "ites": 2603,
      "iner": 2604,
      "dure": 2605,
      "parlant": 2606,
      "mach": 2607,
      "instin": 2608,
      "laisse": 2609,
      "Grève": 2610,
      "bâti": 2611,
      "plaisir": 2612,
      "gouffre": 2613,
      "Maintenant": 2614,
      "Lond": 2615,
      "Plus": 2616,
      "chés": 2617,
      "cependant": 2618,
      "astre": 2619,
      "étoile": 2620,
      "verse": 2621,
      "mbre": 2622,
      "boulev": 2623,
      "pleure": 2624,
      "ador": 2625,
      "admi": 2626,
      "garçon": 2627,
      "rencontre": 2628,
      "blanch": 2629,
      "farouche": 2630,
      "flamme": 2631,
      "tit": 2632,
      "ventre": 2633,
      "aimer": 2634,
      "année": 2635,
      "années": 2636,
      "tière": 2637,
      "ffe": 2638,
      "crit": 2639,
      "crime": 2640,
      "malheureux": 2641,
      "cloche": 2642,
      "faim": 2643,
      "Mag": 2644,
      "cée": 2645,
      "cité": 2646,
      "cler": 2647,
      "iv": 2648,
      "vén": 2649,
      "él": 2650,
      "istr": 2651,
      "avenir": 2652,
      "trag": 2653,
      "libre": 2654,
      "viend": 2655,
      "subli": 2656,
      "manière": 2657,
      "pense": 2658,
      "côtés": 2659,
      "rester": 2660,
      "pape": 2661,
      "approcha": 2662,
      "doigt": 2663,
      "épouvant": 2664,
      "Alle": 2665,
      "Voi": 2666,
      "mante": 2667,
      "rè": 2668,
      "illu": 2669,
      "éter": 2670,
      "lir": 2671,
      "viennent": 2672,
      "tombait": 2673,
      "quoique": 2674,
      "vul": 2675,
      "habitu": 2676,
      "oeuvre": 2677,
      "gibet": 2678,
      "formidable": 2679,
      "Londres": 2680,
      "Voici": 2681,
      "ront": 2682,
      "ences": 2683,
      "reconn": 2684,
      "chat": 2685,
      "prune": 2686,
      "sie": 2687,
      "illet": 2688,
      "jusque": 2689,
      "arrivait": 2690,
      "empe": 2691,
      "toile": 2692,
      "hôtel": 2693,
      "satis": 2694,
      "Avec": 2695,
      "fati": 2696,
      "plui": 2697,
      "éan": 2698,
      "aigle": 2699,
      "enri": 2700,
      "outre": 2701,
      "levait": 2702,
      "revint": 2703,
      "armée": 2704,
      "pros": 2705,
      "sique": 2706,
      "dites": 2707,
      "supr": 2708,
      "séri": 2709,
      "istan": 2710,
      "appeler": 2711,
      "Seine": 2712,
      "Tristan": 2713,
      "cathédrale": 2714,
      "14": 2715,
      "Palais": 2716,
      "refer": 2717,
      "quent": 2718,
      "arbre": 2719,
      "secou": 2720,
      "rées": 2721,
      "mpe": 2722,
      "act": 2723,
      "écar": 2724,
      "anglais": 2725,
      "songeait": 2726,
      "secret": 2727,
      "azur": 2728,
      "hale": 2729,
      "ke": 2730,
      "aigu": 2731,
      "auté": 2732,
      "paris": 2733,
      "disant": 2734,
      "plomb": 2735,
      "criait": 2736,
      "évé": 2737,
      "couver": 2738,
      "illaume": 2739,
      "183": 2740,
      "ligence": 2741,
      "second": 2742,
      "Guillaume": 2743,
      "précipit": 2744,
      "chandelle": 2745,
      "LE": 2746,
      "bot": 2747,
      "gard": 2748,
      "fié": 2749,
      "sév": 2750,
      "versité": 2751,
      "faça": 2752,
      "échap": 2753,
      "apercevait": 2754,
      "hésit": 2755,
      "bel": 2756,
      "bagne": 2757,
      "fl": 2758,
      "fos": 2759,
      "tante": 2760,
      "ône": 2761,
      "aver": 2762,
      "ouss": 2763,
      "tique": 2764,
      "mesure": 2765,
      "onnée": 2766,
      "larmes": 2767,
      "demande": 2768,
      "prévôt": 2769,
      "intelligence": 2770,
      "EN": 2771,
      "boire": 2772,
      "lois": 2773,
      "nour": 2774,
      "émeu": 2775,
      "anim": 2776,
      "etc": 2777,
      "itié": 2778,
      "meille": 2779,
      "ellement": 2780,
      "respect": 2781,
      "Leblanc": 2782,
      "méchant": 2783,
      "pensa": 2784,
      "charlie": 2785,
      "illons": 2786,
      "demment": 2787,
      "sortes": 2788,
      "allez": 2789,
      "prince": 2790,
      "distinc": 2791,
      "pénét": 2792,
      "précis": 2793,
      "effrayant": 2794,
      "interrompit": 2795,
      "Seulement": 2796,
      "éloign": 2797,
      "Aussi": 2798,
      "Mad": 2799,
      "épar": 2800,
      "aimait": 2801,
      "quante": 2802,
      "entière": 2803,
      "arme": 2804,
      "aube": 2805,
      "avoc": 2806,
      "orité": 2807,
      "dule": 2808,
      "digne": 2809,
      "tirer": 2810,
      "ressemblait": 2811,
      "civil": 2812,
      "oisse": 2813,
      "uel": 2814,
      "loo": 2815,
      "monu": 2816,
      "plon": 2817,
      "crut": 2818,
      "douze": 2819,
      "semblaient": 2820,
      "berge": 2821,
      "commun": 2822,
      "Votre": 2823,
      "voisin": 2824,
      "soix": 2825,
      "passants": 2826,
      "vaguement": 2827,
      "cadav": 2828,
      "Clan": 2829,
      "Fro": 2830,
      "Rob": 2831,
      "Tiens": 2832,
      "Water": 2833,
      "ado": 2834,
      "coi": 2835,
      "gou": 2836,
      "ime": 2837,
      "tat": 2838,
      "Écou": 2839,
      "paradis": 2840,
      "déd": 2841,
      "vivement": 2842,
      "brou": 2843,
      "march": 2844,
      "illée": 2845,
      "appel": 2846,
      "chiff": 2847,
      "Phili": 2848,
      "clin": 2849,
      "Frollo": 2850,
      "rend": 2851,
      "tend": 2852,
      "endi": 2853,
      "paraît": 2854,
      "dition": 2855,
      "gren": 2856,
      "détail": 2857,
      "blancs": 2858,
      "spectre": 2859,
      "frémis": 2860,
      "soldat": 2861,
      "Clancharlie": 2862,
      "Ré": 2863,
      "ades": 2864,
      "dû": 2865,
      "fun": 2866,
      "aimé": 2867,
      "chère": 2868,
      "luse": 2869,
      "salu": 2870,
      "usé": 2871,
      "uste": 2872,
      "ressemble": 2873,
      "volon": 2874,
      "peau": 2875,
      "formes": 2876,
      "charge": 2877,
      "corri": 2878,
      "tourner": 2879,
      "fumée": 2880,
      "déta": 2881,
      "poussa": 2882,
      "distinguait": 2883,
      "vêtu": 2884,
      "Waterloo": 2885,
      "volontiers": 2886,
      "centre": 2887,
      "clou": 2888,
      "croit": 2889,
      "taient": 2890,
      "espa": 2891,
      "parlement": 2892,
      "comb": 2893,
      "conque": 2894,
      "progrès": 2895,
      "brume": 2896,
      "extré": 2897,
      "tempête": 2898,
      "oncé": 2899,
      "seuil": 2900,
      "commença": 2901,
      "géné": 2902,
      "idéal": 2903,
      "chaîne": 2904,
      "commencement": 2905,
      "Homo": 2906,
      "boulevard": 2907,
      "bât": 2908,
      "cous": 2909,
      "gê": 2910,
      "hou": 2911,
      "mén": 2912,
      "nou": 2913,
      "rendre": 2914,
      "levant": 2915,
      "aud": 2916,
      "aurais": 2917,
      "rose": 2918,
      "accep": 2919,
      "molue": 2920,
      "poser": 2921,
      "icile": 2922,
      "préf": 2923,
      "cloître": 2924,
      "Charmolue": 2925,
      "faible": 2926,
      "fraî": 2927,
      "charmant": 2928,
      "murmura": 2929,
      "président": 2930,
      "empereur": 2931,
      "Madame": 2932,
      "soixante": 2933,
      "Pau": 2934,
      "hur": 2935,
      "haus": 2936,
      "éche": 2937,
      "éprouv": 2938,
      "entrait": 2939,
      "trous": 2940,
      "sire": 2941,
      "lions": 2942,
      "supéri": 2943,
      "rare": 2944,
      "pose": 2945,
      "voiture": 2946,
      "sommeil": 2947,
      "goutte": 2948,
      "forçat": 2949,
      "Aux": 2950,
      "cage": 2951,
      "paille": 2952,
      "tam": 2953,
      "issier": 2954,
      "ligne": 2955,
      "réve": 2956,
      "rot": 2957,
      "rore": 2958,
      "soli": 2959,
      "arrivé": 2960,
      "plafond": 2961,
      "malheureuse": 2962,
      "jambes": 2963,
      "piter": 2964,
      "hideux": 2965,
      "prenant": 2966,
      "furent": 2967,
      "service": 2968,
      "Gre": 2969,
      "cave": 2970,
      "jon": 2971,
      "ption": 2972,
      "roses": 2973,
      "uve": 2974,
      "issaient": 2975,
      "chans": 2976,
      "abet": 2977,
      "chemise": 2978,
      "mate": 2979,
      "bonhomme": 2980,
      "regardant": 2981,
      "jeté": 2982,
      "cinquante": 2983,
      "geste": 2984,
      "truands": 2985,
      "sauver": 2986,
      "soldats": 2987,
      "situation": 2988,
      "pluie": 2989,
      "Philippe": 2990,
      "AN": 2991,
      "RE": 2992,
      "nus": 2993,
      "ote": 2994,
      "pin": 2995,
      "ronde": 2996,
      "sombres": 2997,
      "taire": 2998,
      "aurore": 2999,
      "onnait": 3000,
      "plai": 3001,
      "sentir": 3002,
      "douceur": 3003,
      "océan": 3004,
      "Mahi": 3005,
      "Allons": 3006,
      "pareil": 3007,
      "gorge": 3008,
      "distance": 3009,
      "crépus": 3010,
      "17": 3011,
      "Père": 3012,
      "den": 3013,
      "ive": 3014,
      "mant": 3015,
      "èche": 3016,
      "épuis": 3017,
      "ess": 3018,
      "ennu": 3019,
      "delà": 3020,
      "devenir": 3021,
      "rique": 3022,
      "confi": 3023,
      "téné": 3024,
      "mage": 3025,
      "nuage": 3026,
      "importe": 3027,
      "échapp": 3028,
      "joli": 3029,
      "suprême": 3030,
      "sévère": 3031,
      "ténébre": 3032,
      "Va": 3033,
      "Ville": 3034,
      "th": 3035,
      "taille": 3036,
      "Être": 3037,
      "îte": 3038,
      "popul": 3039,
      "guer": 3040,
      "venus": 3041,
      "onds": 3042,
      "arrive": 3043,
      "pendu": 3044,
      "assin": 3045,
      "écoutait": 3046,
      "grima": 3047,
      "philosophe": 3048,
      "bonnes": 3049,
      "honnête": 3050,
      "avocat": 3051,
      "Con": 3052,
      "Dav": 3053,
      "Homme": 3054,
      "clas": 3055,
      "gour": 3056,
      "gage": 3057,
      "ières": 3058,
      "jure": 3059,
      "tonn": 3060,
      "xe": 3061,
      "isation": 3062,
      "avou": 3063,
      "assi": 3064,
      "respir": 3065,
      "coucher": 3066,
      "excep": 3067,
      "Ceci": 3068,
      "mélan": 3069,
      "phy": 3070,
      "porté": 3071,
      "nommé": 3072,
      "Auc": 3073,
      "faubourg": 3074,
      "lève": 3075,
      "gloire": 3076,
      "toits": 3077,
      "chute": 3078,
      "bizarre": 3079,
      "occasion": 3080,
      "gypte": 3081,
      "David": 3082,
      "bilité": 3083,
      "hier": 3084,
      "rat": 3085,
      "tée": 3086,
      "prati": 3087,
      "démon": 3088,
      "ouvrir": 3089,
      "guen": 3090,
      "expression": 3091,
      "courut": 3092,
      "portail": 3093,
      "lants": 3094,
      "saisit": 3095,
      "cercle": 3096,
      "recluse": 3097,
      "épaule": 3098,
      "doigts": 3099,
      "frappa": 3100,
      "étudi": 3101,
      "instinct": 3102,
      "Mab": 3103,
      "flé": 3104,
      "mation": 3105,
      "deuil": 3106,
      "rem": 3107,
      "quart": 3108,
      "mémoire": 3109,
      "huissier": 3110,
      "couronne": 3111,
      "finit": 3112,
      "différ": 3113,
      "volonté": 3114,
      "stupé": 3115,
      "magnifique": 3116,
      "Henri": 3117,
      "Uni": 3118,
      "cence": 3119,
      "geur": 3120,
      "nue": 3121,
      "oche": 3122,
      "raille": 3123,
      "tis": 3124,
      "tille": 3125,
      "vête": 3126,
      "vari": 3127,
      "ède": 3128,
      "èces": 3129,
      "émo": 3130,
      "neau": 3131,
      "eule": 3132,
      "aspect": 3133,
      "cident": 3134,
      "carre": 3135,
      "objet": 3136,
      "jetait": 3137,
      "partir": 3138,
      "tournant": 3139,
      "Oud": 3140,
      "évidemment": 3141,
      "personnage": 3142,
      "répéta": 3143,
      "As": 3144,
      "hardi": 3145,
      "ril": 3146,
      "rét": 3147,
      "Égypte": 3148,
      "ïs": 3149,
      "lac": 3150,
      "era": 3151,
      "chers": 3152,
      "riff": 3153,
      "dép": 3154,
      "dévo": 3155,
      "gromme": 3156,
      "angoisse": 3157,
      "tants": 3158,
      "effroi": 3159,
      "égal": 3160,
      "mendi": 3161,
      "partit": 3162,
      "jeunesse": 3163,
      "nécessaire": 3164,
      "tapis": 3165,
      "DE": 3166,
      "Gen": 3167,
      "Jus": 3168,
      "bis": 3169,
      "ile": 3170,
      "nés": 3171,
      "to": 3172,
      "quai": 3173,
      "latin": 3174,
      "chois": 3175,
      "orable": 3176,
      "compère": 3177,
      "sages": 3178,
      "about": 3179,
      "désor": 3180,
      "résul": 3181,
      "voûte": 3182,
      "pure": 3183,
      "gui": 3184,
      "plis": 3185,
      "autorité": 3186,
      "asseoir": 3187,
      "bourreau": 3188,
      "joue": 3189,
      "ctur": 3190,
      "subite": 3191,
      "énig": 3192,
      "jaune": 3193,
      "Mahiette": 3194,
      "Oudarde": 3195,
      "Mer": 3196,
      "dant": 3197,
      "gée": 3198,
      "gamin": 3199,
      "nasse": 3200,
      "pur": 3201,
      "ral": 3202,
      "tendre": 3203,
      "œur": 3204,
      "devenait": 3205,
      "audi": 3206,
      "unique": 3207,
      "allons": 3208,
      "dieux": 3209,
      "cont": 3210,
      "deuxième": 3211,
      "forêt": 3212,
      "tenu": 3213,
      "mercy": 3214,
      "attendait": 3215,
      "hériff": 3216,
      "affreux": 3217,
      "Pontmercy": 3218,
      "reconnut": 3219,
      "sculp": 3220,
      "bay": 3221,
      "bailli": 3222,
      "foi": 3223,
      "ifi": 3224,
      "ope": 3225,
      "pente": 3226,
      "shériff": 3227,
      "éperdu": 3228,
      "celles": 3229,
      "outh": 3230,
      "livier": 3231,
      "lignes": 3232,
      "tira": 3233,
      "procès": 3234,
      "journée": 3235,
      "ération": 3236,
      "boute": 3237,
      "pensées": 3238,
      "royal": 3239,
      "hide": 3240,
      "joyeux": 3241,
      "hauteur": 3242,
      "certains": 3243,
      "profondément": 3244,
      "Mabeuf": 3245,
      "Université": 3246,
      "carrefour": 3247,
      "Rome": 3248,
      "fosse": 3249,
      "hal": 3250,
      "saut": 3251,
      "lace": 3252,
      "nements": 3253,
      "orgue": 3254,
      "trie": 3255,
      "duchesse": 3256,
      "parnasse": 3257,
      "liv": 3258,
      "déci": 3259,
      "défen": 3260,
      "chel": 3261,
      "grin": 3262,
      "venant": 3263,
      "autrefois": 3264,
      "human": 3265,
      "fermée": 3266,
      "mange": 3267,
      "larges": 3268,
      "épan": 3269,
      "portant": 3270,
      "donna": 3271,
      "lanterne": 3272,
      "montait": 3273,
      "vagues": 3274,
      "canon": 3275,
      "Montparnasse": 3276,
      "suffit": 3277,
      "pilori": 3278,
      "Jupiter": 3279,
      "émeute": 3280,
      "Cop": 3281,
      "a_": 3282,
      "cra": 3283,
      "xi": 3284,
      "eue": 3285,
      "songer": 3286,
      "const": 3287,
      "cessi": 3288,
      "termin": 3289,
      "dissi": 3290,
      "puissant": 3291,
      "vieil": 3292,
      "ferre": 3293,
      "penole": 3294,
      "plau": 3295,
      "sements": 3296,
      "blanches": 3297,
      "juin": 3298,
      "féro": 3299,
      "bandit": 3300,
      "demander": 3301,
      "sommet": 3302,
      "Coppenole": 3303,
      "Combe": 3304,
      "ON": 3305,
      "Tant": 3306,
      "aï": 3307,
      "fier": 3308,
      "fête": 3309,
      "nomme": 3310,
      "ros": 3311,
      "çaient": 3312,
      "rece": 3313,
      "lame": 3314,
      "allé": 3315,
      "commis": 3316,
      "tine": 3317,
      "cimet": 3318,
      "extr": 3319,
      "ieuses": 3320,
      "traver": 3321,
      "premiers": 3322,
      "suivre": 3323,
      "suivait": 3324,
      "pavés": 3325,
      "chapelle": 3326,
      "branche": 3327,
      "drôle": 3328,
      "Combeferre": 3329,
      "Cité": 3330,
      "IT": 3331,
      "Olivier": 3332,
      "Po": 3333,
      "Vier": 3334,
      "].": 3335,
      "bla": 3336,
      "fie": 3337,
      "hique": 3338,
      "joy": 3339,
      "quis": 3340,
      "omin": 3341,
      "avan": 3342,
      "prê": 3343,
      "riait": 3344,
      "duis": 3345,
      "osité": 3346,
      "plume": 3347,
      "mie": 3348,
      "popu": 3349,
      "ienne": 3350,
      "Entre": 3351,
      "voyag": 3352,
      "tombeau": 3353,
      "Grant": 3354,
      "attitude": 3355,
      "création": 3356,
      "sergents": 3357,
      "confusément": 3358,
      "humanité": 3359,
      "Her": 3360,
      "Trou": 3361,
      "faux": 3362,
      "gie": 3363,
      "mure": 3364,
      "noires": 3365,
      "retrouver": 3366,
      "inture": 3367,
      "divin": 3368,
      "réalité": 3369,
      "respec": 3370,
      "sure": 3371,
      "tué": 3372,
      "longues": 3373,
      "regards": 3374,
      "merveille": 3375,
      "laissant": 3376,
      "fortune": 3377,
      "monta": 3378,
      "arrêter": 3379,
      "accro": 3380,
      "figures": 3381,
      "honte": 3382,
      "intelli": 3383,
      "absolument": 3384,
      "Quelquefois": 3385,
      "politique": 3386,
      "façade": 3387,
      "populaire": 3388,
      "escar": 3389,
      "astro": 3390,
      "esti": 3391,
      "paravant": 3392,
      "alités": 3393,
      "comprendre": 3394,
      "vière": 3395,
      "cine": 3396,
      "cieusement": 3397,
      "moitié": 3398,
      "onnaire": 3399,
      "exemple": 3400,
      "aillons": 3401,
      "pleins": 3402,
      "tombé": 3403,
      "terreur": 3404,
      "rayons": 3405,
      "ramas": 3406,
      "chaud": 3407,
      "chancelier": 3408,
      "espace": 3409,
      "tambour": 3410,
      "Green": 3411,
      "désormais": 3412,
      "Vierge": 3413,
      "ache": 3414,
      "camp": 3415,
      "gouv": 3416,
      "jette": 3417,
      "râ": 3418,
      "envoy": 3419,
      "riches": 3420,
      "ouvrait": 3421,
      "mite": 3422,
      "provi": 3423,
      "velour": 3424,
      "mademoiselle": 3425,
      "permis": 3426,
      "plain": 3427,
      "exécu": 3428,
      "verb": 3429,
      "aillit": 3430,
      "Chr": 3431,
      "poste": 3432,
      "travaille": 3433,
      "opin": 3434,
      "sorci": 3435,
      "Pourtant": 3436,
      "souffr": 3437,
      "grandeur": 3438,
      "questions": 3439,
      "descen": 3440,
      "galerie": 3441,
      "pairs": 3442,
      "attendu": 3443,
      "extrémité": 3444,
      "velours": 3445,
      "Beau": 3446,
      "cendre": 3447,
      "vaient": 3448,
      "lations": 3449,
      "entes": 3450,
      "antique": 3451,
      "vive": 3452,
      "amer": 3453,
      "monte": 3454,
      "terr": 3455,
      "frapp": 3456,
      "existe": 3457,
      "cares": 3458,
      "sourc": 3459,
      "chanter": 3460,
      "resté": 3461,
      "montagne": 3462,
      "habitude": 3463,
      "vraiment": 3464,
      "mands": 3465,
      "baiser": 3466,
      "mariage": 3467,
      "école": 3468,
      "statue": 3469,
      "désespé": 3470,
      "brig": 3471,
      "religion": 3472,
      "Personne": 3473,
      "splendi": 3474,
      "sépulcre": 3475,
      "machin": 3476,
      "manteau": 3477,
      "cimetière": 3478,
      "Grantaire": 3479,
      "16": 3480,
      "Eur": 3481,
      "bec": 3482,
      "gaî": 3483,
      "loire": 3484,
      "auparavant": 3485,
      "inutile": 3486,
      "étude": 3487,
      "line": 3488,
      "applau": 3489,
      "abs": 3490,
      "réussi": 3491,
      "accrou": 3492,
      "puissance": 3493,
      "voile": 3494,
      "cerveau": 3495,
      "magistr": 3496,
      "fusil": 3497,
      "marquis": 3498,
      "univers": 3499,
      "épouvante": 3500,
      "prunelle": 3501,
      "gouverne": 3502,
      ".,": 3503,
      "achet": 3504,
      "cueil": 3505,
      "fâ": 3506,
      "hous": 3507,
      "ogi": 3508,
      "page": 3509,
      "retour": 3510,
      "araign": 3511,
      "invisible": 3512,
      "étroite": 3513,
      "rivière": 3514,
      "colle": 3515,
      "Chaque": 3516,
      "répli": 3517,
      "pire": 3518,
      "commencer": 3519,
      "descend": 3520,
      "branches": 3521,
      "fauteuil": 3522,
      "charmante": 3523,
      "complète": 3524,
      "scène": 3525,
      "Lui": 3526,
      "Box": 3527,
      "sérieux": 3528,
      "Tou": 3529,
      "bêtes": 3530,
      "dée": 3531,
      "flots": 3532,
      "lante": 3533,
      "mous": 3534,
      "pendre": 3535,
      "refus": 3536,
      "onze": 3537,
      "aisse": 3538,
      "trône": 3539,
      "rive": 3540,
      "révér": 3541,
      "amment": 3542,
      "coeurs": 3543,
      "moindre": 3544,
      "souliers": 3545,
      "plaît": 3546,
      "atient": 3547,
      "rêv": 3548,
      "attendre": 3549,
      "paupi": 3550,
      "Montre": 3551,
      "rappro": 3552,
      "détour": 3553,
      "cloches": 3554,
      "indign": 3555,
      "tellement": 3556,
      "répondre": 3557,
      "répondait": 3558,
      "empêcher": 3559,
      "sonneur": 3560,
      "triomph": 3561,
      "ponine": 3562,
      "amoureux": 3563,
      "sublime": 3564,
      "coiff": 3565,
      "Bah": 3566,
      "Bossu": 3567,
      "Pa": 3568,
      "Vers": 3569,
      "afin": 3570,
      "vêt": 3571,
      "aigne": 3572,
      "anç": 3573,
      "teaux": 3574,
      "iss": 3575,
      "chan": 3576,
      "lure": 3577,
      "tristes": 3578,
      "sière": 3579,
      "passion": 3580,
      "dér": 3581,
      "surprise": 3582,
      "régi": 3583,
      "résolu": 3584,
      "amen": 3585,
      "messieurs": 3586,
      "écras": 3587,
      "mêlée": 3588,
      "verti": 3589,
      "courant": 3590,
      "criant": 3591,
      "pensait": 3592,
      "charrette": 3593,
      "points": 3594,
      "appelé": 3595,
      "rection": 3596,
      "siècles": 3597,
      "descendre": 3598,
      "singulier": 3599,
      "vivants": 3600,
      "philosophie": 3601,
      "prisonnier": 3602,
      "Coi": 3603,
      "Fait": 3604,
      "Hu": 3605,
      "IV": 3606,
      "dî": 3607,
      "fac": 3608,
      "gend": 3609,
      "imb": 3610,
      "jal": 3611,
      "mâ": 3612,
      "mens": 3613,
      "sainte": 3614,
      "Éponine": 3615,
      "éleva": 3616,
      "auquel": 3617,
      "itions": 3618,
      "astres": 3619,
      "aises": 3620,
      "alo": 3621,
      "sacr": 3622,
      "abat": 3623,
      "conser": 3624,
      "cie": 3625,
      "sujet": 3626,
      "montr": 3627,
      "profit": 3628,
      "perdre": 3629,
      "extra": 3630,
      "puisque": 3631,
      "Champ": 3632,
      "tourb": 3633,
      "tourment": 3634,
      "cale": 3635,
      "pice": 3636,
      "attendant": 3637,
      "....": 3638,
      "champs": 3639,
      "gieux": 3640,
      "personnes": 3641,
      "curi": 3642,
      "troupe": 3643,
      "oreilles": 3644,
      "levée": 3645,
      "théâtre": 3646,
      "tumulte": 3647,
      "Magloire": 3648,
      "Fi": 3649,
      "Plu": 3650,
      "ctier": 3651,
      "fure": 3652,
      "tais": 3653,
      "âne": 3654,
      "repro": 3655,
      "lab": 3656,
      "lay": 3657,
      "lampe": 3658,
      "intes": 3659,
      "étouff": 3660,
      "démo": 3661,
      "réverb": 3662,
      "peuvent": 3663,
      "fièvre": 3664,
      "verre": 3665,
      "carré": 3666,
      "tache": 3667,
      "boue": 3668,
      "posait": 3669,
      "crier": 3670,
      "...--": 3671,
      "portier": 3672,
      "symb": 3673,
      "condamné": 3674,
      "colonel": 3675,
      "Bossuet": 3676,
      "Coictier": 3677,
      "),": 3678,
      "Bien": 3679,
      "Dé": 3680,
      "Li": 3681,
      "Port": 3682,
      "grec": 3683,
      "pus": 3684,
      "tab": 3685,
      "ym": 3686,
      "aile": 3687,
      "ennes": 3688,
      "autel": 3689,
      "issent": 3690,
      "its": 3691,
      "indé": 3692,
      "parfait": 3693,
      "parlé": 3694,
      "sonner": 3695,
      "comple": 3696,
      "constat": 3697,
      "écou": 3698,
      "couleur": 3699,
      "elling": 3700,
      "doulou": 3701,
      "courir": 3702,
      "penser": 3703,
      "côte": 3704,
      "feuilles": 3705,
      "écrire": 3706,
      "résis": 3707,
      "lieues": 3708,
      "génie": 3709,
      "certaines": 3710,
      "ouverture": 3711,
      "embar": 3712,
      "payer": 3713,
      "singulière": 3714,
      "particulier": 3715,
      "admirable": 3716,
      "rapidement": 3717,
      "demeura": 3718,
      "Michel": 3719,
      "civilisation": 3720,
      "subitement": 3721,
      "achev": 3722,
      "fal": 3723,
      "flan": 3724,
      "masse": 3725,
      "titu": 3726,
      "èle": 3727,
      "devenue": 3728,
      "repris": 3729,
      "ours": 3730,
      "proie": 3731,
      "ride": 3732,
      "ath": 3733,
      "allée": 3734,
      "lieux": 3735,
      "tie": 3736,
      "dévelop": 3737,
      "surface": 3738,
      "écoute": 3739,
      "ordonn": 3740,
      "sépar": 3741,
      "cala": 3742,
      "souver": 3743,
      "hautes": 3744,
      "difficile": 3745,
      "fixement": 3746,
      "Montferme": 3747,
      "veiller": 3748,
      "succès": 3749,
      "triomphe": 3750,
      "espérance": 3751,
      "parisis": 3752,
      "cadavre": 3753,
      "grimace": 3754,
      "Europe": 3755,
      "Montfermeil": 3756,
      "Dis": 3757,
      "Mo": 3758,
      "gai": 3759,
      "grés": 3760,
      "mères": 3761,
      "revenir": 3762,
      "tex": 3763,
      "chent": 3764,
      "allaient": 3765,
      "compar": 3766,
      "déchir": 3767,
      "race": 3768,
      "procu": 3769,
      "disons": 3770,
      "imprim": 3771,
      "cacho": 3772,
      "position": 3773,
      "larme": 3774,
      "roues": 3775,
      "emporte": 3776,
      "tournait": 3777,
      "tribu": 3778,
      "morne": 3779,
      "sortie": 3780,
      "nouvelle": 3781,
      "redres": 3782,
      "chauff": 3783,
      "bâton": 3784,
      "embour": 3785,
      "vaincu": 3786,
      "folle": 3787,
      "pronon": 3788,
      "Voyez": 3789,
      "précisément": 3790,
      "providence": 3791,
      "Hô": 3792,
      "Jés": 3793,
      "OU": 3794,
      "ib": 3795,
      "igne": 3796,
      "meurs": 3797,
      "vac": 3798,
      "Ça": 3799,
      "écha": 3800,
      "ômes": 3801,
      "auberge": 3802,
      "iter": 3803,
      "itable": 3804,
      "leste": 3805,
      "ceaux": 3806,
      "siff": 3807,
      "conc": 3808,
      "vivait": 3809,
      "perd": 3810,
      "cuis": 3811,
      "médit": 3812,
      "cacher": 3813,
      "effroy": 3814,
      "courage": 3815,
      "roue": 3816,
      "lissait": 3817,
      "Grâce": 3818,
      "vitre": 3819,
      "voulut": 3820,
      "toine": 3821,
      "Antoine": 3822,
      "espoir": 3823,
      "184": 3824,
      "masque": 3825,
      "specta": 3826,
      "attaque": 3827,
      "simplement": 3828,
      "universe": 3829,
      "dressa": 3830,
      "édifices": 3831,
      "chaussée": 3832,
      "imagin": 3833,
      "Jésus": 3834,
      "ateur": 3835,
      "blé": 3836,
      "bande": 3837,
      "ctions": 3838,
      "forte": 3839,
      "ias": 3840,
      "lys": 3841,
      "vaut": 3842,
      "île": 3843,
      "envie": 3844,
      "arti": 3845,
      "telet": 3846,
      "eul": 3847,
      "omie": 3848,
      "urent": 3849,
      "parfu": 3850,
      "amus": 3851,
      "vole": 3852,
      "accou": 3853,
      "irré": 3854,
      "disent": 3855,
      "gueur": 3856,
      "excel": 3857,
      "nuages": 3858,
      "bouge": 3859,
      "posée": 3860,
      "pirer": 3861,
      "hélas": 3862,
      "chevê": 3863,
      "esprits": 3864,
      "apparition": 3865,
      "gothique": 3866,
      "apercevoir": 3867,
      "faudrait": 3868,
      "Co": 3869,
      "Dj": 3870,
      "Lux": 3871,
      "camar": 3872,
      "ga": 3873,
      "laise": 3874,
      "ples": 3875,
      "pêle": 3876,
      "entré": 3877,
      "cepti": 3878,
      "étage": 3879,
      "ourque": 3880,
      "allant": 3881,
      "passi": 3882,
      "volé": 3883,
      "produit": 3884,
      "écrou": 3885,
      "Martin": 3886,
      "humeur": 3887,
      "tase": 3888,
      "rentra": 3889,
      "assée": 3890,
      "chantait": 3891,
      "royale": 3892,
      "interro": 3893,
      "dormait": 3894,
      "profondeurs": 3895,
      "pénétr": 3896,
      "oublié": 3897,
      "bonnet": 3898,
      "désert": 3899,
      "paix": 3900,
      "Châtelet": 3901,
      "eussent": 3902,
      "reconnaître": 3903,
      "échapper": 3904,
      "corridor": 3905,
      "Montreuil": 3906,
      "Djali": 3907,
      "15": 3908,
      "Ber": 3909,
      "Ceux": 3910,
      "Jam": 3911,
      "Mal": 3912,
      "Pic": 3913,
      "Vi": 3914,
      "clé": 3915,
      "fs": 3916,
      "pût": 3917,
      "rentrer": 3918,
      "titude": 3919,
      "ètes": 3920,
      "ël": 3921,
      "ouï": 3922,
      "degrés": 3923,
      "chées": 3924,
      "étour": 3925,
      "riez": 3926,
      "atoire": 3927,
      "salut": 3928,
      "tire": 3929,
      "déro": 3930,
      "convul": 3931,
      "récla": 3932,
      "ressemb": 3933,
      "chement": 3934,
      "grat": 3935,
      "voleur": 3936,
      "tume": 3937,
      "terie": 3938,
      "guère": 3939,
      "frais": 3940,
      "perru": 3941,
      "enfance": 3942,
      "phin": 3943,
      "patron": 3944,
      "ferait": 3945,
      "adresse": 3946,
      "istance": 3947,
      "asile": 3948,
      "demandait": 3949,
      "quartier": 3950,
      "sauvage": 3951,
      "mystérieuse": 3952,
      "observa": 3953,
      "auguste": 3954,
      "monstrueux": 3955,
      "maîtresse": 3956,
      "ruisse": 3957,
      "clerc": 3958,
      "mélanco": 3959,
      "Donc": 3960,
      "Lord": 3961,
      "Su": 3962,
      "bert": 3963,
      "bonté": 3964,
      "gan": 3965,
      "git": 3966,
      "rappe": 3967,
      "œil": 3968,
      "anxi": 3969,
      "enthous": 3970,
      "ares": 3971,
      "aissaient": 3972,
      "timi": 3973,
      "convers": 3974,
      "rade": 3975,
      "rase": 3976,
      "loint": 3977,
      "serpent": 3978,
      "airement": 3979,
      "mêlé": 3980,
      "extase": 3981,
      "mbres": 3982,
      "pira": 3983,
      "bière": 3984,
      "étranger": 3985,
      "constru": 3986,
      "seigneurs": 3987,
      "éclaire": 3988,
      "indiff": 3989,
      "lutte": 3990,
      "poudre": 3991,
      "précau": 3992,
      "naï": 3993,
      "suffisait": 3994,
      "occup": 3995,
      "flex": 3996,
      "déserte": 3997,
      "solitude": 3998,
      "sentiment": 3999,
      "intérê": 4000,
      "crépuscule": 4001,
      "enthousias": 4002,
      "Thé": 4003,
      "VI": 4004,
      "Welling": 4005,
      "ms": 4006,
      "maient": 4007,
      "mér": 4008,
      "nau": 4009,
      "sain": 4010,
      "quaient": 4011,
      "entôt": 4012,
      "urier": 4013,
      "quier": 4014,
      "comman": 4015,
      "accompag": 4016,
      "brave": 4017,
      "onnant": 4018,
      "soin": 4019,
      "enceinte": 4020,
      "bouches": 4021,
      "pide": 4022,
      "Grand": 4023,
      "illant": 4024,
      "affir": 4025,
      "déter": 4026,
      "lumine": 4027,
      "Franç": 4028,
      "balus": 4029,
      "ramen": 4030,
      "continuait": 4031,
      "éclata": 4032,
      "fantôme": 4033,
      "entends": 4034,
      "pétri": 4035,
      "éternelle": 4036,
      "innocent": 4037,
      "français": 4038,
      "extraordinaire": 4039,
      "Wellington": 4040,
      "ER": 4041,
      "IN": 4042,
      "Mil": 4043,
      "ach": 4044,
      "fav": 4045,
      "hag": 4046,
      "patient": 4047,
      "van": 4048,
      "èse": 4049,
      "ôle": 4050,
      "revenait": 4051,
      "inconn": 4052,
      "chette": 4053,
      "secr": 4054,
      "avis": 4055,
      "membres": 4056,
      "étab": 4057,
      "prière": 4058,
      "parts": 4059,
      "comprenait": 4060,
      "diver": 4061,
      "appli": 4062,
      "absor": 4063,
      "dési": 4064,
      "décla": 4065,
      "vict": 4066,
      "coins": 4067,
      "fruit": 4068,
      "inthe": 4069,
      "anglaise": 4070,
      "souvient": 4071,
      "tenaient": 4072,
      "fera": 4073,
      "ados": 4074,
      "lotte": 4075,
      "creux": 4076,
      "meurt": 4077,
      "caval": 4078,
      "rempla": 4079,
      "distinguer": 4080,
      "épaiss": 4081,
      "soyez": 4082,
      "arrivée": 4083,
      "auditoire": 4084,
      "vénér": 4085,
      "éternité": 4086,
      "événements": 4087,
      "fossoy": 4088,
      "tonnerre": 4089,
      "curiosité": 4090,
      "naufra": 4091,
      "Den": 4092,
      "Nic": 4093,
      "QU": 4094,
      "fous": 4095,
      "firent": 4096,
      "ice": 4097,
      "mette": 4098,
      "mence": 4099,
      "poi": 4100,
      "épi": 4101,
      "ébran": 4102,
      "enou": 4103,
      "train": 4104,
      "compris": 4105,
      "tiens": 4106,
      "abbé": 4107,
      "rég": 4108,
      "gro": 4109,
      "tér": 4110,
      "iron": 4111,
      "enfu": 4112,
      "regret": 4113,
      "obli": 4114,
      "pensi": 4115,
      "noy": 4116,
      "noctur": 4117,
      "source": 4118,
      "saisi": 4119,
      "Anne": 4120,
      "curieux": 4121,
      "prenez": 4122,
      "communi": 4123,
      "recueil": 4124,
      "printemps": 4125,
      "piliers": 4126,
      "aillir": 4127,
      "souterr": 4128,
      "évanou": 4129,
      "difforme": 4130,
      "matière": 4131,
      "Leur": 4132,
      "Peu": 4133,
      "cœur": 4134,
      "jadis": 4135,
      "laire": 4136,
      "tue": 4137,
      "élég": 4138,
      "ensuite": 4139,
      "repartit": 4140,
      "ongles": 4141,
      "less": 4142,
      "étroit": 4143,
      "sibles": 4144,
      "compr": 4145,
      "instru": 4146,
      "angles": 4147,
      "mena": 4148,
      "nuits": 4149,
      "bassa": 4150,
      "oly": 4151,
      "barreaux": 4152,
      "curé": 4153,
      "fuite": 4154,
      "interval": 4155,
      "clocher": 4156,
      "arrêt": 4157,
      "froide": 4158,
      "volup": 4159,
      "précé": 4160,
      "vierge": 4161,
      "considér": 4162,
      "insurrection": 4163,
      "voudrais": 4164,
      "chanson": 4165,
      "araignée": 4166,
      "fossoyeur": 4167,
      "Nicless": 4168,
      "intervalles": 4169,
      "Bru": 4170,
      "_la": 4171,
      "fonc": 4172,
      "gin": 4173,
      "pais": 4174,
      "yès": 4175,
      "équ": 4176,
      "ôté": 4177,
      "releva": 4178,
      "chiens": 4179,
      "secours": 4180,
      "anti": 4181,
      "prêt": 4182,
      "rions": 4183,
      "abri": 4184,
      "amant": 4185,
      "racon": 4186,
      "messe": 4187,
      "ardins": 4188,
      "disaient": 4189,
      "cuivre": 4190,
      "obles": 4191,
      "pale": 4192,
      "atique": 4193,
      "...»": 4194,
      "seize": 4195,
      "berg": 4196,
      "signifi": 4197,
      "servir": 4198,
      "succé": 4199,
      "chaînes": 4200,
      "harmon": 4201,
      "tragique": 4202,
      "hideuse": 4203,
      "embourg": 4204,
      "Luxembourg": 4205,
      "AR": 4206,
      "Ho": 4207,
      "Peut": 4208,
      "cés": 4209,
      "hue": 4210,
      "idi": 4211,
      "ibles": 4212,
      "nis": 4213,
      "pois": 4214,
      "pisto": 4215,
      "œu": 4216,
      "ondu": 4217,
      "aude": 4218,
      "aurai": 4219,
      "ind": 4220,
      "lux": 4221,
      "trés": 4222,
      "paraître": 4223,
      "tiré": 4224,
      "ends": 4225,
      "agu": 4226,
      "terri": 4227,
      "marché": 4228,
      "cherchait": 4229,
      "soulier": 4230,
      "Marie": 4231,
      "rude": 4232,
      "ruelle": 4233,
      "plat": 4234,
      "chaos": 4235,
      "bourse": 4236,
      "musique": 4237,
      "otte": 4238,
      "suivit": 4239,
      "céleste": 4240,
      "offrait": 4241,
      "sols": 4242,
      "barrière": 4243,
      "masure": 4244,
      "reding": 4245,
      "justicier": 4246,
      "quitter": 4247,
      "pareille": 4248,
      "remarqué": 4249,
      "XIV": 4250,
      "fatale": 4251,
      "Germain": 4252,
      "quantité": 4253,
      "Nico": 4254,
      "souriant": 4255,
      "environ": 4256,
      "pleurer": 4257,
      "épouvantable": 4258,
      "ténébreux": 4259,
      "orgueil": 4260,
      "gouvernement": 4261,
      "effroyable": 4262,
      "anxiété": 4263,
      "indiffér": 4264,
      "Dès": 4265,
      "Pro": 4266,
      "Ri": 4267,
      "joign": 4268,
      "mations": 4269,
      "olet": 4270,
      "tau": 4271,
      "tyr": 4272,
      "one": 4273,
      "quais": 4274,
      "queue": 4275,
      "erait": 4276,
      "invent": 4277,
      "inouï": 4278,
      "changé": 4279,
      "omyès": 4280,
      "lesquels": 4281,
      "étages": 4282,
      "dessin": 4283,
      "dite": 4284,
      "dign": 4285,
      "abond": 4286,
      "condu": 4287,
      "logue": 4288,
      "caché": 4289,
      "égay": 4290,
      "manche": 4291,
      "rumeur": 4292,
      "olomyès": 4293,
      "gardes": 4294,
      "import": 4295,
      "Tholomyès": 4296,
      "souffre": 4297,
      "compter": 4298,
      "clos": 4299,
      "vraie": 4300,
      "morceau": 4301,
      "quinzième": 4302,
      "perdue": 4303,
      "écume": 4304,
      "ancienne": 4305,
      "lâche": 4306,
      "sauvé": 4307,
      "évident": 4308,
      "personnages": 4309,
      "éclairait": 4310,
      "colonne": 4311,
      "Bastille": 4312,
      "balustra": 4313,
      "Tenez": 4314,
      "Ver": 4315,
      "cus": 4316,
      "faus": 4317,
      "gres": 4318,
      "pagne": 4319,
      "village": 4320,
      "yle": 4321,
      "anvier": 4322,
      "lat": 4323,
      "neaux": 4324,
      "aur": 4325,
      "inait": 4326,
      "avril": 4327,
      "ceinture": 4328,
      "ourag": 4329,
      "prieu": 4330,
      "alis": 4331,
      "dier": 4332,
      "révol": 4333,
      "ambassa": 4334,
      "oise": 4335,
      "tées": 4336,
      "actions": 4337,
      "moin": 4338,
      "servait": 4339,
      "couche": 4340,
      "peuples": 4341,
      "fron": 4342,
      "inspec": 4343,
      "nuée": 4344,
      "humble": 4345,
      "manque": 4346,
      "facile": 4347,
      "illaient": 4348,
      "connaît": 4349,
      "suivi": 4350,
      "profil": 4351,
      "fixé": 4352,
      "catastro": 4353,
      "profondeur": 4354,
      "glout": 4355,
      "occupé": 4356,
      "héris": 4357,
      "lorsque": 4358,
      "éblouissement": 4359,
      "chucho": 4360,
      "éternel": 4361,
      "particulière": 4362,
      "excepté": 4363,
      "sorcière": 4364,
      "procureur": 4365,
      "Der": 4366,
      "IS": 4367,
      "blo": 4368,
      "cail": 4369,
      "faction": 4370,
      "gam": 4371,
      "nais": 4372,
      "spé": 4373,
      "tail": 4374,
      "yant": 4375,
      "essouff": 4376,
      "escla": 4377,
      "encom": 4378,
      "lec": 4379,
      "relle": 4380,
      "reprenait": 4381,
      "archevê": 4382,
      "intro": 4383,
      "orum": 4384,
      "abais": 4385,
      "désa": 4386,
      "cieuse": 4387,
      "cot": 4388,
      "brav": 4389,
      "serr": 4390,
      "crat": 4391,
      "extéri": 4392,
      "fice": 4393,
      "ineff": 4394,
      "cherche": 4395,
      "courait": 4396,
      "ruine": 4397,
      "plate": 4398,
      "charité": 4399,
      "lisait": 4400,
      "noble": 4401,
      "assise": 4402,
      "colonn": 4403,
      "apparence": 4404,
      "songea": 4405,
      "Seigne": 4406,
      "compagnie": 4407,
      "religieuse": 4408,
      "maigre": 4409,
      "épaisse": 4410,
      "inexprim": 4411,
      "tremblement": 4412,
      "tressaillit": 4413,
      "battait": 4414,
      "Pauvre": 4415,
      "grommela": 4416,
      "texte": 4417,
      "Jamais": 4418,
      "For": 4419,
      "Ro": 4420,
      "Toi": 4421,
      "Vol": 4422,
      "cli": 4423,
      "cort": 4424,
      "haillons": 4425,
      "lla": 4426,
      "laine": 4427,
      "net": 4428,
      "vaise": 4429,
      "enjam": 4430,
      "infé": 4431,
      "insul": 4432,
      "cement": 4433,
      "danseuse": 4434,
      "sale": 4435,
      "uss": 4436,
      "débou": 4437,
      "cohue": 4438,
      "quelconque": 4439,
      "coude": 4440,
      "coupe": 4441,
      "Cham": 4442,
      "manquait": 4443,
      "Parvis": 4444,
      "empire": 4445,
      "vents": 4446,
      "vouloir": 4447,
      "saisir": 4448,
      "rendu": 4449,
      "détresse": 4450,
      "accab": 4451,
      "églises": 4452,
      "miroir": 4453,
      "misérables": 4454,
      "appui": 4455,
      "Digne": 4456,
      "éteign": 4457,
      "Gervaise": 4458,
      "pairie": 4459,
      "sculpt": 4460,
      "monument": 4461,
      "confiance": 4462,
      "vêtements": 4463,
      "mendiant": 4464,
      "parfaitement": 4465,
      "Hôtel": 4466,
      "Théo": 4467,
      "pistolet": 4468,
      "redingote": 4469,
      "prieure": 4470,
      "spéci": 4471,
      "Seigneur": 4472,
      "Mat": 4473,
      "Sat": 4474,
      "apar": 4475,
      "bossu": 4476,
      "cations": 4477,
      "flè": 4478,
      "gâ": 4479,
      "nég": 4480,
      "pelle": 4481,
      "sen": 4482,
      "tables": 4483,
      "ouse": 4484,
      "inos": 4485,
      "pru": 4486,
      "aison": 4487,
      "dirent": 4488,
      "réser": 4489,
      "èrement": 4490,
      "puits": 4491,
      "poë": 4492,
      "monn": 4493,
      "insen": 4494,
      "maréch": 4495,
      "souper": 4496,
      "Chacun": 4497,
      "répan": 4498,
      "effac": 4499,
      "visages": 4500,
      "rouges": 4501,
      "murailles": 4502,
      "murmure": 4503,
      "illés": 4504,
      "pouvant": 4505,
      "affaires": 4506,
      "Majesté": 4507,
      "solenne": 4508,
      "artille": 4509,
      "commencé": 4510,
      "magne": 4511,
      "boîte": 4512,
      "poupée": 4513,
      "domest": 4514,
      "histor": 4515,
      "aperçu": 4516,
      "écoliers": 4517,
      "quitté": 4518,
      "souten": 4519,
      "laide": 4520,
      "existence": 4521,
      "Château": 4522,
      "superbe": 4523,
      "silencieux": 4524,
      "fatigue": 4525,
      "physion": 4526,
      "féroce": 4527,
      "souffrance": 4528,
      "sacrée": 4529,
      "cachot": 4530,
      "détermin": 4531,
      "poids": 4532,
      "inféri": 4533,
      "At": 4534,
      "Avant": 4535,
      "Cer": 4536,
      "Fer": 4537,
      "South": 4538,
      "_La": 4539,
      "mangé": 4540,
      "od": 4541,
      "pis": 4542,
      "ém": 4543,
      "anse": 4544,
      "aul": 4545,
      "chons": 4546,
      "chim": 4547,
      "avance": 4548,
      "avanc": 4549,
      "réfu": 4550,
      "rocher": 4551,
      "tut": 4552,
      "fiacre": 4553,
      "nuées": 4554,
      "mépris": 4555,
      "phant": 4556,
      "doub": 4557,
      "pic": 4558,
      "Parce": 4559,
      "illy": 4560,
      "gentil": 4561,
      "rayonnement": 4562,
      "cercueil": 4563,
      "couvrait": 4564,
      "arrêté": 4565,
      "creus": 4566,
      "poussière": 4567,
      "baissa": 4568,
      "mouch": 4569,
      "logique": 4570,
      "probable": 4571,
      "remarqua": 4572,
      "successi": 4573,
      "torture": 4574,
      "drapeau": 4575,
      "entrailles": 4576,
      "Bourbon": 4577,
      "enveloppe": 4578,
      "joyeuse": 4579,
      "Christ": 4580,
      "gaîté": 4581,
      "répliqua": 4582,
      "conversation": 4583,
      "Brujon": 4584,
      "balustrade": 4585,
      "ouragan": 4586,
      "gir": 4587,
      "lèrent": 4588,
      "pê": 4589,
      "pleurs": 4590,
      "éve": 4591,
      "oux": 4592,
      "etier": 4593,
      "enta": 4594,
      "entier": 4595,
      "aume": 4596,
      "incen": 4597,
      "chê": 4598,
      "étique": 4599,
      "aisément": 4600,
      "commo": 4601,
      "comédi": 4602,
      "tirait": 4603,
      "dées": 4604,
      "dégage": 4605,
      "cheve": 4606,
      "acte": 4607,
      "poêle": 4608,
      "tuer": 4609,
      "onnés": 4610,
      "gué": 4611,
      "perpét": 4612,
      "toucher": 4613,
      "Chante": 4614,
      "immédi": 4615,
      "nid": 4616,
      "boule": 4617,
      "choc": 4618,
      "paquet": 4619,
      "visite": 4620,
      "pencha": 4621,
      "porta": 4622,
      "barre": 4623,
      "réponse": 4624,
      "juges": 4625,
      "jouait": 4626,
      "185": 4627,
      "fixe": 4628,
      "Espagne": 4629,
      "chauve": 4630,
      "grandi": 4631,
      "statues": 4632,
      "profonds": 4633,
      "paysan": 4634,
      "pattes": 4635,
      "remuer": 4636,
      "salon": 4637,
      "examina": 4638,
      "ject": 4639,
      "reçu": 4640,
      "agonie": 4641,
      "Allez": 4642,
      "détails": 4643,
      "énigme": 4644,
      "descendit": 4645,
      "Denis": 4646,
      "CH": 4647,
      "ala": 4648,
      "achi": 4649,
      "cant": 4650,
      "gail": 4651,
      "hom": 4652,
      "janvier": 4653,
      "nette": 4654,
      "plo": 4655,
      "test": 4656,
      "tord": 4657,
      "englout": 4658,
      "annon": 4659,
      "prier": 4660,
      "estrade": 4661,
      "trap": 4662,
      "comprends": 4663,
      "consé": 4664,
      "ffre": 4665,
      "ouvri": 4666,
      "illefou": 4667,
      "suit": 4668,
      "acle": 4669,
      "brouss": 4670,
      "ience": 4671,
      "couché": 4672,
      "dissement": 4673,
      "venez": 4674,
      "numé": 4675,
      "temple": 4676,
      "entrevoyait": 4677,
      "embras": 4678,
      "possé": 4679,
      "preuve": 4680,
      "voyage": 4681,
      "lettes": 4682,
      "olles": 4683,
      "foudre": 4684,
      "demeu": 4685,
      "renvers": 4686,
      "mitraille": 4687,
      "pouvaient": 4688,
      "longs": 4689,
      "trième": 4690,
      "bientôt": 4691,
      "accus": 4692,
      "voisine": 4693,
      "seigneurie": 4694,
      "racles": 4695,
      "borne": 4696,
      "stupeur": 4697,
      "arrange": 4698,
      "expliquer": 4699,
      "conseil": 4700,
      "splende": 4701,
      "française": 4702,
      "traversa": 4703,
      "Trouillefou": 4704,
      "désespéré": 4705,
      "splendide": 4706,
      "Faites": 4707,
      "achicos": 4708,
      "Aut": 4709,
      "Cou": 4710,
      "Cat": 4711,
      "Cal": 4712,
      "Fla": 4713,
      "_Le": 4714,
      "boi": 4715,
      "cout": 4716,
      "dois": 4717,
      "danger": 4718,
      "fas": 4719,
      "ide": 4720,
      "mun": 4721,
      "nord": 4722,
      "rendait": 4723,
      "rares": 4724,
      "sar": 4725,
      "tât": 4726,
      "vation": 4727,
      "villes": 4728,
      "èbre": 4729,
      "degré": 4730,
      "reli": 4731,
      "aurez": 4732,
      "sabre": 4733,
      "time": 4734,
      "absent": 4735,
      "vicomte": 4736,
      "volée": 4737,
      "ager": 4738,
      "mesur": 4739,
      "serie": 4740,
      "onnaires": 4741,
      "craign": 4742,
      "ims": 4743,
      "cade": 4744,
      "pign": 4745,
      "regardaient": 4746,
      "doy": 4747,
      "épous": 4748,
      "noeu": 4749,
      "employ": 4750,
      "assassin": 4751,
      "premières": 4752,
      "impéri": 4753,
      "sortant": 4754,
      "gig": 4755,
      "gile": 4756,
      "fauve": 4757,
      "And": 4758,
      "battre": 4759,
      "182": 4760,
      "balbu": 4761,
      "Toussaint": 4762,
      "écouter": 4763,
      "intérieure": 4764,
      "considéra": 4765,
      "Reims": 4766,
      "religieuses": 4767,
      "Écoutez": 4768,
      "appellent": 4769,
      "extrême": 4770,
      "complet": 4771,
      "échafaud": 4772,
      "intérêt": 4773,
      "victoire": 4774,
      "Comb": 4775,
      "Col": 4776,
      "Pré": 4777,
      "jardins": 4778,
      "lance": 4779,
      "nt": 4780,
      "nat": 4781,
      "rappelle": 4782,
      "âpre": 4783,
      "repous": 4784,
      "auprès": 4785,
      "duquel": 4786,
      "dévou": 4787,
      "défaut": 4788,
      "réflé": 4789,
      "pourpre": 4790,
      "illement": 4791,
      "sueur": 4792,
      "voler": 4793,
      "cession": 4794,
      "agno": 4795,
      "dissait": 4796,
      "Quat": 4797,
      "Celui": 4798,
      "cum": 4799,
      "impression": 4800,
      "cahu": 4801,
      "lande": 4802,
      "empre": 4803,
      "demeure": 4804,
      "chambres": 4805,
      "garder": 4806,
      "affreuse": 4807,
      "buv": 4808,
      "Noël": 4809,
      "éclat": 4810,
      "orient": 4811,
      "secousse": 4812,
      "ifs": 4813,
      "furieux": 4814,
      "brusque": 4815,
      "condamnée": 4816,
      "quatrième": 4817,
      "folie": 4818,
      "violent": 4819,
      "ruisseau": 4820,
      "haleine": 4821,
      "couverte": 4822,
      "distinctement": 4823,
      "Aucun": 4824,
      "bandits": 4825,
      "rêveur": 4826,
      "fureur": 4827,
      "excellent": 4828,
      "Picpus": 4829,
      "comprachicos": 4830,
      "Voltaire": 4831,
      "Bab": 4832,
      "Cés": 4833,
      "Louvre": 4834,
      "Savez": 4835,
      "],": 4836,
      "bur": 4837,
      "fan": 4838,
      "gence": 4839,
      "hait": 4840,
      "ham": 4841,
      "nobles": 4842,
      "sois": 4843,
      "escala": 4844,
      "aide": 4845,
      "ention": 4846,
      "inn": 4847,
      "oré": 4848,
      "étonné": 4849,
      "étonnement": 4850,
      "prêtres": 4851,
      "songes": 4852,
      "comprit": 4853,
      "sachant": 4854,
      "tigre": 4855,
      "abbay": 4856,
      "cocher": 4857,
      "agn": 4858,
      "agenou": 4859,
      "explo": 4860,
      "marches": 4861,
      "phes": 4862,
      "souci": 4863,
      "immens": 4864,
      "coupé": 4865,
      "crimine": 4866,
      "chargé": 4867,
      "donnée": 4868,
      "prépar": 4869,
      "Monseigneur": 4870,
      "faudra": 4871,
      "espagno": 4872,
      "silhou": 4873,
      "amours": 4874,
      "dames": 4875,
      "indivi": 4876,
      "voisins": 4877,
      "archie": 4878,
      "mouche": 4879,
      "greff": 4880,
      "ébau": 4881,
      "multi": 4882,
      "tremblait": 4883,
      "poings": 4884,
      "pantal": 4885,
      "Basque": 4886,
      "bruy": 4887,
      "blancheur": 4888,
      "referma": 4889,
      "ménage": 4890,
      "voyageur": 4891,
      "nocturne": 4892,
      "physionomie": 4893,
      "gigantes": 4894,
      "cahute": 4895,
      "César": 4896,
      "Rou": 4897,
      "Rym": 4898,
      "UR": 4899,
      "cam": 4900,
      "mène": 4901,
      "soie": 4902,
      "wap": 4903,
      "éva": 4904,
      "repos": 4905,
      "lament": 4906,
      "entrant": 4907,
      "menton": 4908,
      "dirait": 4909,
      "serai": 4910,
      "peint": 4911,
      "verge": 4912,
      "marchant": 4913,
      "humil": 4914,
      "deviner": 4915,
      "souris": 4916,
      "donnant": 4917,
      "louse": 4918,
      "accusé": 4919,
      "Puisque": 4920,
      "seuls": 4921,
      "fourn": 4922,
      "véritable": 4923,
      "social": 4924,
      "transpar": 4925,
      "ifie": 4926,
      "ponts": 4927,
      "multitude": 4928,
      "maladie": 4929,
      "énormes": 4930,
      "symp": 4931,
      "Regarde": 4932,
      "planche": 4933,
      "glace": 4934,
      "entraî": 4935,
      "éteint": 4936,
      "chauss": 4937,
      "tremblant": 4938,
      "infir": 4939,
      "éléphant": 4940,
      "échappait": 4941,
      "guenilles": 4942,
      "paupières": 4943,
      "tristesse": 4944,
      "embarras": 4945,
      "ineffable": 4946,
      "cortège": 4947,
      "Southw": 4948,
      "wapenta": 4949,
      ";--": 4950,
      "Dom": 4951,
      "LES": 4952,
      "Mr": 4953,
      "Mou": 4954,
      "TE": 4955,
      "Vou": 4956,
      "_Je": 4957,
      "hos": 4958,
      "rout": 4959,
      "ense": 4960,
      "reprendre": 4961,
      "issante": 4962,
      "riant": 4963,
      "parap": 4964,
      "parlez": 4965,
      "diminu": 4966,
      "dialo": 4967,
      "tible": 4968,
      "timb": 4969,
      "débar": 4970,
      "vine": 4971,
      "ouvrier": 4972,
      "mira": 4973,
      "mirent": 4974,
      "acune": 4975,
      "journ": 4976,
      "ordres": 4977,
      "séré": 4978,
      "Chose": 4979,
      "sentant": 4980,
      "égar": 4981,
      "assemb": 4982,
      "pendue": 4983,
      "plateau": 4984,
      "malgré": 4985,
      "finie": 4986,
      "jetant": 4987,
      "impert": 4988,
      "pouvez": 4989,
      "monté": 4990,
      "montant": 4991,
      "pital": 4992,
      "Ang": 4993,
      "habits": 4994,
      "joues": 4995,
      "réel": 4996,
      "culaire": 4997,
      "monstres": 4998,
      "princes": 4999,
      "connaissait": 5000,
      "soif": 5001,
      "approchait": 5002,
      "promis": 5003,
      "balcon": 5004,
      "besogne": 5005,
      "portière": 5006,
      "occupait": 5007,
      "fantas": 5008,
      "Trois": 5009,
      "flotte": 5010,
      "groupes": 5011,
      "laideur": 5012,
      "semblable": 5013,
      "étince": 5014,
      "bénédi": 5015,
      "monuments": 5016,
      "Robert": 5017,
      "Écoute": 5018,
      "machinalement": 5019,
      "caillou": 5020,
      "archevêque": 5021,
      "inexprimable": 5022,
      "wapentake": 5023,
      "_C": 5024,
      "dort": 5025,
      "gine": 5026,
      "hè": 5027,
      "ivres": 5028,
      "jonc": 5029,
      "mord": 5030,
      "naient": 5031,
      "usage": 5032,
      "ôtre": 5033,
      "revenu": 5034,
      "ark": 5035,
      "sein": 5036,
      "lesquelles": 5037,
      "orph": 5038,
      "ester": 5039,
      "sacri": 5040,
      "tive": 5041,
      "dén": 5042,
      "amal": 5043,
      "lore": 5044,
      "provis": 5045,
      "provin": 5046,
      "coudes": 5047,
      "disci": 5048,
      "mêlés": 5049,
      "gueule": 5050,
      "touche": 5051,
      "exil": 5052,
      "expé": 5053,
      "marque": 5054,
      "tourne": 5055,
      "tourné": 5056,
      "minence": 5057,
      "tombée": 5058,
      "rendez": 5059,
      "mités": 5060,
      "quator": 5061,
      "milit": 5062,
      "écrite": 5063,
      "avantage": 5064,
      "fuir": 5065,
      "bate": 5066,
      "quets": 5067,
      "privil": 5068,
      "palpit": 5069,
      "descendait": 5070,
      "anciens": 5071,
      "transfor": 5072,
      "brisé": 5073,
      "torche": 5074,
      "lourd": 5075,
      "évanouis": 5076,
      "blême": 5077,
      "insurgés": 5078,
      "douter": 5079,
      "recula": 5080,
      "reflet": 5081,
      "matelas": 5082,
      "émotion": 5083,
      "souverain": 5084,
      "précaution": 5085,
      "hagard": 5086,
      "numéro": 5087,
      "Southwark": 5088,
      "Ex": 5089,
      "Nos": 5090,
      "OR": 5091,
      "Sal": 5092,
      "_le": 5093,
      "bû": 5094,
      "mins": 5095,
      "pom": 5096,
      "ty": 5097,
      "tur": 5098,
      "ttes": 5099,
      "tonne": 5100,
      "écile": 5101,
      "retrouve": 5102,
      "laurier": 5103,
      "laquais": 5104,
      "ilée": 5105,
      "oiement": 5106,
      "prét": 5107,
      "rite": 5108,
      "rires": 5109,
      "parlaient": 5110,
      "comparti": 5111,
      "dies": 5112,
      "tionnaire": 5113,
      "viole": 5114,
      "agent": 5115,
      "agré": 5116,
      "écor": 5117,
      "éner": 5118,
      "gner": 5119,
      "souleva": 5120,
      "aillon": 5121,
      "Chan": 5122,
      "forces": 5123,
      "aîné": 5124,
      "direction": 5125,
      "cornes": 5126,
      "jambe": 5127,
      "espèces": 5128,
      "raisons": 5129,
      "collè": 5130,
      "communes": 5131,
      "évêques": 5132,
      "ignore": 5133,
      "naturelle": 5134,
      "ajoutait": 5135,
      "approcher": 5136,
      "humaines": 5137,
      "cavale": 5138,
      "remarquer": 5139,
      "compagnon": 5140,
      "fleurie": 5141,
      "chandelles": 5142,
      "difformité": 5143,
      "marchand": 5144,
      "dîner": 5145,
      "Théodule": 5146,
      "immensité": 5147,
      "Babet": 5148,
      "IL": 5149,
      "bit": 5150,
      "cord": 5151,
      "pun": 5152,
      "rosse": 5153,
      "tons": 5154,
      "yait": 5155,
      "élan": 5156,
      "enseigne": 5157,
      "remettre": 5158,
      "aum": 5159,
      "itoy": 5160,
      "indus": 5161,
      "ridi": 5162,
      "sive": 5163,
      "apos": 5164,
      "osc": 5165,
      "abomin": 5166,
      "témoin": 5167,
      "messire": 5168,
      "écli": 5169,
      "soeurs": 5170,
      "gueux": 5171,
      "marteau": 5172,
      "ieusement": 5173,
      "cherchant": 5174,
      "carte": 5175,
      "rêves": 5176,
      "gardé": 5177,
      "présente": 5178,
      "matéri": 5179,
      "rapport": 5180,
      "constr": 5181,
      "jouer": 5182,
      "lieue": 5183,
      "dormir": 5184,
      "présenta": 5185,
      "baisers": 5186,
      "éclatant": 5187,
      "issements": 5188,
      "sociale": 5189,
      "désordre": 5190,
      "faibles": 5191,
      "considérait": 5192,
      "éclairée": 5193,
      "contraire": 5194,
      "capable": 5195,
      "savais": 5196,
      "hôte": 5197,
      "délicat": 5198,
      "arrête": 5199,
      "arracher": 5200,
      "fatalité": 5201,
      "contemplation": 5202,
      "poignée": 5203,
      "poignard": 5204,
      "vivante": 5205,
      "éclairé": 5206,
      "augment": 5207,
      "prodigieux": 5208,
      "solitaire": 5209,
      "innocence": 5210,
      "veulent": 5211,
      "titre": 5212,
      "illumin": 5213,
      "ogive": 5214,
      "Plumet": 5215,
      "enthousiasme": 5216,
      "Quatre": 5217,
      "chaussetier": 5218,
      "cavalerie": 5219,
      "Go": 5220,
      "Gis": 5221,
      "Soy": 5222,
      "Vén": 5223,
      "Viens": 5224,
      "buis": 5225,
      "gaz": 5226,
      "mans": 5227,
      "nar": 5228,
      "py": 5229,
      "sque": 5230,
      "Était": 5231,
      "éli": 5232,
      "êmes": 5233,
      "envers": 5234,
      "latru": 5235,
      "ernes": 5236,
      "auteur": 5237,
      "infort": 5238,
      "incident": 5239,
      "cheur": 5240,
      "parents": 5241,
      "lies": 5242,
      "contenait": 5243,
      "consul": 5244,
      "amende": 5245,
      "cire": 5246,
      "mier": 5247,
      "pudeur": 5248,
      "robes": 5249,
      "tueux": 5250,
      "irai": 5251,
      "perdait": 5252,
      "crain": 5253,
      "crainte": 5254,
      "londe": 5255,
      "cartou": 5256,
      "caract": 5257,
      "cache": 5258,
      "possibles": 5259,
      "pièces": 5260,
      "minuit": 5261,
      "portaient": 5262,
      "faces": 5263,
      "néant": 5264,
      "Thunes": 5265,
      "célè": 5266,
      "partage": 5267,
      "étrang": 5268,
      "bateau": 5269,
      "griff": 5270,
      "huitième": 5271,
      "fantais": 5272,
      "fatal": 5273,
      "théo": 5274,
      "Boulatru": 5275,
      "bottes": 5276,
      "générale": 5277,
      "supérieure": 5278,
      "recevoir": 5279,
      "terrain": 5280,
      "absence": 5281,
      "issue": 5282,
      "symbole": 5283,
      "spectateurs": 5284,
      "Milord": 5285,
      "obligé": 5286,
      "paisible": 5287,
      "Derrière": 5288,
      "balbuti": 5289,
      "Boulatruelle": 5290,
      "10": 5291,
      "12": 5292,
      "Ap": 5293,
      "Fav": 5294,
      "Tel": 5295,
      "Temple": 5296,
      "clu": 5297,
      "fec": 5298,
      "fasse": 5299,
      "fuit": 5300,
      "fît": 5301,
      "hieu": 5302,
      "ia": 5303,
      "ides": 5304,
      "État": 5305,
      "quali": 5306,
      "illis": 5307,
      "ith": 5308,
      "changer": 5309,
      "rican": 5310,
      "parchemin": 5311,
      "passaient": 5312,
      "abe": 5313,
      "conso": 5314,
      "réflex": 5315,
      "respl": 5316,
      "coqu": 5317,
      "session": 5318,
      "touché": 5319,
      "nul": 5320,
      "puisse": 5321,
      "choeur": 5322,
      "cription": 5323,
      "doc": 5324,
      "vention": 5325,
      "héro": 5326,
      "sourde": 5327,
      "boutique": 5328,
      "appét": 5329,
      "millions": 5330,
      "célé": 5331,
      "truand": 5332,
      "artiste": 5333,
      "doré": 5334,
      "primé": 5335,
      "ouvertes": 5336,
      "disparaître": 5337,
      "drame": 5338,
      "furie": 5339,
      "chevalier": 5340,
      "regardé": 5341,
      "gagner": 5342,
      "savent": 5343,
      "galetas": 5344,
      "ignorance": 5345,
      "sûre": 5346,
      "abandonné": 5347,
      "potence": 5348,
      "hâte": 5349,
      "endormi": 5350,
      "dirigea": 5351,
      "funèbre": 5352,
      "guichet": 5353,
      "populace": 5354,
      "intelligent": 5355,
      "tourbillon": 5356,
      "ambassade": 5357,
      "inspecteur": 5358,
      "artillerie": 5359,
      "Certes": 5360,
      "individu": 5361,
      "AU": 5362,
      "Bi": 5363,
      "Eus": 5364,
      "Sais": 5365,
      "_T": 5366,
      "bans": 5367,
      "mât": 5368,
      "équi": 5369,
      "aies": 5370,
      "qualité": 5371,
      "nel": 5372,
      "istres": 5373,
      "inattendu": 5374,
      "chen": 5375,
      "chaises": 5376,
      "selle": 5377,
      "organ": 5378,
      "tras": 5379,
      "livide": 5380,
      "vic": 5381,
      "vir": 5382,
      "vienne": 5383,
      "réun": 5384,
      "amir": 5385,
      "irait": 5386,
      "écur": 5387,
      "couchant": 5388,
      "bleue": 5389,
      "frères": 5390,
      "fid": 5391,
      "marcha": 5392,
      "longe": 5393,
      "forcé": 5394,
      "carrosse": 5395,
      "embr": 5396,
      "vase": 5397,
      "obst": 5398,
      "bouff": 5399,
      "assement": 5400,
      "Devant": 5401,
      "santé": 5402,
      "presse": 5403,
      "assés": 5404,
      "assaut": 5405,
      "assail": 5406,
      "ayez": 5407,
      "gross": 5408,
      "mathieu": 5409,
      "arrêtait": 5410,
      "command": 5411,
      "flamands": 5412,
      "1815": 5413,
      "pousser": 5414,
      "massif": 5415,
      "sanglots": 5416,
      "signifie": 5417,
      "date": 5418,
      "volont": 5419,
      "approche": 5420,
      "grelot": 5421,
      "hérit": 5422,
      "planches": 5423,
      "torches": 5424,
      "profondes": 5425,
      "château": 5426,
      "souvenirs": 5427,
      "rangs": 5428,
      "effaré": 5429,
      "effarou": 5430,
      "règle": 5431,
      "illusion": 5432,
      "habituellement": 5433,
      "brouillard": 5434,
      "frémissement": 5435,
      "sourcil": 5436,
      "montrant": 5437,
      "Champmathieu": 5438,
      "vénérable": 5439,
      "équili": 5440,
      "fausse": 5441,
      "abbaye": 5442,
      "cartouches": 5443,
      "Aus": 5444,
      "Avez": 5445,
      "Belle": 5446,
      "Bel": 5447,
      "CE": 5448,
      "Gonde": 5449,
      "Laigle": 5450,
      "Soit": 5451,
      "bise": 5452,
      "billard": 5453,
      "cable": 5454,
      "din": 5455,
      "evi": 5456,
      "nons": 5457,
      "odeur": 5458,
      "savant": 5459,
      "érien": 5460,
      "escab": 5461,
      "oue": 5462,
      "del": 5463,
      "angu": 5464,
      "inclin": 5465,
      "chèrent": 5466,
      "étre": 5467,
      "estes": 5468,
      "alles": 5469,
      "comtes": 5470,
      "comprend": 5471,
      "réuss": 5472,
      "plumes": 5473,
      "voleurs": 5474,
      "irrit": 5475,
      "maç": 5476,
      "touchait": 5477,
      "cramp": 5478,
      "crâne": 5479,
      "nues": 5480,
      "vrerie": 5481,
      "autrement": 5482,
      "emmen": 5483,
      "effa": 5484,
      "ferai": 5485,
      "assit": 5486,
      "fouet": 5487,
      "Aug": 5488,
      "muet": 5489,
      "rendit": 5490,
      "répondu": 5491,
      "souffles": 5492,
      "cassé": 5493,
      "certes": 5494,
      "colos": 5495,
      "accord": 5496,
      "fussent": 5497,
      "ajouter": 5498,
      "vinrent": 5499,
      "légit": 5500,
      "Gudule": 5501,
      "héros": 5502,
      "révolutions": 5503,
      "honorable": 5504,
      "fleuve": 5505,
      "retira": 5506,
      "péril": 5507,
      "servante": 5508,
      "1830": 5509,
      "nourri": 5510,
      "deniers": 5511,
      "ennui": 5512,
      "guerite": 5513,
      "gourde": 5514,
      "Aucune": 5515,
      "jalous": 5516,
      "Portland": 5517,
      "révolte": 5518,
      "Chantefleurie": 5519,
      "Chanvrerie": 5520,
      "infortun": 5521,
      "Gondelaurier": 5522,
      "Lais": 5523,
      "Me": 5524,
      "Ton": 5525,
      "Venez": 5526,
      "_A": 5527,
      "bin": 5528,
      "farde": 5529,
      "fallu": 5530,
      "gis": 5531,
      "his": 5532,
      "ig": 5533,
      "mè": 5534,
      "saign": 5535,
      "éro": 5536,
      "engag": 5537,
      "enchaî": 5538,
      "oug": 5539,
      "relie": 5540,
      "reusement": 5541,
      "arque": 5542,
      "illus": 5543,
      "orage": 5544,
      "mez": 5545,
      "prie": 5546,
      "comble": 5547,
      "sacré": 5548,
      "réveiller": 5549,
      "ouvrage": 5550,
      "proté": 5551,
      "discr": 5552,
      "onnier": 5553,
      "plaie": 5554,
      "carab": 5555,
      "effront": 5556,
      "couru": 5557,
      "pleu": 5558,
      "pleines": 5559,
      "manches": 5560,
      "rug": 5561,
      "charme": 5562,
      "basses": 5563,
      "onnez": 5564,
      "angeau": 5565,
      "barbe": 5566,
      "affec": 5567,
      "traversé": 5568,
      "illages": 5569,
      "résistance": 5570,
      "vingts": 5571,
      "droits": 5572,
      "apparaissait": 5573,
      "canons": 5574,
      "continuer": 5575,
      "balles": 5576,
      "oublier": 5577,
      "effrayante": 5578,
      "traînait": 5579,
      "gravement": 5580,
      "flambeaux": 5581,
      "saltimb": 5582,
      "inquiet": 5583,
      "panier": 5584,
      "Tourne": 5585,
      "reconnaissance": 5586,
      "conseiller": 5587,
      "costume": 5588,
      "étendit": 5589,
      "événement": 5590,
      "combin": 5591,
      "fraîche": 5592,
      "Genevi": 5593,
      "sagesse": 5594,
      "bouteille": 5595,
      "magistrat": 5596,
      "vêtue": 5597,
      "imbécile": 5598,
      "perruque": 5599,
      "trésor": 5600,
      "Combien": 5601,
      "pantalon": 5602,
      "Eustache": 5603,
      "saltimban": 5604,
      "Geneviève": 5605,
      "Cam": 5606,
      "Heure": 5607,
      "Lors": 5608,
      "Même": 5609,
      "Pier": 5610,
      "achar": 5611,
      "bra": 5612,
      "ck": 5613,
      "image": 5614,
      "mousse": 5615,
      "nage": 5616,
      "pomme": 5617,
      "ploy": 5618,
      "sèrent": 5619,
      "éveill": 5620,
      "ésie": 5621,
      "encre": 5622,
      "remer": 5623,
      "qués": 5624,
      "quorum": 5625,
      "lage": 5626,
      "erreur": 5627,
      "arts": 5628,
      "chét": 5629,
      "antre": 5630,
      "étal": 5631,
      "étions": 5632,
      "ourite": 5633,
      "estom": 5634,
      "parvint": 5635,
      "passions": 5636,
      "commode": 5637,
      "tice": 5638,
      "déjeu": 5639,
      "désign": 5640,
      "sures": 5641,
      "surpris": 5642,
      "amants": 5643,
      "grap": 5644,
      "voiles": 5645,
      "cessa": 5646,
      "cessé": 5647,
      "poésie": 5648,
      "montrait": 5649,
      "mêlait": 5650,
      "frappe": 5651,
      "plant": 5652,
      "exis": 5653,
      "exéc": 5654,
      "exemp": 5655,
      "fière": 5656,
      "ell": 5657,
      "puisqu": 5658,
      "nière": 5659,
      "carrés": 5660,
      "course": 5661,
      "fermer": 5662,
      "voyaient": 5663,
      "roule": 5664,
      "tombant": 5665,
      "appelez": 5666,
      "Aujourd": 5667,
      "lantes": 5668,
      "lements": 5669,
      "restée": 5670,
      "royauté": 5671,
      "connaître": 5672,
      "seizième": 5673,
      "juillet": 5674,
      "étranges": 5675,
      "trace": 5676,
      "croyais": 5677,
      "granit": 5678,
      "officiers": 5679,
      "derniers": 5680,
      "glaci": 5681,
      "prévôté": 5682,
      "prodig": 5683,
      "adressa": 5684,
      "intéres": 5685,
      "règne": 5686,
      "pénétrer": 5687,
      "stupéfait": 5688,
      "aïeul": 5689,
      "avança": 5690,
      "duisit": 5691,
      "harmonie": 5692,
      "dignité": 5693,
      "serrure": 5694,
      "maréchal": 5695,
      "Châteaupers": 5696,
      "gentilhomme": 5697,
      "boite": 5698,
      "industrie": 5699,
      "éclip": 5700,
      "Vénus": 5701,
      "Favourite": 5702,
      "Fland": 5703,
      "Leurs": 5704,
      "Mé": 5705,
      "Sil": 5706,
      "UN": 5707,
      "_F": 5708,
      "_l": 5709,
      "atement": 5710,
      "dalle": 5711,
      "glo": 5712,
      "gonds": 5713,
      "lème": 5714,
      "m_": 5715,
      "mus": 5716,
      "mail": 5717,
      "str": 5718,
      "til": 5719,
      "espé": 5720,
      "encor": 5721,
      "lamb": 5722,
      "ilé": 5723,
      "auda": 5724,
      "isé": 5725,
      "infor": 5726,
      "serez": 5727,
      "rib": 5728,
      "paral": 5729,
      "sonore": 5730,
      "lib": 5731,
      "licité": 5732,
      "divis": 5733,
      "départ": 5734,
      "pourvu": 5735,
      "acité": 5736,
      "tuy": 5737,
      "serais": 5738,
      "terlit": 5739,
      "majest": 5740,
      "excès": 5741,
      "verme": 5742,
      "Cha": 5743,
      "coupée": 5744,
      "courte": 5745,
      "charpente": 5746,
      "iquement": 5747,
      "bourru": 5748,
      "baraque": 5749,
      "imper": 5750,
      "rassur": 5751,
      "royaume": 5752,
      "lents": 5753,
      "lasse": 5754,
      "couvre": 5755,
      "obstin": 5756,
      "lèvre": 5757,
      "claire": 5758,
      "Quelqu": 5759,
      "voitures": 5760,
      "fronts": 5761,
      "spectres": 5762,
      "barricades": 5763,
      "attaché": 5764,
      "Arras": 5765,
      "demandé": 5766,
      "pareils": 5767,
      "gagné": 5768,
      "pilier": 5769,
      "médecine": 5770,
      "gouttes": 5771,
      "gravité": 5772,
      "écriture": 5773,
      "laid": 5774,
      "inquiétude": 5775,
      "prononcer": 5776,
      "essaya": 5777,
      "souriait": 5778,
      "trembler": 5779,
      "monstrueuse": 5780,
      "drôles": 5781,
      "pleurait": 5782,
      "étendu": 5783,
      "précipita": 5784,
      "objets": 5785,
      "bouteilles": 5786,
      "carrefours": 5787,
      "imprimerie": 5788,
      "inconnue": 5789,
      "diverses": 5790,
      "volupté": 5791,
      "catastrophe": 5792,
      "Satan": 5793,
      "successivement": 5794,
      "sérénité": 5795,
      "Anglais": 5796,
      "équilibre": 5797,
      "Austerlit": 5798,
      "Flandre": 5799,
      "Austerlitz": 5800,
      "Bu": 5801,
      "dange": 5802,
      "ode": 5803,
      "pans": 5804,
      "rab": 5805,
      "rail": 5806,
      "ratta": 5807,
      "tav": 5808,
      "tint": 5809,
      "este": 5810,
      "esses": 5811,
      "redoute": 5812,
      "reuses": 5813,
      "lam": 5814,
      "chon": 5815,
      "chasse": 5816,
      "urb": 5817,
      "lueurs": 5818,
      "richesse": 5819,
      "duire": 5820,
      "parvenu": 5821,
      "tières": 5822,
      "vibr": 5823,
      "réci": 5824,
      "révé": 5825,
      "république": 5826,
      "ambu": 5827,
      "racin": 5828,
      "mono": 5829,
      "proch": 5830,
      "pement": 5831,
      "perdit": 5832,
      "verra": 5833,
      "gnait": 5834,
      "mars": 5835,
      "utin": 5836,
      "Marguerite": 5837,
      "moine": 5838,
      "posant": 5839,
      "patrie": 5840,
      "fermées": 5841,
      "manqué": 5842,
      "crimes": 5843,
      "placé": 5844,
      "chargée": 5845,
      "finir": 5846,
      "appelaient": 5847,
      "nombr": 5848,
      "ennemi": 5849,
      "muette": 5850,
      "rencontr": 5851,
      "toilette": 5852,
      "juger": 5853,
      "oyer": 5854,
      "prennent": 5855,
      "géom": 5856,
      "troub": 5857,
      "roman": 5858,
      "orel": 5859,
      "croisées": 5860,
      "croissant": 5861,
      "poussait": 5862,
      "lieutenant": 5863,
      "siège": 5864,
      "nouvelles": 5865,
      "meurtri": 5866,
      "cabri": 5867,
      "sauve": 5868,
      "logette": 5869,
      "logie": 5870,
      "grimp": 5871,
      "caverne": 5872,
      "galant": 5873,
      "déliv": 5874,
      "trompe": 5875,
      "nécessité": 5876,
      "farouches": 5877,
      "Tourangeau": 5878,
      "rencontrer": 5879,
      "émotions": 5880,
      "Justice": 5881,
      "râle": 5882,
      "ordonnance": 5883,
      "universelle": 5884,
      "cratie": 5885,
      "flèche": 5886,
      "greffier": 5887,
      "multipli": 5888,
      "parapet": 5889,
      "Gisquette": 5890,
      "appétit": 5891,
      "Heureusement": 5892,
      "ET": 5893,
      "Emp": 5894,
      "Imp": 5895,
      "My": 5896,
      "So": 5897,
      "_L": 5898,
      "aco": 5899,
      "bré": 5900,
      "fri": 5901,
      "fir": 5902,
      "lun": 5903,
      "pages": 5904,
      "sanc": 5905,
      "tar": 5906,
      "vor": 5907,
      "ènes": 5908,
      "élevé": 5909,
      "êts": 5910,
      "înt": 5911,
      "ensei": 5912,
      "rement": 5913,
      "remis": 5914,
      "relles": 5915,
      "labor": 5916,
      "eries": 5917,
      "tements": 5918,
      "illi": 5919,
      "iser": 5920,
      "issance": 5921,
      "chacune": 5922,
      "cept": 5923,
      "unité": 5924,
      "luis": 5925,
      "pardon": 5926,
      "comté": 5927,
      "osait": 5928,
      "déclar": 5929,
      "résign": 5930,
      "voû": 5931,
      "agnes": 5932,
      "accompl": 5933,
      "propor": 5934,
      "onnerie": 5935,
      "mêler": 5936,
      "insou": 5937,
      "enfoncer": 5938,
      "verte": 5939,
      "forêts": 5940,
      "répand": 5941,
      "valets": 5942,
      "fermés": 5943,
      "mangeait": 5944,
      "visibles": 5945,
      "aînée": 5946,
      "larité": 5947,
      "voyons": 5948,
      "roulait": 5949,
      "ative": 5950,
      "cordes": 5951,
      "détru": 5952,
      "buste": 5953,
      "constel": 5954,
      "froidement": 5955,
      "boeuf": 5956,
      "balay": 5957,
      "rampe": 5958,
      "problème": 5959,
      "mouvements": 5960,
      "payé": 5961,
      "haï": 5962,
      "assises": 5963,
      "fantômes": 5964,
      "précipice": 5965,
      "aveug": 5966,
      "briser": 5967,
      "graves": 5968,
      "remuait": 5969,
      "éblouissant": 5970,
      "ignorant": 5971,
      "frapper": 5972,
      "philosophes": 5973,
      "admiration": 5974,
      "Homère": 5975,
      "demeurait": 5976,
      "XVIII": 5977,
      "couverts": 5978,
      "supplice": 5979,
      "rencontra": 5980,
      "montrer": 5981,
      "viendra": 5982,
      "animaux": 5983,
      "tendresse": 5984,
      "funèbres": 5985,
      "solide": 5986,
      "Merci": 5987,
      "épanouis": 5988,
      "gendarme": 5989,
      "cuisine": 5990,
      "tyran": 5991,
      "inouïe": 5992,
      "chêne": 5993,
      "immédiatement": 5994,
      "conséquent": 5995,
      "splendeur": 5996,
      "quatorze": 5997,
      "collège": 5998,
      "obstacle": 5999,
      "majestu": 6000,
      "Agn": 6001,
      "Cont": 6002,
      "Fl": 6003,
      "Ge": 6004,
      "Hor": 6005,
      "Ital": 6006,
      "Pard": 6007,
      "Ta": 6008,
      "Tandis": 6009,
      "ajou": 6010,
      "bê": 6011,
      "bure": 6012,
      "balle": 6013,
      "biles": 6014,
      "bégay": 6015,
      "casse": 6016,
      "danse": 6017,
      "feux": 6018,
      "gons": 6019,
      "lines": 6020,
      "maudit": 6021,
      "o_": 6022,
      "xand": 6023,
      "ïque": 6024,
      "enclos": 6025,
      "lem": 6026,
      "rev": 6027,
      "ani": 6028,
      "enter": 6029,
      "auphin": 6030,
      "itait": 6031,
      "incon": 6032,
      "insu": 6033,
      "informe": 6034,
      "aviez": 6035,
      "aisé": 6036,
      "rion": 6037,
      "allées": 6038,
      "passée": 6039,
      "osé": 6040,
      "déso": 6041,
      "contient": 6042,
      "réchauff": 6043,
      "amas": 6044,
      "cien": 6045,
      "coquet": 6046,
      "oirs": 6047,
      "prote": 6048,
      "tueuse": 6049,
      "sert": 6050,
      "couloir": 6051,
      "guil": 6052,
      "soud": 6053,
      "souhait": 6054,
      "longueur": 6055,
      "humi": 6056,
      "cachet": 6057,
      "courbé": 6058,
      "fermait": 6059,
      "portée": 6060,
      "emplit": 6061,
      "assass": 6062,
      "illité": 6063,
      "sourit": 6064,
      "horloge": 6065,
      "jupe": 6066,
      "office": 6067,
      "cloaque": 6068,
      "clochers": 6069,
      "bah": 6070,
      "volution": 6071,
      "égyptiennes": 6072,
      "dommage": 6073,
      "herbes": 6074,
      "hermét": 6075,
      "croyez": 6076,
      "jardinier": 6077,
      "Gueule": 6078,
      "rôle": 6079,
      "suffis": 6080,
      "charmants": 6081,
      "franch": 6082,
      "galop": 6083,
      "éclairs": 6084,
      "observation": 6085,
      "immobilité": 6086,
      "linge": 6087,
      "flamboy": 6088,
      "brûler": 6089,
      "combattants": 6090,
      "ouverts": 6091,
      "appuya": 6092,
      "oeuvres": 6093,
      "rapide": 6094,
      "confes": 6095,
      "existait": 6096,
      "Bonjour": 6097,
      "rencontré": 6098,
      "silencieusement": 6099,
      "bâtiment": 6100,
      "ENT": 6101,
      "République": 6102,
      "halles": 6103,
      "fallut": 6104,
      "lumineux": 6105,
      "Français": 6106,
      "imperturb": 6107,
      "violemment": 6108,
      "insouci": 6109,
      "Agnès": 6110,
      "Fau": 6111,
      "Feu": 6112,
      "Hard": 6113,
      "Joly": 6114,
      "Sont": 6115,
      "Tom": 6116,
      "Ven": 6117,
      "VII": 6118,
      "VIII": 6119,
      "bous": 6120,
      "blouse": 6121,
      "davantage": 6122,
      "fon": 6123,
      "ira": 6124,
      "ido": 6125,
      "paient": 6126,
      "pommes": 6127,
      "sèche": 6128,
      "vail": 6129,
      "éduc": 6130,
      "aigre": 6131,
      "retomba": 6132,
      "quan": 6133,
      "late": 6134,
      "auraient": 6135,
      "chard": 6136,
      "sere": 6137,
      "semaine": 6138,
      "omni": 6139,
      "ast": 6140,
      "membre": 6141,
      "riel": 6142,
      "passent": 6143,
      "libé": 6144,
      "combien": 6145,
      "tifi": 6146,
      "démons": 6147,
      "convi": 6148,
      "plupart": 6149,
      "ouvrant": 6150,
      "procession": 6151,
      "irrésis": 6152,
      "couleurs": 6153,
      "perce": 6154,
      "léger": 6155,
      "gné": 6156,
      "érait": 6157,
      "puissante": 6158,
      "phrase": 6159,
      "soup": 6160,
      "carrée": 6161,
      "cachait": 6162,
      "faisons": 6163,
      "valet": 6164,
      "égale": 6165,
      "rente": 6166,
      "correc": 6167,
      "basque": 6168,
      "cente": 6169,
      "nommer": 6170,
      "nommait": 6171,
      "mettant": 6172,
      "donnent": 6173,
      "parties": 6174,
      "sinon": 6175,
      "clous": 6176,
      "traverser": 6177,
      "accout": 6178,
      "recteur": 6179,
      "poussé": 6180,
      "continue": 6181,
      "naturel": 6182,
      "chapite": 6183,
      "fontaine": 6184,
      "dernières": 6185,
      "atteign": 6186,
      "prévu": 6187,
      "lourde": 6188,
      "délica": 6189,
      "regardez": 6190,
      "prononcé": 6191,
      "Gervais": 6192,
      "frappé": 6193,
      "lecteurs": 6194,
      "essayer": 6195,
      "glisser": 6196,
      "enfonça": 6197,
      "tressaille": 6198,
      "médioc": 6199,
      "gardait": 6200,
      "ousset": 6201,
      "épars": 6202,
      "frémissant": 6203,
      "salua": 6204,
      "résultat": 6205,
      "bayonn": 6206,
      "livrée": 6207,
      "campagne": 6208,
      "dérange": 6209,
      "Bienvenu": 6210,
      "redressa": 6211,
      "camarade": 6212,
      "saints": 6213,
      "désir": 6214,
      "fonction": 6215,
      "particulièrement": 6216,
      "désagré": 6217,
      "sculptures": 6218,
      "aparte": 6219,
      "réfugi": 6220,
      "fournaise": 6221,
      "Voulez": 6222,
      "militaire": 6223,
      "craindre": 6224,
      "réflexion": 6225,
      "resplend": 6226,
      "irrésistible": 6227,
      "13": 6228,
      "Dites": 6229,
      "Gal": 6230,
      "Jim": 6231,
      "Neuf": 6232,
      "Pren": 6233,
      "Sois": 6234,
      "fê": 6235,
      "fre": 6236,
      "frot": 6237,
      "jas": 6238,
      "nations": 6239,
      "oïs": 6240,
      "peux": 6241,
      "pères": 6242,
      "rau": 6243,
      "rus": 6244,
      "scru": 6245,
      "tois": 6246,
      "uils": 6247,
      "vus": 6248,
      "vécu": 6249,
      "ètre": 6250,
      "émer": 6251,
      "ôta": 6252,
      "ûment": 6253,
      "aider": 6254,
      "eniv": 6255,
      "refu": 6256,
      "armé": 6257,
      "argo": 6258,
      "iti": 6259,
      "luit": 6260,
      "paraissaient": 6261,
      "songé": 6262,
      "lien": 6263,
      "sab": 6264,
      "divers": 6265,
      "abu": 6266,
      "dénon": 6267,
      "congé": 6268,
      "vile": 6269,
      "résu": 6270,
      "cheloup": 6271,
      "gras": 6272,
      "auxquels": 6273,
      "brut": 6274,
      "seraient": 6275,
      "couper": 6276,
      "exprès": 6277,
      "énom": 6278,
      "énarde": 6279,
      "taches": 6280,
      "vah": 6281,
      "également": 6282,
      "égoïs": 6283,
      "boul": 6284,
      "possession": 6285,
      "portefeuille": 6286,
      "menace": 6287,
      "style": 6288,
      "finis": 6289,
      "istait": 6290,
      "mets": 6291,
      "saison": 6292,
      "boutiques": 6293,
      "gies": 6294,
      "souffert": 6295,
      "Mademoiselle": 6296,
      "singe": 6297,
      "géant": 6298,
      "blessé": 6299,
      "bruits": 6300,
      "morale": 6301,
      "fourneau": 6302,
      "indiquer": 6303,
      "présentait": 6304,
      "apparut": 6305,
      "candi": 6306,
      "archers": 6307,
      "famil": 6308,
      "Jack": 6309,
      "porche": 6310,
      "lâcher": 6311,
      "paysans": 6312,
      "stupide": 6313,
      "métap": 6314,
      "éteindre": 6315,
      "citoy": 6316,
      "certainement": 6317,
      "violente": 6318,
      "appuyait": 6319,
      "évanoui": 6320,
      "Prouv": 6321,
      "XVI": 6322,
      "reculer": 6323,
      "Miracles": 6324,
      "ivro": 6325,
      "meilleure": 6326,
      "Paul": 6327,
      "réveilla": 6328,
      "chansons": 6329,
      "assiers": 6330,
      "différence": 6331,
      "vêtement": 6332,
      "décidément": 6333,
      "applaudis": 6334,
      "Bahorel": 6335,
      "Paquette": 6336,
      "Hucheloup": 6337,
      "Liénarde": 6338,
      "articu": 6339,
      "naufrage": 6340,
      "auration": 6341,
      "encombr": 6342,
      "Force": 6343,
      "monnaie": 6344,
      "ault": 6345,
      "perpétu": 6346,
      "ouvriers": 6347,
      "bury": 6348,
      "gigantesque": 6349,
      "célèbre": 6350,
      "firma": 6351,
      "éducation": 6352,
      "Avoir": 6353,
      "Har": 6354,
      "Pen": 6355,
      "Pant": 6356,
      "Sor": 6357,
      "bancs": 6358,
      "fange": 6359,
      "mang": 6360,
      "pail": 6361,
      "tins": 6362,
      "vau": 6363,
      "ému": 6364,
      "essu": 6365,
      "envoie": 6366,
      "quête": 6367,
      "austère": 6368,
      "intré": 6369,
      "eures": 6370,
      "semain": 6371,
      "atures": 6372,
      "sienne": 6373,
      "songeur": 6374,
      "apparti": 6375,
      "apprendre": 6376,
      "aptis": 6377,
      "dépit": 6378,
      "définit": 6379,
      "démesur": 6380,
      "vides": 6381,
      "rési": 6382,
      "réduit": 6383,
      "respirer": 6384,
      "gronde": 6385,
      "grise": 6386,
      "coffre": 6387,
      "radi": 6388,
      "iel": 6389,
      "agé": 6390,
      "poches": 6391,
      "montra": 6392,
      "propres": 6393,
      "brune": 6394,
      "écus": 6395,
      "écart": 6396,
      "mad": 6397,
      "mame": 6398,
      "excla": 6399,
      "cules": 6400,
      "éru": 6401,
      "coupait": 6402,
      "carac": 6403,
      "boulet": 6404,
      "bouquet": 6405,
      "ruption": 6406,
      "évas": 6407,
      "laissez": 6408,
      "façons": 6409,
      "sourds": 6410,
      "chantant": 6411,
      "foud": 6412,
      "opération": 6413,
      "barons": 6414,
      "accla": 6415,
      "croissance": 6416,
      "magie": 6417,
      "damné": 6418,
      "fourmille": 6419,
      "fusils": 6420,
      "apparaît": 6421,
      "masses": 6422,
      "transfigur": 6423,
      "Armé": 6424,
      "ferez": 6425,
      "cruche": 6426,
      "oreiller": 6427,
      "galères": 6428,
      "atteindre": 6429,
      "plancher": 6430,
      "traîner": 6431,
      "flambeau": 6432,
      "arracha": 6433,
      "empêche": 6434,
      "éteinte": 6435,
      "Petite": 6436,
      "Près": 6437,
      "cuirassiers": 6438,
      "représentation": 6439,
      "admirer": 6440,
      "viendrait": 6441,
      "satisfaction": 6442,
      "cadavres": 6443,
      "Révolution": 6444,
      "fraîches": 6445,
      "éprouvait": 6446,
      "épuisé": 6447,
      "défense": 6448,
      "constitu": 6449,
      "méditation": 6450,
      "camarades": 6451,
      "poëte": 6452,
      "Autour": 6453,
      "dialogue": 6454,
      "expédi": 6455,
      "bûcher": 6456,
      "cordon": 6457,
      "fantaisie": 6458,
      "jalousie": 6459,
      "Silence": 6460,
      "taverne": 6461,
      "Italie": 6462,
      "Hardquan": 6463,
      "délicate": 6464,
      "Hardquanonne": 6465,
      "Ai": 6466,
      "Bla": 6467,
      "Fal": 6468,
      "Faire": 6469,
      "IE": 6470,
      "ME": 6471,
      "Mus": 6472,
      "Rit": 6473,
      "Rom": 6474,
      "Rol": 6475,
      "US": 6476,
      "]!": 6477,
      "_P": 6478,
      "_Pour": 6479,
      "by": 6480,
      "bav": 6481,
      "cées": 6482,
      "dôme": 6483,
      "jar": 6484,
      "ker": 6485,
      "mout": 6486,
      "oh": 6487,
      "osa": 6488,
      "paux": 6489,
      "pés": 6490,
      "rappelait": 6491,
      "scel": 6492,
      "vap": 6493,
      "vég": 6494,
      "vesti": 6495,
      "ôture": 6496,
      "eng": 6497,
      "retourn": 6498,
      "revient": 6499,
      "recommença": 6500,
      "enterre": 6501,
      "armées": 6502,
      "iso": 6503,
      "inde": 6504,
      "innombr": 6505,
      "ores": 6506,
      "prête": 6507,
      "parla": 6508,
      "alcô": 6509,
      "composé": 6510,
      "dir": 6511,
      "défi": 6512,
      "décro": 6513,
      "dénou": 6514,
      "condition": 6515,
      "vième": 6516,
      "républic": 6517,
      "réserv": 6518,
      "réalités": 6519,
      "roc": 6520,
      "accompli": 6521,
      "accept": 6522,
      "mondes": 6523,
      "procé": 6524,
      "prologue": 6525,
      "protest": 6526,
      "veines": 6527,
      "distrait": 6528,
      "bienveill": 6529,
      "utiles": 6530,
      "méchante": 6531,
      "phras": 6532,
      "lone": 6533,
      "niveau": 6534,
      "café": 6535,
      "roix": 6536,
      "bouc": 6537,
      "boucher": 6538,
      "ferma": 6539,
      "fermé": 6540,
      "crie": 6541,
      "pensé": 6542,
      "placer": 6543,
      "tines": 6544,
      "lissant": 6545,
      "tombaient": 6546,
      "chants": 6547,
      "affais": 6548,
      "écrivait": 6549,
      "Six": 6550,
      "offre": 6551,
      "obsc": 6552,
      "comptait": 6553,
      "rompit": 6554,
      "romane": 6555,
      "soirs": 6556,
      "pousse": 6557,
      "mori": 6558,
      "nouveaux": 6559,
      "masques": 6560,
      "clameur": 6561,
      "pouce": 6562,
      "soient": 6563,
      "féod": 6564,
      "distinct": 6565,
      "familles": 6566,
      "furieuse": 6567,
      "quitta": 6568,
      "dossier": 6569,
      "langage": 6570,
      "traîne": 6571,
      "vieillards": 6572,
      "talons": 6573,
      "lugubres": 6574,
      "inexorable": 6575,
      "soupirail": 6576,
      "vertus": 6577,
      "animal": 6578,
      "meilleur": 6579,
      "communauté": 6580,
      "haussa": 6581,
      "réveillé": 6582,
      "jolies": 6583,
      "fiel": 6584,
      "permission": 6585,
      "sourcils": 6586,
      "imagination": 6587,
      "interrog": 6588,
      "dérob": 6589,
      "mélancolique": 6590,
      "lointain": 6591,
      "épaisseur": 6592,
      "terribles": 6593,
      "bloc": 6594,
      "naissance": 6595,
      "esclave": 6596,
      "Champs": 6597,
      "inférieure": 6598,
      "Fermain": 6599,
      "munici": 6600,
      "Andry": 6601,
      "apostro": 6602,
      "Laissez": 6603,
      "Pierrat": 6604,
      "cabriolet": 6605,
      "semaines": 6606,
      "Hon": 6607,
      "Hun": 6608,
      "Mort": 6609,
      "OM": 6610,
      "RA": 6611,
      "Telle": 6612,
      "Voir": 6613,
      "ajus": 6614,
      "bassin": 6615,
      "gaie": 6616,
      "hen": 6617,
      "ize": 6618,
      "sén": 6619,
      "uves": 6620,
      "vaire": 6621,
      "véni": 6622,
      "élève": 6623,
      "engage": 6624,
      "retenir": 6625,
      "anche": 6626,
      "auds": 6627,
      "chrét": 6628,
      "sel": 6629,
      "étés": 6630,
      "étiez": 6631,
      "oies": 6632,
      "parlent": 6633,
      "libr": 6634,
      "sag": 6635,
      "sacre": 6636,
      "apporter": 6637,
      "geôle": 6638,
      "abo": 6639,
      "confront": 6640,
      "conduit": 6641,
      "surveill": 6642,
      "vices": 6643,
      "respon": 6644,
      "amère": 6645,
      "cite": 6646,
      "oiselles": 6647,
      "grond": 6648,
      "mière": 6649,
      "coq": 6650,
      "rame": 6651,
      "agissait": 6652,
      "propri": 6653,
      "moder": 6654,
      "motif": 6655,
      "brise": 6656,
      "seras": 6657,
      "couteau": 6658,
      "distr": 6659,
      "exprim": 6660,
      "fine": 6661,
      "verrou": 6662,
      "intention": 6663,
      "mérique": 6664,
      "impas": 6665,
      "tenez": 6666,
      "efface": 6667,
      "rentrait": 6668,
      "langues": 6669,
      "manants": 6670,
      "ministre": 6671,
      "épouse": 6672,
      "lisabet": 6673,
      "atif": 6674,
      "noce": 6675,
      "lits": 6676,
      "quoiqu": 6677,
      "chevet": 6678,
      "semblent": 6679,
      "opé": 6680,
      "mule": 6681,
      "musi": 6682,
      "barb": 6683,
      "Thom": 6684,
      "retent": 6685,
      "fautes": 6686,
      "trib": 6687,
      "souffler": 6688,
      "hiéro": 6689,
      "écriait": 6690,
      "hauts": 6691,
      "fumées": 6692,
      "collines": 6693,
      "prenaient": 6694,
      "certitude": 6695,
      "traversait": 6696,
      "rompre": 6697,
      "ptième": 6698,
      "dormi": 6699,
      "cheminées": 6700,
      "sanglo": 6701,
      "obscures": 6702,
      "pesante": 6703,
      "prix": 6704,
      "prime": 6705,
      "croyant": 6706,
      "branle": 6707,
      "attentif": 6708,
      "neuvième": 6709,
      "caveau": 6710,
      "sauvages": 6711,
      "révolutionnaire": 6712,
      "cyclo": 6713,
      "Diable": 6714,
      "done": 6715,
      "inquiète": 6716,
      "hypo": 6717,
      "promena": 6718,
      "promener": 6719,
      "explique": 6720,
      "chefs": 6721,
      "flammes": 6722,
      "circu": 6723,
      "gracieusement": 6724,
      "emporter": 6725,
      "gonf": 6726,
      "Messieurs": 6727,
      "endormie": 6728,
      "satisfait": 6729,
      "secoua": 6730,
      "1832": 6731,
      "hésitation": 6732,
      "nourrit": 6733,
      "dédain": 6734,
      "respirait": 6735,
      "sculpture": 6736,
      "Toujours": 6737,
      "Fibi": 6738,
      "douloureux": 6739,
      "achevait": 6740,
      "parfum": 6741,
      "pétrifié": 6742,
      "Nicolette": 6743,
      "mouchoir": 6744,
      "comédie": 6745,
      "chevelure": 6746,
      "boulevers": 6747,
      "silhouette": 6748,
      "routes": 6749,
      "journaux": 6750,
      "égaré": 6751,
      "orphel": 6752,
      "construit": 6753,
      "caractère": 6754,
      "estomac": 6755,
      "prodigieuse": 6756,
      "boiteux": 6757,
      "Impos": 6758,
      "évasion": 6759,
      "lisabeth": 6760,
      ".)": 6761,
      "Alou": 6762,
      "Ben": 6763,
      "Cas": 6764,
      "Sou": 6765,
      "Simp": 6766,
      "Ter": 6767,
      "Vinos": 6768,
      "billet": 6769,
      "gouver": 6770,
      "gestes": 6771,
      "hn": 6772,
      "ices": 6773,
      "mordre": 6774,
      "naît": 6775,
      "oût": 6776,
      "pendait": 6777,
      "rité": 6778,
      "sci": 6779,
      "seur": 6780,
      "ster": 6781,
      "well": 6782,
      "enlever": 6783,
      "retrait": 6784,
      "retomber": 6785,
      "relevait": 6786,
      "retourner": 6787,
      "redoub": 6788,
      "nef": 6789,
      "ardes": 6790,
      "isan": 6791,
      "inées": 6792,
      "incl": 6793,
      "choix": 6794,
      "septième": 6795,
      "querelle": 6796,
      "assur": 6797,
      "riv": 6798,
      "paro": 6799,
      "danser": 6800,
      "sonna": 6801,
      "lia": 6802,
      "dirai": 6803,
      "divine": 6804,
      "tiennent": 6805,
      "apt": 6806,
      "appris": 6807,
      "débor": 6808,
      "convient": 6809,
      "convention": 6810,
      "sursaut": 6811,
      "cifix": 6812,
      "eurent": 6813,
      "sud": 6814,
      "cochère": 6815,
      "accu": 6816,
      "vel": 6817,
      "termes": 6818,
      "frois": 6819,
      "frêle": 6820,
      "perte": 6821,
      "nids": 6822,
      "entrevoir": 6823,
      "tendit": 6824,
      "devons": 6825,
      "poss": 6826,
      "posture": 6827,
      "Parfois": 6828,
      "menait": 6829,
      "mener": 6830,
      "épis": 6831,
      "portent": 6832,
      "fonds": 6833,
      "fondre": 6834,
      "préoccup": 6835,
      "prétexte": 6836,
      "gargo": 6837,
      "garçons": 6838,
      "barque": 6839,
      "rettes": 6840,
      "restre": 6841,
      "otal": 6842,
      "faucon": 6843,
      "suivant": 6844,
      "fusion": 6845,
      "habitait": 6846,
      "tradition": 6847,
      "veste": 6848,
      "poussant": 6849,
      "damoiselle": 6850,
      "baissée": 6851,
      "perdus": 6852,
      "vastes": 6853,
      "domin": 6854,
      "catho": 6855,
      "bandes": 6856,
      "borgne": 6857,
      "légis": 6858,
      "gly": 6859,
      "allumé": 6860,
      "illées": 6861,
      "effrayé": 6862,
      "sauvée": 6863,
      "syst": 6864,
      "gagnait": 6865,
      "John": 6866,
      "observer": 6867,
      "hôpital": 6868,
      "immobiles": 6869,
      "frissonnant": 6870,
      "contempler": 6871,
      "hym": 6872,
      "violence": 6873,
      "magnifiques": 6874,
      "châti": 6875,
      "enfonçait": 6876,
      "Corne": 6877,
      "étincelle": 6878,
      "botte": 6879,
      "Robin": 6880,
      "dédaigne": 6881,
      "audience": 6882,
      "épanou": 6883,
      "résolution": 6884,
      "taisait": 6885,
      "reproche": 6886,
      "parfums": 6887,
      "secrète": 6888,
      "mettez": 6889,
      "poisson": 6890,
      "insensé": 6891,
      "avancer": 6892,
      "coutume": 6893,
      "noeud": 6894,
      "empreinte": 6895,
      "Soyez": 6896,
      "assaillants": 6897,
      "saltimbanque": 6898,
      "dangereux": 6899,
      "Myriel": 6900,
      "accoutu": 6901,
      "foudroy": 6902,
      "alcôve": 6903,
      "hiérogly": 6904,
      "Impossible": 6905,
      "Alouette": 6906,
      "conventionnel": 6907,
      "Ac": 6908,
      "Cons": 6909,
      "Cler": 6910,
      "Croix": 6911,
      "Er": 6912,
      "Gor": 6913,
      "Hel": 6914,
      "Houg": 6915,
      "Ier": 6916,
      "Mis": 6917,
      "Mur": 6918,
      "Mond": 6919,
      "Py": 6920,
      "Pil": 6921,
      "SE": 6922,
      "Wind": 6923,
      "XIII": 6924,
      "_Il": 6925,
      "bille": 6926,
      "cise": 6927,
      "dy": 6928,
      "dili": 6929,
      "fers": 6930,
      "foire": 6931,
      "gées": 6932,
      "ghe": 6933,
      "haie": 6934,
      "paire": 6935,
      "rond": 6936,
      "vins": 6937,
      "vendre": 6938,
      "«...": 6939,
      "élar": 6940,
      "épreuve": 6941,
      "rejo": 6942,
      "redouble": 6943,
      "quées": 6944,
      "nequin": 6945,
      "auré": 6946,
      "attr": 6947,
      "compose": 6948,
      "geaient": 6949,
      "abus": 6950,
      "décon": 6951,
      "déchar": 6952,
      "découvert": 6953,
      "dépense": 6954,
      "concent": 6955,
      "conject": 6956,
      "vigne": 6957,
      "répu": 6958,
      "régu": 6959,
      "réveill": 6960,
      "resque": 6961,
      "amb": 6962,
      "monceau": 6963,
      "brun": 6964,
      "écueil": 6965,
      "teries": 6966,
      "disais": 6967,
      "toucha": 6968,
      "touchant": 6969,
      "crav": 6970,
      "crus": 6971,
      "exquis": 6972,
      "nudité": 6973,
      "méchan": 6974,
      "coupable": 6975,
      "tendu": 6976,
      "douleurs": 6977,
      "carreau": 6978,
      "bougeait": 6979,
      "pioche": 6980,
      "manus": 6981,
      "mannequin": 6982,
      "Demain": 6983,
      "voyais": 6984,
      "penché": 6985,
      "suspendu": 6986,
      "Grèce": 6987,
      "corbillard": 6988,
      "mettent": 6989,
      "renouv": 6990,
      "mortes": 6991,
      "plia": 6992,
      "Thib": 6993,
      "sortaient": 6994,
      "montée": 6995,
      "rayonnant": 6996,
      "bibli": 6997,
      "clôture": 6998,
      "calcu": 6999,
      "berceau": 7000,
      "habitants": 7001,
      "penseur": 7002,
      "échappe": 7003,
      "romain": 7004,
      "croissait": 7005,
      "culs": 7006,
      "créé": 7007,
      "peste": 7008,
      "songeant": 7009,
      "égyptiens": 7010,
      "balance": 7011,
      "disparaissait": 7012,
      "aimez": 7013,
      "bourgeoisie": 7014,
      "neuve": 7015,
      "donnez": 7016,
      "atteint": 7017,
      "meubles": 7018,
      "glacée": 7019,
      "architecte": 7020,
      "métal": 7021,
      "navi": 7022,
      "donjon": 7023,
      "ébloui": 7024,
      "généraux": 7025,
      "brûlait": 7026,
      "promenait": 7027,
      "tranquillement": 7028,
      "croupe": 7029,
      "tromper": 7030,
      "infâme": 7031,
      "Bourgo": 7032,
      "honnêtes": 7033,
      "efforts": 7034,
      "gracieux": 7035,
      "gracieuse": 7036,
      "soupirs": 7037,
      "enveloppé": 7038,
      "Corinthe": 7039,
      "environs": 7040,
      "endroits": 7041,
      "matique": 7042,
      "aimant": 7043,
      "veuve": 7044,
      "Voyons": 7045,
      "rencontrait": 7046,
      "critique": 7047,
      "Allemagne": 7048,
      "vulg": 7049,
      "entièrement": 7050,
      "grenier": 7051,
      "supérieur": 7052,
      "exception": 7053,
      "sauta": 7054,
      "travailler": 7055,
      "vertige": 7056,
      "Disons": 7057,
      "universel": 7058,
      "ceptible": 7059,
      "pétrifi": 7060,
      "vanité": 7061,
      "considérable": 7062,
      "Nicolas": 7063,
      "broussaille": 7064,
      "griffes": 7065,
      "vermeil": 7066,
      "Geor": 7067,
      "sabbat": 7068,
      "firmament": 7069,
      "Roland": 7070,
      "Mondétour": 7071,
      "Windsor": 7072,
      "méchancet": 7073,
      ").": 7074,
      "Adam": 7075,
      "Droit": 7076,
      "Filles": 7077,
      "MA": 7078,
      "Vrai": 7079,
      "XII": 7080,
      "_J": 7081,
      "boy": 7082,
      "bêt": 7083,
      "dauphin": 7084,
      "elem": 7085,
      "fêtes": 7086,
      "gagne": 7087,
      "mos": 7088,
      "oît": 7089,
      "ppo": 7090,
      "pite": 7091,
      "pist": 7092,
      "rouvrit": 7093,
      "scélé": 7094,
      "zén": 7095,
      "élev": 7096,
      "ïse": 7097,
      "ouette": 7098,
      "ley": 7099,
      "revoir": 7100,
      "reurs": 7101,
      "redevint": 7102,
      "quence": 7103,
      "quise": 7104,
      "armés": 7105,
      "isse": 7106,
      "isol": 7107,
      "sexe": 7108,
      "omont": 7109,
      "aval": 7110,
      "aspir": 7111,
      "urne": 7112,
      "unt": 7113,
      "estre": 7114,
      "sien": 7115,
      "all": 7116,
      "alter": 7117,
      "alph": 7118,
      "commer": 7119,
      "us_": 7120,
      "consent": 7121,
      "vif": 7122,
      "réjou": 7123,
      "grève": 7124,
      "ecture": 7125,
      "rosa": 7126,
      "monarchie": 7127,
      "dislo": 7128,
      "onnaient": 7129,
      "onnées": 7130,
      "perfec": 7131,
      "inscription": 7132,
      "file": 7133,
      "verrai": 7134,
      "bienfait": 7135,
      "marée": 7136,
      "ainement": 7137,
      "ingue": 7138,
      "sentier": 7139,
      "carri": 7140,
      "répétait": 7141,
      "réplique": 7142,
      "posées": 7143,
      "airain": 7144,
      "ferr": 7145,
      "places": 7146,
      "chargés": 7147,
      "rougeur": 7148,
      "corne": 7149,
      "attente": 7150,
      "chaleur": 7151,
      "pressé": 7152,
      "trouvez": 7153,
      "travaux": 7154,
      "plié": 7155,
      "montagnes": 7156,
      "soufflait": 7157,
      "battu": 7158,
      "Phelem": 7159,
      "céré": 7160,
      "colline": 7161,
      "accablement": 7162,
      "buvait": 7163,
      "tableau": 7164,
      "connaissez": 7165,
      "itudes": 7166,
      "supers": 7167,
      "fameux": 7168,
      "pâles": 7169,
      "mourant": 7170,
      "portrait": 7171,
      "subst": 7172,
      "Pasque": 7173,
      "écouta": 7174,
      "malades": 7175,
      "franchi": 7176,
      "soutane": 7177,
      "galeries": 7178,
      "linc": 7179,
      "flamboiement": 7180,
      "remua": 7181,
      "brûle": 7182,
      "ptembre": 7183,
      "dura": 7184,
      "brode": 7185,
      "politiques": 7186,
      "élément": 7187,
      "Bonaparte": 7188,
      "étendue": 7189,
      "Magnon": 7190,
      "tragédi": 7191,
      "prunelles": 7192,
      "hôtels": 7193,
      "148": 7194,
      "classe": 7195,
      "opinion": 7196,
      "brigand": 7197,
      "mousquet": 7198,
      "régiment": 7199,
      "emportement": 7200,
      "écroulement": 7201,
      "rappela": 7202,
      "enjamb": 7203,
      "Calvaire": 7204,
      "pignons": 7205,
      "criminel": 7206,
      "compartiment": 7207,
      "oscilla": 7208,
      "balbutia": 7209,
      "inconvéni": 7210,
      "Gueulemer": 7211,
      "serein": 7212,
      "Prouvaire": 7213,
      "enterrement": 7214,
      "isolement": 7215,
      "Thomas": 7216,
      "Simplice": 7217,
      "Hougomont": 7218,
      "zénith": 7219,
      "93": 7220,
      "Bl": 7221,
      "Dor": 7222,
      "Dante": 7223,
      "Fab": 7224,
      "OI": 7225,
      "OS": 7226,
      "Pla": 7227,
      "Pousse": 7228,
      "Presque": 7229,
      "Rest": 7230,
      "Vir": 7231,
      "août": 7232,
      "cassée": 7233,
      "fag": 7234,
      "gîte": 7235,
      "mû": 7236,
      "ranc": 7237,
      "Ève": 7238,
      "âtres": 7239,
      "èges": 7240,
      "èvres": 7241,
      "élo": 7242,
      "éper": 7243,
      "esques": 7244,
      "espère": 7245,
      "aimée": 7246,
      "enc": 7247,
      "représente": 7248,
      "once": 7249,
      "onation": 7250,
      "ann": 7251,
      "annes": 7252,
      "qualités": 7253,
      "entendant": 7254,
      "arron": 7255,
      "auberg": 7256,
      "is_": 7257,
      "issa": 7258,
      "incar": 7259,
      "cheurs": 7260,
      "étoff": 7261,
      "ousin": 7262,
      "atience": 7263,
      "tremp": 7264,
      "treize": 7265,
      "lié": 7266,
      "lières": 7267,
      "dienne": 7268,
      "apporte": 7269,
      "geant": 7270,
      "déb": 7271,
      "décis": 7272,
      "vives": 7273,
      "ditions": 7274,
      "volets": 7275,
      "acces": 7276,
      "modi": 7277,
      "madone": 7278,
      "dise": 7279,
      "bleus": 7280,
      "mêlent": 7281,
      "frater": 7282,
      "expi": 7283,
      "séance": 7284,
      "pha": 7285,
      "phère": 7286,
      "improvis": 7287,
      "cachée": 7288,
      "oncée": 7289,
      "parer": 7290,
      "mission": 7291,
      "regardent": 7292,
      "manquer": 7293,
      "crié": 7294,
      "rudement": 7295,
      "rubans": 7296,
      "dog": 7297,
      "mince": 7298,
      "heureusement": 7299,
      "prises": 7300,
      "évrier": 7301,
      "cordi": 7302,
      "anderie": 7303,
      "trouvée": 7304,
      "chevelle": 7305,
      "renom": 7306,
      "pline": 7307,
      "pects": 7308,
      "hibou": 7309,
      "battant": 7310,
      "judi": 7311,
      "jugé": 7312,
      "olets": 7313,
      "gémis": 7314,
      "partis": 7315,
      "blessés": 7316,
      "croisée": 7317,
      "sortirent": 7318,
      "baisser": 7319,
      "sanglot": 7320,
      "poutre": 7321,
      "chapeaux": 7322,
      "signes": 7323,
      "demie": 7324,
      "Charle": 7325,
      "éclats": 7326,
      "Montfaucon": 7327,
      "dragons": 7328,
      "orian": 7329,
      "hak": 7330,
      "haïs": 7331,
      "caves": 7332,
      "remplissait": 7333,
      "vainqu": 7334,
      "tranquillité": 7335,
      "hydre": 7336,
      "essayé": 7337,
      "vieillesse": 7338,
      "déchiré": 7339,
      "hâta": 7340,
      "principale": 7341,
      "admirait": 7342,
      "prostitu": 7343,
      "préfecture": 7344,
      "rarement": 7345,
      "plaies": 7346,
      "respiration": 7347,
      "remue": 7348,
      "Jusqu": 7349,
      "Hermite": 7350,
      "Toulon": 7351,
      "paupière": 7352,
      "vêtus": 7353,
      "flanc": 7354,
      "rideau": 7355,
      "mélancolie": 7356,
      "msgail": 7357,
      "François": 7358,
      "absorbé": 7359,
      "ironie": 7360,
      "1855": 7361,
      "Flamands": 7362,
      "Baby": 7363,
      "enseve": 7364,
      "amalgam": 7365,
      "discipline": 7366,
      "privilège": 7367,
      "agréable": 7368,
      "énerg": 7369,
      "abominable": 7370,
      "faiblesse": 7371,
      "virgin": 7372,
      "maçonnerie": 7373,
      "déjeuner": 7374,
      "Chaos": 7375,
      "Florian": 7376,
      "imperturbable": 7377,
      "rauque": 7378,
      "innombrables": 7379,
      "incliné": 7380,
      "Helmsgail": 7381,
      "manuscrit": 7382,
      "Bourgogne": 7383,
      "Ale": 7384,
      "Aur": 7385,
      "Cin": 7386,
      "Eu": 7387,
      "Fo": 7388,
      "Font": 7389,
      "Flame": 7390,
      "Gand": 7391,
      "Hol": 7392,
      "Lo": 7393,
      "Nul": 7394,
      "aques": 7395,
      "acier": 7396,
      "blonde": 7397,
      "daient": 7398,
      "fée": 7399,
      "flo": 7400,
      "naître": 7401,
      "og": 7402,
      "purs": 7403,
      "sis": 7404,
      "yer": 7405,
      "écho": 7406,
      "élec": 7407,
      "reins": 7408,
      "reprend": 7409,
      "remonter": 7410,
      "quen": 7411,
      "lames": 7412,
      "autru": 7413,
      "chapitre": 7414,
      "avions": 7415,
      "luxe": 7416,
      "ates": 7417,
      "allais": 7418,
      "liards": 7419,
      "sachette": 7420,
      "tirant": 7421,
      "abatt": 7422,
      "décom": 7423,
      "défigur": 7424,
      "conserv": 7425,
      "pourra": 7426,
      "aca": 7427,
      "coule": 7428,
      "distribu": 7429,
      "sot": 7430,
      "gueu": 7431,
      "guér": 7432,
      "perles": 7433,
      "vendu": 7434,
      "plaines": 7435,
      "nuance": 7436,
      "verro": 7437,
      "vermou": 7438,
      "légen": 7439,
      "gna": 7440,
      "phare": 7441,
      "phénom": 7442,
      "Mars": 7443,
      "Chez": 7444,
      "formé": 7445,
      "mani": 7446,
      "justement": 7447,
      "rup": 7448,
      "Parmi": 7449,
      "dore": 7450,
      "éping": 7451,
      "note": 7452,
      "petitesse": 7453,
      "icide": 7454,
      "littér": 7455,
      "vitres": 7456,
      "appela": 7457,
      "sourn": 7458,
      "jetée": 7459,
      "pause": 7460,
      "louis": 7461,
      "barbar": 7462,
      "implac": 7463,
      "cination": 7464,
      "sortent": 7465,
      "gentils": 7466,
      "gilet": 7467,
      "forter": 7468,
      "telles": 7469,
      "trice": 7470,
      "lente": 7471,
      "cast": 7472,
      "couvrir": 7473,
      "Outre": 7474,
      "sinc": 7475,
      "troublé": 7476,
      "figurer": 7477,
      "moue": 7478,
      "cabin": 7479,
      "éclatait": 7480,
      "écouté": 7481,
      "quittait": 7482,
      "doivent": 7483,
      "remarquable": 7484,
      "sylla": 7485,
      "rempli": 7486,
      "brisée": 7487,
      "observait": 7488,
      "métier": 7489,
      "empêchait": 7490,
      "poignante": 7491,
      "ignorait": 7492,
      "arement": 7493,
      "brûlé": 7494,
      "talent": 7495,
      "explication": 7496,
      "jugement": 7497,
      "circonst": 7498,
      "difformes": 7499,
      "obéit": 7500,
      "bizarres": 7501,
      "clercs": 7502,
      "secouant": 7503,
      "écarlate": 7504,
      "éloigner": 7505,
      "cousin": 7506,
      "tapisserie": 7507,
      "exécution": 7508,
      "amertume": 7509,
      "acheter": 7510,
      "labyr": 7511,
      "éclairer": 7512,
      "indifférence": 7513,
      "essoufflé": 7514,
      "gâteau": 7515,
      "incendie": 7516,
      "dévouement": 7517,
      "réfléch": 7518,
      "lamentable": 7519,
      "Moulin": 7520,
      "aumône": 7521,
      "squelette": 7522,
      "ambassadeurs": 7523,
      "fidèle": 7524,
      "Auguste": 7525,
      "graphe": 7526,
      "tuyau": 7527,
      "voûtes": 7528,
      "ajoute": 7529,
      "scrupu": 7530,
      "Blachevelle": 7531,
      "vapeur": 7532,
      "conjectures": 7533,
      "cravate": 7534,
      "Georges": 7535,
      "méchanceté": 7536,
      "Poussepain": 7537,
      "accessible": 7538,
      "Babylone": 7539,
      "Flamel": 7540,
      "autrui": 7541,
      "implacable": 7542,
      "?...": 7543,
      "Bur": 7544,
      "Baptis": 7545,
      "Crom": 7546,
      "Dou": 7547,
      "Gi": 7548,
      "He": 7549,
      "Rous": 7550,
      "Roy": 7551,
      "Tur": 7552,
      "Vois": 7553,
      "_S": 7554,
      "_Mat": 7555,
      "bil": 7556,
      "bomb": 7557,
      "béni": 7558,
      "failli": 7559,
      "fabri": 7560,
      "gau": 7561,
      "ident": 7562,
      "nor": 7563,
      "oeuf": 7564,
      "ptent": 7565,
      "rentre": 7566,
      "sœur": 7567,
      "tan": 7568,
      "the": 7569,
      "zel": 7570,
      "ôte": 7571,
      "ouest": 7572,
      "onge": 7573,
      "quad": 7574,
      "arab": 7575,
      "isée": 7576,
      "itôt": 7577,
      "inon": 7578,
      "inond": 7579,
      "étaire": 7580,
      "étonne": 7581,
      "prouver": 7582,
      "quiconque": 7583,
      "sonn": 7584,
      "dic": 7585,
      "dimanche": 7586,
      "tiques": 7587,
      "déce": 7588,
      "dépou": 7589,
      "débord": 7590,
      "vio": 7591,
      "ettez": 7592,
      "cible": 7593,
      "civile": 7594,
      "sule": 7595,
      "coûte": 7596,
      "téris": 7597,
      "robuste": 7598,
      "loger": 7599,
      "brille": 7600,
      "from": 7601,
      "verbe": 7602,
      "gnée": 7603,
      "éron": 7604,
      "sévérité": 7605,
      "mérite": 7606,
      "cherie": 7607,
      "phon": 7608,
      "phine": 7609,
      "soupe": 7610,
      "niche": 7611,
      "devaient": 7612,
      "cartes": 7613,
      "empr": 7614,
      "valle": 7615,
      "mises": 7616,
      "penchant": 7617,
      "prisons": 7618,
      "tombèrent": 7619,
      "laissaient": 7620,
      "stères": 7621,
      "emploi": 7622,
      "assom": 7623,
      "côtes": 7624,
      "voulant": 7625,
      "saisissant": 7626,
      "impitoy": 7627,
      "pouvons": 7628,
      "Parisiens": 7629,
      "souffrait": 7630,
      "lenteur": 7631,
      "hiques": 7632,
      "écrivit": 7633,
      "casser": 7634,
      "horri": 7635,
      "intervalle": 7636,
      "pauvreté": 7637,
      "flat": 7638,
      "soirée": 7639,
      "moralité": 7640,
      "dorées": 7641,
      "froids": 7642,
      "vagab": 7643,
      "canne": 7644,
      "baissés": 7645,
      "greffe": 7646,
      "balan": 7647,
      "disparut": 7648,
      "disparition": 7649,
      "saute": 7650,
      "croyons": 7651,
      "transition": 7652,
      "bords": 7653,
      "immenses": 7654,
      "quitte": 7655,
      "secondes": 7656,
      "paye": 7657,
      "griffe": 7658,
      "haha": 7659,
      "désespér": 7660,
      "um_": 7661,
      "aveugles": 7662,
      "glacé": 7663,
      "tristement": 7664,
      "frissonner": 7665,
      "Diane": 7666,
      "redoutables": 7667,
      "panneau": 7668,
      "châs": 7669,
      "examiner": 7670,
      "emporté": 7671,
      "scand": 7672,
      "enfonce": 7673,
      "entouré": 7674,
      "étincelles": 7675,
      "occasions": 7676,
      "habitudes": 7677,
      "proscrit": 7678,
      "aiguille": 7679,
      "façades": 7680,
      "généreux": 7681,
      "classique": 7682,
      "variété": 7683,
      "hardiment": 7684,
      "rétab": 7685,
      "aboutir": 7686,
      "guide": 7687,
      "merveilleux": 7688,
      "ramassa": 7689,
      "frappait": 7690,
      "ogives": 7691,
      "complètement": 7692,
      "Plusieurs": 7693,
      "réverbère": 7694,
      "réverbération": 7695,
      "vacarme": 7696,
      "timide": 7697,
      "inconnus": 7698,
      "remplacé": 7699,
      "communication": 7700,
      "évanouit": 7701,
      "précédent": 7702,
      "œuvre": 7703,
      "colonnes": 7704,
      "nettement": 7705,
      "sarcas": 7706,
      "craignait": 7707,
      "Rouge": 7708,
      "humili": 7709,
      "miracle": 7710,
      "ivresse": 7711,
      "ridicule": 7712,
      "qualifi": 7713,
      "légitime": 7714,
      "globe": 7715,
      "constellations": 7716,
      "Pardon": 7717,
      "paillasse": 7718,
      "diligence": 7719,
      "cérémon": 7720,
      "aubergiste": 7721,
      "Charlemagne": 7722,
      "Alexand": 7723,
      "labyrinthe": 7724,
      "Baptistine": 7725,
      "Cromwell": 7726,
      "_Matutin": 7727,
      "Cy": 7728,
      "Celle": 7729,
      "Dir": 7730,
      "Fin": 7731,
      "Fais": 7732,
      "Mor": 7733,
      "Plut": 7734,
      "Rats": 7735,
      "Vie": 7736,
      "Willi": 7737,
      "_Et": 7738,
      "_Les": 7739,
      "bag": 7740,
      "cend": 7741,
      "das": 7742,
      "dram": 7743,
      "fentes": 7744,
      "folles": 7745,
      "février": 7746,
      "ivement": 7747,
      "jeux": 7748,
      "mau": 7749,
      "nas": 7750,
      "sève": 7751,
      "stro": 7752,
      "toc": 7753,
      "uti": 7754,
      "vité": 7755,
      "ës": 7756,
      "retrouva": 7757,
      "quo": 7758,
      "arma": 7759,
      "auriez": 7760,
      "chats": 7761,
      "sey": 7762,
      "septembre": 7763,
      "septent": 7764,
      "orag": 7765,
      "étion": 7766,
      "ourdel": 7767,
      "aissent": 7768,
      "trée": 7769,
      "trappe": 7770,
      "trique": 7771,
      "traître": 7772,
      "quième": 7773,
      "riaient": 7774,
      "para": 7775,
      "parfaite": 7776,
      "allég": 7777,
      "limite": 7778,
      "tienne": 7779,
      "tionnaires": 7780,
      "oser": 7781,
      "dégu": 7782,
      "déposé": 7783,
      "dévor": 7784,
      "surpren": 7785,
      "violet": 7786,
      "ressemblaient": 7787,
      "respira": 7788,
      "ressource": 7789,
      "uels": 7790,
      "radieux": 7791,
      "poteau": 7792,
      "proph": 7793,
      "irons": 7794,
      "permettait": 7795,
      "inspir": 7796,
      "crête": 7797,
      "exas": 7798,
      "enfuit": 7799,
      "vertes": 7800,
      "verrait": 7801,
      "gnant": 7802,
      "marchaient": 7803,
      "angue": 7804,
      "ords": 7805,
      "mécontent": 7806,
      "imprimé": 7807,
      "ingén": 7808,
      "sentine": 7809,
      "tenue": 7810,
      "caresse": 7811,
      "cales": 7812,
      "capri": 7813,
      "effor": 7814,
      "objec": 7815,
      "rentré": 7816,
      "post": 7817,
      "dogue": 7818,
      "pensez": 7819,
      "rouler": 7820,
      "éviter": 7821,
      "touteville": 7822,
      "Grande": 7823,
      "emplissait": 7824,
      "assour": 7825,
      "trouvant": 7826,
      "vitesse": 7827,
      "héon": 7828,
      "appelée": 7829,
      "sources": 7830,
      "donnaient": 7831,
      "fouilla": 7832,
      "Autri": 7833,
      "occident": 7834,
      "barbou": 7835,
      "cinquième": 7836,
      "irez": 7837,
      "habile": 7838,
      "rayonn": 7839,
      "triple": 7840,
      "Simon": 7841,
      "intermit": 7842,
      "clois": 7843,
      "close": 7844,
      "crets": 7845,
      "magn": 7846,
      "souven": 7847,
      "indigent": 7848,
      "froides": 7849,
      "édiction": 7850,
      "bala": 7851,
      "base": 7852,
      "huile": 7853,
      "fixés": 7854,
      "soigne": 7855,
      "meurtr": 7856,
      "Estouteville": 7857,
      "descendant": 7858,
      "ducs": 7859,
      "uniforme": 7860,
      "lâché": 7861,
      "frag": 7862,
      "étrangement": 7863,
      "dressé": 7864,
      "dressait": 7865,
      "vilain": 7866,
      "fréquent": 7867,
      "valait": 7868,
      "valides": 7869,
      "galérien": 7870,
      "cierge": 7871,
      "plaisant": 7872,
      "patience": 7873,
      "empêché": 7874,
      "Dix": 7875,
      "maigres": 7876,
      "retirer": 7877,
      "murmurait": 7878,
      "satin": 7879,
      "Inno": 7880,
      "appuyé": 7881,
      "juré": 7882,
      "chassé": 7883,
      "changement": 7884,
      "déchiquet": 7885,
      "reçut": 7886,
      "brute": 7887,
      "adoles": 7888,
      "brouhaha": 7889,
      "marchands": 7890,
      "gêne": 7891,
      "mélange": 7892,
      "étudier": 7893,
      "Henriet": 7894,
      "dépê": 7895,
      "audite": 7896,
      "sculpté": 7897,
      "défendu": 7898,
      "commiss": 7899,
      "avançait": 7900,
      "intelligi": 7901,
      "escarpement": 7902,
      "plaindre": 7903,
      "collet": 7904,
      "révérend": 7905,
      "facul": 7906,
      "mâch": 7907,
      "sonnerie": 7908,
      "séparait": 7909,
      "gaieté": 7910,
      "ressemblent": 7911,
      "phinx": 7912,
      "Holà": 7913,
      "lecture": 7914,
      "braves": 7915,
      "extérieur": 7916,
      "buveurs": 7917,
      "transparence": 7918,
      "pyram": 7919,
      "amiral": 7920,
      "exécut": 7921,
      "géomét": 7922,
      "Feuilly": 7923,
      "idolâ": 7924,
      "argotiers": 7925,
      "boulanger": 7926,
      "applaudissements": 7927,
      "Falourdel": 7928,
      "impassible": 7929,
      "nourriture": 7930,
      "horribles": 7931,
      "William": 7932,
      "AS": 7933,
      "Ba": 7934,
      "Bret": 7935,
      "Lin": 7936,
      "Mau": 7937,
      "Mère": 7938,
      "Moir": 7939,
      "Ser": 7940,
      "Te": 7941,
      "Vis": 7942,
      "Vive": 7943,
      "We": 7944,
      "_O": 7945,
      "_Chaos": 7946,
      "bagu": 7947,
      "cèrent": 7948,
      "cissement": 7949,
      "dge": 7950,
      "fis": 7951,
      "gisait": 7952,
      "gousset": 7953,
      "joies": 7954,
      "lins": 7955,
      "méc": 7956,
      "oî": 7957,
      "patte": 7958,
      "rous": 7959,
      "spir": 7960,
      "teté": 7961,
      "taver": 7962,
      "total": 7963,
      "vît": 7964,
      "zaine": 7965,
      "éant": 7966,
      "émi": 7967,
      "échev": 7968,
      "ôts": 7969,
      "ücher": 7970,
      "aiment": 7971,
      "enivre": 7972,
      "relâche": 7973,
      "lamp": 7974,
      "ingrat": 7975,
      "intime": 7976,
      "chât": 7977,
      "oratoire": 7978,
      "aspects": 7979,
      "parr": 7980,
      "parent": 7981,
      "sivement": 7982,
      "sond": 7983,
      "licit": 7984,
      "sables": 7985,
      "apportait": 7986,
      "absur": 7987,
      "déesse": 7988,
      "vicum": 7989,
      "récom": 7990,
      "chemins": 7991,
      "luire": 7992,
      "sut": 7993,
      "ténu": 7994,
      "brin": 7995,
      "brèche": 7996,
      "irrité": 7997,
      "seront": 7998,
      "ardent": 7999,
      "terras": 8000,
      "couler": 8001,
      "dissant": 8002,
      "permet": 8003,
      "touff": 8004,
      "marier": 8005,
      "série": 8006,
      "chercha": 8007,
      "soula": 8008,
      "soulever": 8009,
      "humains": 8010,
      "tences": 8011,
      "carillon": 8012,
      "cades": 8013,
      "faisais": 8014,
      "rentrant": 8015,
      "posés": 8016,
      "positions": 8017,
      "patri": 8018,
      "cripti": 8019,
      "Partout": 8020,
      "épit": 8021,
      "charpent": 8022,
      "lissement": 8023,
      "tombeaux": 8024,
      "attitudes": 8025,
      "icien": 8026,
      "istons": 8027,
      "bede": 8028,
      "Maison": 8029,
      "garrot": 8030,
      "renseigne": 8031,
      "impatience": 8032,
      "habillé": 8033,
      "gions": 8034,
      "soufflet": 8035,
      "souffrir": 8036,
      "pensant": 8037,
      "commune": 8038,
      "Tuile": 8039,
      "commençaient": 8040,
      "magique": 8041,
      "indiquait": 8042,
      "créatures": 8043,
      "apparaître": 8044,
      "canaille": 8045,
      "naturellement": 8046,
      "fixa": 8047,
      "prières": 8048,
      "support": 8049,
      "vérités": 8050,
      "éclater": 8051,
      "herine": 8052,
      "sauter": 8053,
      "pâtre": 8054,
      "section": 8055,
      "banlieue": 8056,
      "oublie": 8057,
      "vierges": 8058,
      "alluma": 8059,
      "hache": 8060,
      "occupée": 8061,
      "tombereau": 8062,
      "remarquait": 8063,
      "cygnes": 8064,
      "tortu": 8065,
      "clartés": 8066,
      "abîmes": 8067,
      "contras": 8068,
      "proprement": 8069,
      "galette": 8070,
      "défend": 8071,
      "talon": 8072,
      "vivaient": 8073,
      "éternellement": 8074,
      "perspec": 8075,
      "devoirs": 8076,
      "accentu": 8077,
      "espérant": 8078,
      "rangées": 8079,
      "effarée": 8080,
      "adressant": 8081,
      "doutait": 8082,
      "envir": 8083,
      "aimable": 8084,
      "obéissance": 8085,
      "prisonniers": 8086,
      "principes": 8087,
      "pleuré": 8088,
      "agonis": 8089,
      "instinc": 8090,
      "admire": 8091,
      "haletant": 8092,
      "plongea": 8093,
      "goud": 8094,
      "préfet": 8095,
      "écheve": 8096,
      "échelles": 8097,
      "plaira": 8098,
      "ténébreuse": 8099,
      "choisi": 8100,
      "recevait": 8101,
      "acheva": 8102,
      "envoyé": 8103,
      "accroupi": 8104,
      "fâché": 8105,
      "vertigine": 8106,
      "conservé": 8107,
      "profita": 8108,
      "rideaux": 8109,
      "spectateur": 8110,
      "construction": 8111,
      "accompagné": 8112,
      "adossé": 8113,
      "grotes": 8114,
      "dessinait": 8115,
      "encombre": 8116,
      "prudence": 8117,
      "domestique": 8118,
      "domestiques": 8119,
      "chimère": 8120,
      "possédait": 8121,
      "accusée": 8122,
      "Catherine": 8123,
      "religieux": 8124,
      "noblesse": 8125,
      "cailloux": 8126,
      "province": 8127,
      "Govicum": 8128,
      "escabeau": 8129,
      "audace": 8130,
      "imperceptible": 8131,
      "expédient": 8132,
      "végét": 8133,
      "index": 8134,
      "Benoît": 8135,
      "Terrace": 8136,
      "possède": 8137,
      "Gorbeau": 8138,
      "auréole": 8139,
      "commerce": 8140,
      "linceul": 8141,
      "Blücher": 8142,
      "Rousseau": 8143,
      "emprun": 8144,
      "_Matutina_": 8145,
      "Dirry": 8146,
      "septentrion": 8147,
      "Tuileries": 8148,
      "AT": 8149,
      "Ab": 8150,
      "Ca": 8151,
      "Capit": 8152,
      "Eff": 8153,
      "Four": 8154,
      "Mlle": 8155,
      "Suis": 8156,
      "Sicile": 8157,
      "Tru": 8158,
      "_M": 8159,
      "_les": 8160,
      "_De": 8161,
      "bill": 8162,
      "baign": 8163,
      "bosse": 8164,
      "besti": 8165,
      "fles": 8166,
      "gus": 8167,
      "glas": 8168,
      "hée": 8169,
      "hir": 8170,
      "halle": 8171,
      "jatte": 8172,
      "louv": 8173,
      "mam": 8174,
      "nappe": 8175,
      "pées": 8176,
      "paie": 8177,
      "renf": 8178,
      "rappeler": 8179,
      "sail": 8180,
      "saillir": 8181,
      "sphinx": 8182,
      "tolé": 8183,
      "vom": 8184,
      "vest": 8185,
      "vînt": 8186,
      "Êtes": 8187,
      "élevée": 8188,
      "ôter": 8189,
      "ôtres": 8190,
      "esle": 8191
    },
    "merges": [
      [
        "e",
        "s"
      ],
      [
        "a",
        "i"
      ],
      [
        "e",
        "n"
      ],
      [
        "o",
        "u"
      ],
      [
        "l",
        "e"
      ],
      [
        "d",
        "e"
      ],
      [
        "r",
        "e"
      ],
      [
        "o",
        "n"
      ],
      [
        "a",
        "n"
      ],
      [
        "q",
        "u"
      ],
      [
        "ai",
        "t"
      ],
      [
        "e",
        "t"
      ],
      [
        "l",
        "a"
      ],
      [
        "e",
        "r"
      ],
      [
        "en",
        "t"
      ],
      [
        "n",
        "e"
      ],
      [
        "a",
        "r"
      ],
      [
        "t",
        "e"
      ],
      [
        "i",
        "l"
      ],
      [
        "a",
        "u"
      ],
      [
        "i",
        "s"
      ],
      [
        "i",
        "t"
      ],
      [
        "i",
        "n"
      ],
      [
        "c",
        "h"
      ],
      [
        "e",
        "u"
      ],
      [
        "s",
        "e"
      ],
      [
        "qu",
        "e"
      ],
      [
        "o",
        "m"
      ],
      [
        "l",
        "es"
      ],
      [
        "a",
        "v"
      ],
      [
        "c",
        "e"
      ],
      [
        "o",
        "r"
      ],
      [
        "a",
        "s"
      ],
      [
        "an",
        "t"
      ],
      [
        "m",
        "e"
      ],
      [
        "u",
        "r"
      ],
      [
        "é",
        "t"
      ],
      [
        "ou",
        "r"
      ],
      [
        "u",
        "n"
      ],
      [
        "o",
        "i"
      ],
      [
        "p",
        "r"
      ],
      [
        "l",
        "u"
      ],
      [
        "an",
        "s"
      ],
      [
        "ou",
        "s"
      ],
      [
        "es",
        "t"
      ],
      [
        "l",
        "le"
      ],
      [
        "ai",
        "s"
      ],
      [
        "d",
        "es"
      ],
      [
        "t",
        "r"
      ],
      [
        "u",
        "ne"
      ],
      [
        "qu",
        "i"
      ],
      [
        "r",
        "i"
      ],
      [
        "a",
        "t"
      ],
      [
        "d",
        "u"
      ],
      [
        "p",
        "ar"
      ],
      [
        "s",
        "i"
      ],
      [
        "m",
        "ent"
      ],
      [
        "t",
        "re"
      ],
      [
        "d",
        "ans"
      ],
      [
        "a",
        "l"
      ],
      [
        "ét",
        "ait"
      ],
      [
        "-",
        "-"
      ],
      [
        "p",
        "as"
      ],
      [
        "ou",
        "t"
      ],
      [
        "s",
        "on"
      ],
      [
        "l",
        "i"
      ],
      [
        "c",
        "om"
      ],
      [
        "s",
        "a"
      ],
      [
        "I",
        "l"
      ],
      [
        "av",
        "ait"
      ],
      [
        "é",
        "e"
      ],
      [
        "d",
        "i"
      ],
      [
        "u",
        "s"
      ],
      [
        "t",
        "i"
      ],
      [
        "a",
        "p"
      ],
      [
        "o",
        "s"
      ],
      [
        "g",
        "e"
      ],
      [
        "a",
        "b"
      ],
      [
        "d",
        "é"
      ],
      [
        "c",
        "on"
      ],
      [
        "s",
        "ur"
      ],
      [
        "v",
        "i"
      ],
      [
        "e",
        "lle"
      ],
      [
        "et",
        "te"
      ],
      [
        "r",
        "é"
      ],
      [
        "r",
        "es"
      ],
      [
        "ai",
        "ent"
      ],
      [
        "ch",
        "e"
      ],
      [
        "ai",
        "n"
      ],
      [
        "è",
        "re"
      ],
      [
        "a",
        "m"
      ],
      [
        "c",
        "i"
      ],
      [
        "on",
        "s"
      ],
      [
        "o",
        "is"
      ],
      [
        "p",
        "our"
      ],
      [
        "lu",
        "i"
      ],
      [
        "d",
        "it"
      ],
      [
        "p",
        "lu"
      ],
      [
        "eu",
        "r"
      ],
      [
        "f",
        "f"
      ],
      [
        "ou",
        "v"
      ],
      [
        "g",
        "r"
      ],
      [
        "e",
        "c"
      ],
      [
        "t",
        "out"
      ],
      [
        "eu",
        "x"
      ],
      [
        "u",
        "e"
      ],
      [
        "on",
        "t"
      ],
      [
        "v",
        "ous"
      ],
      [
        "plu",
        "s"
      ],
      [
        "en",
        "d"
      ],
      [
        "j",
        "e"
      ],
      [
        "an",
        "d"
      ],
      [
        "il",
        "le"
      ],
      [
        "m",
        "p"
      ],
      [
        "s",
        "u"
      ],
      [
        "v",
        "o"
      ],
      [
        "m",
        "i"
      ],
      [
        "c",
        "o"
      ],
      [
        "or",
        "t"
      ],
      [
        "oi",
        "r"
      ],
      [
        "r",
        "a"
      ],
      [
        "s",
        "es"
      ],
      [
        "c",
        "es"
      ],
      [
        "u",
        "x"
      ],
      [
        "t",
        "é"
      ],
      [
        "au",
        "x"
      ],
      [
        "c",
        "ette"
      ],
      [
        "com",
        "me"
      ],
      [
        "p",
        "u"
      ],
      [
        "i",
        "e"
      ],
      [
        "r",
        "o"
      ],
      [
        "a",
        "g"
      ],
      [
        "av",
        "ec"
      ],
      [
        "L",
        "e"
      ],
      [
        "J",
        "e"
      ],
      [
        "er",
        "s"
      ],
      [
        "é",
        "s"
      ],
      [
        "i",
        "on"
      ],
      [
        "a",
        "c"
      ],
      [
        "m",
        "es"
      ],
      [
        "l",
        "o"
      ],
      [
        "p",
        "o"
      ],
      [
        "m",
        "on"
      ],
      [
        "om",
        "me"
      ],
      [
        "pr",
        "o"
      ],
      [
        "v",
        "e"
      ],
      [
        "m",
        "o"
      ],
      [
        "b",
        "r"
      ],
      [
        "t",
        "u"
      ],
      [
        "i",
        "r"
      ],
      [
        "s",
        "er"
      ],
      [
        "é",
        "c"
      ],
      [
        "ar",
        "d"
      ],
      [
        "t",
        "er"
      ],
      [
        "ai",
        "re"
      ],
      [
        "i",
        "en"
      ],
      [
        "que",
        "l"
      ],
      [
        "è",
        "s"
      ],
      [
        "m",
        "a"
      ],
      [
        "L",
        "a"
      ],
      [
        "le",
        "ur"
      ],
      [
        "f",
        "ait"
      ],
      [
        "om",
        "b"
      ],
      [
        "c",
        "ou"
      ],
      [
        "d",
        "is"
      ],
      [
        "j",
        "our"
      ],
      [
        "b",
        "le"
      ],
      [
        "p",
        "eu"
      ],
      [
        "t",
        "es"
      ],
      [
        "de",
        "ux"
      ],
      [
        "on",
        "n"
      ],
      [
        "ê",
        "tre"
      ],
      [
        "p",
        "e"
      ],
      [
        "m",
        "ê"
      ],
      [
        "ab",
        "le"
      ],
      [
        "Q",
        "u"
      ],
      [
        "s",
        "o"
      ],
      [
        "m",
        "ais"
      ],
      [
        "it",
        "é"
      ],
      [
        "i",
        "er"
      ],
      [
        "g",
        "u"
      ],
      [
        "f",
        "r"
      ],
      [
        "o",
        "ù"
      ],
      [
        "p",
        "er"
      ],
      [
        "in",
        "s"
      ],
      [
        "l",
        "à"
      ],
      [
        "h",
        "omme"
      ],
      [
        "v",
        "en"
      ],
      [
        "p",
        "l"
      ],
      [
        "t",
        "ou"
      ],
      [
        "c",
        "r"
      ],
      [
        "l",
        "ait"
      ],
      [
        "E",
        "t"
      ],
      [
        "e",
        "x"
      ],
      [
        "au",
        "t"
      ],
      [
        "C",
        "e"
      ],
      [
        "f",
        "i"
      ],
      [
        "n",
        "ous"
      ],
      [
        "n",
        "u"
      ],
      [
        "m",
        "ain"
      ],
      [
        "en",
        "f"
      ],
      [
        "e",
        "au"
      ],
      [
        "é",
        "n"
      ],
      [
        "i",
        "ne"
      ],
      [
        "v",
        "er"
      ],
      [
        "l",
        "é"
      ],
      [
        "g",
        "n"
      ],
      [
        "or",
        "te"
      ],
      [
        "in",
        "t"
      ],
      [
        "b",
        "ien"
      ],
      [
        "m",
        "ar"
      ],
      [
        "en",
        "ce"
      ],
      [
        "mê",
        "me"
      ],
      [
        "an",
        "g"
      ],
      [
        "e",
        "l"
      ],
      [
        "u",
        "t"
      ],
      [
        "m",
        "b"
      ],
      [
        "ai",
        "ne"
      ],
      [
        "at",
        "ion"
      ],
      [
        "or",
        "d"
      ],
      [
        "c",
        "u"
      ],
      [
        "é",
        "r"
      ],
      [
        "s",
        "é"
      ],
      [
        "pu",
        "is"
      ],
      [
        "s",
        "ans"
      ],
      [
        "qu",
        "es"
      ],
      [
        "re",
        "g"
      ],
      [
        "L",
        "es"
      ],
      [
        "an",
        "te"
      ],
      [
        "ê",
        "te"
      ],
      [
        "oi",
        "re"
      ],
      [
        "s",
        "ous"
      ],
      [
        "s",
        "ait"
      ],
      [
        "on",
        "d"
      ],
      [
        "te",
        "mp"
      ],
      [
        "E",
        "lle"
      ],
      [
        "tr",
        "es"
      ],
      [
        "û",
        "t"
      ],
      [
        "i",
        "eu"
      ],
      [
        "t",
        "ant"
      ],
      [
        "e",
        "z"
      ],
      [
        "O",
        "n"
      ],
      [
        "m",
        "é"
      ],
      [
        "en",
        "s"
      ],
      [
        "pr",
        "ès"
      ],
      [
        "ch",
        "er"
      ],
      [
        "v",
        "re"
      ],
      [
        "p",
        "h"
      ],
      [
        "il",
        "s"
      ],
      [
        "s",
        "ou"
      ],
      [
        "u",
        "re"
      ],
      [
        "au",
        "tre"
      ],
      [
        "an",
        "ce"
      ],
      [
        "a",
        "ge"
      ],
      [
        "ai",
        "l"
      ],
      [
        "p",
        "et"
      ],
      [
        "i",
        "te"
      ],
      [
        "l",
        "on"
      ],
      [
        "M",
        "ar"
      ],
      [
        "C",
        "h"
      ],
      [
        "i",
        "m"
      ],
      [
        "n",
        "i"
      ],
      [
        "h",
        "u"
      ],
      [
        "vi",
        "e"
      ],
      [
        "in",
        "g"
      ],
      [
        "t",
        "our"
      ],
      [
        "f",
        "or"
      ],
      [
        "pr",
        "it"
      ],
      [
        "ent",
        "re"
      ],
      [
        "s",
        "ent"
      ],
      [
        "cou",
        "p"
      ],
      [
        "b",
        "on"
      ],
      [
        "t",
        "en"
      ],
      [
        "de",
        "v"
      ],
      [
        "ce",
        "la"
      ],
      [
        "d",
        "ou"
      ],
      [
        "c",
        "ar"
      ],
      [
        "h",
        "eu"
      ],
      [
        "de",
        "r"
      ],
      [
        "ét",
        "é"
      ],
      [
        "c",
        "a"
      ],
      [
        "er",
        "t"
      ],
      [
        "f",
        "ais"
      ],
      [
        "t",
        "a"
      ],
      [
        "e",
        "m"
      ],
      [
        "ré",
        "p"
      ],
      [
        "or",
        "s"
      ],
      [
        "e",
        "ff"
      ],
      [
        "c",
        "our"
      ],
      [
        "E",
        "n"
      ],
      [
        "v",
        "a"
      ],
      [
        "o",
        "b"
      ],
      [
        "ti",
        "on"
      ],
      [
        "é",
        "g"
      ],
      [
        "r",
        "ait"
      ],
      [
        "enf",
        "ant"
      ],
      [
        "r",
        "oi"
      ],
      [
        "temp",
        "s"
      ],
      [
        "m",
        "oi"
      ],
      [
        "b",
        "ou"
      ],
      [
        "g",
        "ne"
      ],
      [
        "f",
        "ois"
      ],
      [
        "r",
        "ent"
      ],
      [
        "on",
        "c"
      ],
      [
        "ch",
        "o"
      ],
      [
        "b",
        "re"
      ],
      [
        "ét",
        "aient"
      ],
      [
        "as",
        "se"
      ],
      [
        "v",
        "ers"
      ],
      [
        "p",
        "os"
      ],
      [
        "p",
        "le"
      ],
      [
        "ai",
        "r"
      ],
      [
        "v",
        "oi"
      ],
      [
        "p",
        "a"
      ],
      [
        "m",
        "is"
      ],
      [
        "t",
        "ous"
      ],
      [
        "son",
        "t"
      ],
      [
        "p",
        "i"
      ],
      [
        "l",
        "an"
      ],
      [
        "reg",
        "ard"
      ],
      [
        "f",
        "er"
      ],
      [
        "m",
        "an"
      ],
      [
        "c",
        "ri"
      ],
      [
        "j",
        "us"
      ],
      [
        "gr",
        "and"
      ],
      [
        "omb",
        "re"
      ],
      [
        "r",
        "u"
      ],
      [
        "quel",
        "que"
      ],
      [
        "p",
        "re"
      ],
      [
        "jour",
        "s"
      ],
      [
        "é",
        "es"
      ],
      [
        "t",
        "s"
      ],
      [
        "v",
        "is"
      ],
      [
        "a",
        "î"
      ],
      [
        "ar",
        "ri"
      ],
      [
        "P",
        "ar"
      ],
      [
        "co",
        "re"
      ],
      [
        "i",
        "us"
      ],
      [
        "en",
        "core"
      ],
      [
        "la",
        "r"
      ],
      [
        "p",
        "orte"
      ],
      [
        "di",
        "re"
      ],
      [
        "d",
        "o"
      ],
      [
        "m",
        "er"
      ],
      [
        "D",
        "e"
      ],
      [
        "Mar",
        "ius"
      ],
      [
        "f",
        "aire"
      ],
      [
        "m",
        "in"
      ],
      [
        "si",
        "eur"
      ],
      [
        "vo",
        "y"
      ],
      [
        "p",
        "en"
      ],
      [
        "Je",
        "an"
      ],
      [
        "t",
        "ête"
      ],
      [
        "ri",
        "en"
      ],
      [
        "m",
        "om"
      ],
      [
        "p",
        "la"
      ],
      [
        "a",
        "le"
      ],
      [
        "end",
        "re"
      ],
      [
        "m",
        "en"
      ],
      [
        "mom",
        "ent"
      ],
      [
        "ch",
        "es"
      ],
      [
        "é",
        "p"
      ],
      [
        "U",
        "n"
      ],
      [
        "ai",
        "lle"
      ],
      [
        "ch",
        "ar"
      ],
      [
        "heu",
        "re"
      ],
      [
        "pr",
        "is"
      ],
      [
        "r",
        "ou"
      ],
      [
        "po",
        "int"
      ],
      [
        "e",
        "ût"
      ],
      [
        "t",
        "in"
      ],
      [
        "s",
        "us"
      ],
      [
        "f",
        "em"
      ],
      [
        "l",
        "is"
      ],
      [
        "y",
        "eux"
      ],
      [
        "t",
        "omb"
      ],
      [
        "at",
        "i"
      ],
      [
        "é",
        "v"
      ],
      [
        "tou",
        "te"
      ],
      [
        "l",
        "ais"
      ],
      [
        "se",
        "ment"
      ],
      [
        "cho",
        "se"
      ],
      [
        "r",
        "ue"
      ],
      [
        "s",
        "t"
      ],
      [
        "d",
        "ont"
      ],
      [
        "v",
        "oir"
      ],
      [
        "s",
        "ant"
      ],
      [
        "n",
        "o"
      ],
      [
        "m",
        "ur"
      ],
      [
        "le",
        "r"
      ],
      [
        "pet",
        "it"
      ],
      [
        "p",
        "ort"
      ],
      [
        "om",
        "mes"
      ],
      [
        "end",
        "ant"
      ],
      [
        "m",
        "al"
      ],
      [
        "G",
        "r"
      ],
      [
        "e",
        "mp"
      ],
      [
        "r",
        "ê"
      ],
      [
        "a",
        "d"
      ],
      [
        "v",
        "ent"
      ],
      [
        "Q",
        "ue"
      ],
      [
        "tout",
        "es"
      ],
      [
        "nu",
        "it"
      ],
      [
        "c",
        "or"
      ],
      [
        "au",
        "s"
      ],
      [
        "V",
        "al"
      ],
      [
        "ter",
        "re"
      ],
      [
        "leur",
        "s"
      ],
      [
        "f",
        "a"
      ],
      [
        "av",
        "oir"
      ],
      [
        "s",
        "eu"
      ],
      [
        "f",
        "it"
      ],
      [
        "at",
        "t"
      ],
      [
        "an",
        "de"
      ],
      [
        "D",
        "ieu"
      ],
      [
        "f",
        "in"
      ],
      [
        "ch",
        "a"
      ],
      [
        "j",
        "eu"
      ],
      [
        "pr",
        "es"
      ],
      [
        "je",
        "an"
      ],
      [
        "as",
        "s"
      ],
      [
        "Val",
        "jean"
      ],
      [
        ".",
        "."
      ],
      [
        "p",
        "ie"
      ],
      [
        "il",
        "l"
      ],
      [
        "f",
        "ond"
      ],
      [
        "c",
        "et"
      ],
      [
        "te",
        "ur"
      ],
      [
        "ain",
        "t"
      ],
      [
        "le",
        "t"
      ],
      [
        "tr",
        "ouv"
      ],
      [
        "tr",
        "av"
      ],
      [
        "c",
        "ô"
      ],
      [
        "i",
        "ci"
      ],
      [
        "is",
        "t"
      ],
      [
        "l",
        "it"
      ],
      [
        "voi",
        "x"
      ],
      [
        "peu",
        "t"
      ],
      [
        "v",
        "it"
      ],
      [
        ".",
        "»"
      ],
      [
        "b",
        "as"
      ],
      [
        "h",
        "é"
      ],
      [
        "b",
        "e"
      ],
      [
        "c",
        "ent"
      ],
      [
        "T",
        "out"
      ],
      [
        "o",
        "e"
      ],
      [
        "il",
        "les"
      ],
      [
        "on",
        "ne"
      ],
      [
        "pie",
        "d"
      ],
      [
        "V",
        "ous"
      ],
      [
        "ap",
        "pe"
      ],
      [
        "qu",
        "oi"
      ],
      [
        "tou",
        "jours"
      ],
      [
        "che",
        "v"
      ],
      [
        "f",
        "ut"
      ],
      [
        "n",
        "om"
      ],
      [
        "tr",
        "ois"
      ],
      [
        "b",
        "eau"
      ],
      [
        "C",
        "os"
      ],
      [
        "n",
        "es"
      ],
      [
        "M",
        "ais"
      ],
      [
        "dev",
        "ant"
      ],
      [
        "Cos",
        "ette"
      ],
      [
        "o",
        "l"
      ],
      [
        "se",
        "mb"
      ],
      [
        "ch",
        "i"
      ],
      [
        "d",
        "onc"
      ],
      [
        "f",
        "ille"
      ],
      [
        "p",
        "ère"
      ],
      [
        "s",
        "our"
      ],
      [
        "v",
        "ou"
      ],
      [
        "ch",
        "ant"
      ],
      [
        "m",
        "et"
      ],
      [
        "d",
        "onn"
      ],
      [
        "i",
        "que"
      ],
      [
        "su",
        "is"
      ],
      [
        "b",
        "our"
      ],
      [
        "f",
        "ou"
      ],
      [
        "o",
        "p"
      ],
      [
        "fais",
        "ait"
      ],
      [
        "A",
        "u"
      ],
      [
        "j",
        "et"
      ],
      [
        "pr",
        "é"
      ],
      [
        "pre",
        "mi"
      ],
      [
        "y",
        "n"
      ],
      [
        "l",
        "ant"
      ],
      [
        "de",
        "m"
      ],
      [
        "pl",
        "aine"
      ],
      [
        "ch",
        "am"
      ],
      [
        "qu",
        "and"
      ],
      [
        "eu",
        "t"
      ],
      [
        "av",
        "aient"
      ],
      [
        ".",
        "--"
      ],
      [
        "e",
        "ment"
      ],
      [
        "cô",
        "té"
      ],
      [
        "s",
        "ais"
      ],
      [
        "an",
        "ge"
      ],
      [
        "en",
        "ne"
      ],
      [
        "è",
        "res"
      ],
      [
        "m",
        "u"
      ],
      [
        "g",
        "ar"
      ],
      [
        "r",
        "en"
      ],
      [
        "n",
        "é"
      ],
      [
        "o",
        "c"
      ],
      [
        "m",
        "ort"
      ],
      [
        "m",
        "it"
      ],
      [
        "r",
        "ai"
      ],
      [
        "el",
        "les"
      ],
      [
        "u",
        "de"
      ],
      [
        "p",
        "au"
      ],
      [
        "p",
        "endant"
      ],
      [
        "ê",
        "tes"
      ],
      [
        "yn",
        "plaine"
      ],
      [
        "G",
        "w"
      ],
      [
        "p",
        "é"
      ],
      [
        "qu",
        "at"
      ],
      [
        "l",
        "ou"
      ],
      [
        "b",
        "ar"
      ],
      [
        "Gw",
        "ynplaine"
      ],
      [
        "i",
        "mp"
      ],
      [
        "fem",
        "me"
      ],
      [
        "j",
        "am"
      ],
      [
        "b",
        "li"
      ],
      [
        "!",
        "»"
      ],
      [
        "U",
        "ne"
      ],
      [
        "è",
        "rent"
      ],
      [
        "h",
        "ommes"
      ],
      [
        "a",
        "près"
      ],
      [
        "p",
        "li"
      ],
      [
        "si",
        "on"
      ],
      [
        "T",
        "h"
      ],
      [
        "p",
        "ec"
      ],
      [
        "p",
        "ouv"
      ],
      [
        "c",
        "in"
      ],
      [
        "Par",
        "is"
      ],
      [
        "â",
        "me"
      ],
      [
        "le",
        "ment"
      ],
      [
        "b",
        "lan"
      ],
      [
        "i",
        "re"
      ],
      [
        "b",
        "out"
      ],
      [
        "ro",
        "it"
      ],
      [
        "ven",
        "ait"
      ],
      [
        "re",
        "t"
      ],
      [
        "ap",
        "it"
      ],
      [
        "mo",
        "ins"
      ],
      [
        "g",
        "es"
      ],
      [
        "n",
        "on"
      ],
      [
        "quat",
        "re"
      ],
      [
        "ur",
        "s"
      ],
      [
        "av",
        "ez"
      ],
      [
        "a",
        "me"
      ],
      [
        "r",
        "est"
      ],
      [
        "s",
        "ort"
      ],
      [
        "v",
        "ait"
      ],
      [
        "o",
        "t"
      ],
      [
        "C",
        "ette"
      ],
      [
        "u",
        "it"
      ],
      [
        "v",
        "u"
      ],
      [
        "S",
        "aint"
      ],
      [
        "g",
        "ent"
      ],
      [
        "M",
        "on"
      ],
      [
        "h",
        "ab"
      ],
      [
        "rép",
        "on"
      ],
      [
        "g",
        "i"
      ],
      [
        "s",
        "or"
      ],
      [
        "f",
        "ort"
      ],
      [
        "m",
        "ont"
      ],
      [
        "è",
        "me"
      ],
      [
        "p",
        "it"
      ],
      [
        "r",
        "as"
      ],
      [
        "Il",
        "s"
      ],
      [
        "ra",
        "y"
      ],
      [
        "d",
        "ent"
      ],
      [
        "a",
        "ff"
      ],
      [
        "t",
        "oi"
      ],
      [
        "ç",
        "a"
      ],
      [
        "an",
        "c"
      ],
      [
        "f",
        "au"
      ],
      [
        "au",
        "tres"
      ],
      [
        "ro",
        "y"
      ],
      [
        "lon",
        "g"
      ],
      [
        "par",
        "ti"
      ],
      [
[...]
