{
  "version": "1.0",
  "truncation": null,
  "padding": null,
  "added_tokens": [
    {
      "id": 0,
      "content": "[UNK]",
      "single_word": false,
      "lstrip": false,
      "rstrip": false,
      "normalized": false,
      "special": true
    },
    {
      "id": 1,
      "content": "[PAD]",
      "single_word": false,
      "lstrip": false,
      "rstrip": false,
      "normalized": false,
      "special": true
    },
    {
      "id": 2,
      "content": "[BOS]",
      "single_word": false,
      "lstrip": false,
      "rstrip": false,
      "normalized": false,
      "special": true
    },
    {
      "id": 3,
      "content": "[EOS]",
      "single_word": false,
      "lstrip": false,
      "rstrip": false,
      "normalized": false,
      "special": true
    }
  ],
  "normalizer": null,
  "pre_tokenizer": {
    "type": "Whitespace"
  },
  "post_processor": null,
  "decoder": {
    "type": "BPEDecoder",
    "suffix": "##"
  },
  "model": {
    "type": "BPE",
    "dropout": null,
    "unk_token": "[UNK]",
    "continuing_subword_prefix": "##",
    "end_of_word_suffix": null,
    "fuse_unk": false,
    "byte_fallback": false,
    "ignore_merges": false,
    "vocab": {
      "[UNK]": 0,
      "[PAD]": 1,
      "[BOS]": 2,
      "[EOS]": 3,
      "!": 4,
      "\"": 5,
      "'": 6,
      "(": 7,
      ")": 8,
      "*": 9,
      "+": 10,
      ",": 11,
      "-": 12,
      ".": 13,
      "/": 14,
      "0": 15,
      "1": 16,
      "2": 17,
      "3": 18,
      "4": 19,
      "5": 20,
      "6": 21,
      "7": 22,
      "8": 23,
      "9": 24,
      ":": 25,
      ";": 26,
      "?": 27,
      "A": 28,
      "B": 29,
      "C": 30,
      "D": 31,
      "E": 32,
      "F": 33,
      "G": 34,
      "H": 35,
      "I": 36,
      "J": 37,
      "K": 38,
      "L": 39,
      "M": 40,
      "N": 41,
      "O": 42,
      "P": 43,
      "Q": 44,
      "R": 45,
      "S": 46,
      "T": 47,
      "U": 48,
      "V": 49,
      "W": 50,
      "X": 51,
      "Y": 52,
      "Z": 53,
      "[": 54,
      "]": 55,
      "_": 56,
      "a": 57,
      "b": 58,
      "c": 59,
      "d": 60,
      "e": 61,
      "f": 62,
      "g": 63,
      "h": 64,
      "i": 65,
      "j": 66,
      "k": 67,
      "l": 68,
      "m": 69,
      "n": 70,
      "o": 71,
      "p": 72,
      "q": 73,
      "r": 74,
      "s": 75,
      "t": 76,
      "u": 77,
      "v": 78,
      "w": 79,
      "x": 80,
      "y": 81,
      "z": 82,
      "«": 83,
      "°": 84,
      "·": 85,
      "º": 86,
      "»": 87,
      "À": 88,
      "Â": 89,
      "Æ": 90,
      "Ç": 91,
      "È": 92,
      "É": 93,
      "Ê": 94,
      "Ë": 95,
      "Î": 96,
      "Ï": 97,
      "Ô": 98,
      "Ù": 99,
      "à": 100,
      "á": 101,
      "â": 102,
      "æ": 103,
      "ç": 104,
      "è": 105,
      "é": 106,
      "ê": 107,
      "ë": 108,
      "í": 109,
      "î": 110,
      "ï": 111,
      "ñ": 112,
      "ô": 113,
      "ö": 114,
      "ù": 115,
      "û": 116,
      "ü": 117,
      "Œ": 118,
      "œ": 119,
      "’": 120,
      "##r": 121,
      "##é": 122,
      "##g": 123,
      "##a": 124,
      "##t": 125,
      "##e": 126,
      "##s": 127,
      "##l": 128,
      "##c": 129,
      "##u": 130,
      "##z": 131,
      "##o": 132,
      "##n": 133,
      "##x": 134,
      "##i": 135,
      "##m": 136,
      "##è": 137,
      "##v": 138,
      "##p": 139,
      "##b": 140,
      "##d": 141,
      "##h": 142,
      "##y": 143,
      "##_": 144,
      "##I": 145,
      "##B": 146,
      "##É": 147,
      "##R": 148,
      "##E": 149,
      "##j": 150,
      "##q": 151,
      "##f": 152,
      "##A": 153,
      "##N": 154,
      "##K": 155,
      "##Ê": 156,
      "##â": 157,
      "##ô": 158,
      "##ë": 159,
      "##G": 160,
      "##w": 161,
      "##L": 162,
      "##M": 163,
      "##8": 164,
      "##2": 165,
      "##3": 166,
      "##O": 167,
      "##ç": 168,
      "##î": 169,
      "##ï": 170,
      "##9": 171,
      "##æ": 172,
      "##6": 173,
      "##k": 174,
      "##S": 175,
      "##V": 176,
      "##T": 177,
      "##4": 178,
      "##U": 179,
      "##D": 180,
      "##ê": 181,
      "##0": 182,
      "##7": 183,
      "##1": 184,
      "##5": 185,
      "##P": 186,
      "##C": 187,
      "##H": 188,
      "##ü": 189,
      "##-": 190,
      "##.": 191,
      "##Q": 192,
      "##œ": 193,
      "##û": 194,
      "##X": 195,
      "##,": 196,
      "##F": 197,
      "##Z": 198,
      "##È": 199,
      "##J": 200,
      "##»": 201,
      "##à": 202,
      "##\"": 203,
      "##[": 204,
      "##?": 205,
      "##!": 206,
      "##Ç": 207,
      "##ù": 208,
      "##Â": 209,
      "##)": 210,
      "##Y": 211,
      "##;": 212,
      "##ñ": 213,
      "##:": 214,
      "##Ù": 215,
      "##W": 216,
      "##(": 217,
      "##«": 218,
      "##À": 219,
      "##ö": 220,
      "##*": 221,
      "##Ï": 222,
      "##]": 223,
      "##Æ": 224,
      "##á": 225,
      "##Ë": 226,
      "##º": 227,
      "##Î": 228,
      "##Ô": 229,
      "##es": 230,
      "##ai": 231,
      "##nt": 232,
      "##ou": 233,
      "##re": 234,
      "de": 235,
      "##on": 236,
      "##er": 237,
      "##ait": 238,
      "##le": 239,
      "qu": 240,
      "##an": 241,
      "##me": 242,
      "la": 243,
      "##it": 244,
      "##ar": 245,
      "##is": 246,
      "##ne": 247,
      "et": 248,
      "le": 249,
      "##te": 250,
      "##ur": 251,
      "##ie": 252,
      "##ant": 253,
      "##oi": 254,
      "##om": 255,
      "##or": 256,
      "##our": 257,
      "##as": 258,
      "en": 259,
      "##lle": 260,
      "##us": 261,
      "ce": 262,
      "##ue": 263,
      "av": 264,
      "un": 265,
      "il": 266,
      "ét": 267,
      "les": 268,
      "##st": 269,
      "que": 270,
      "##ous": 271,
      "##in": 272,
      "##en": 273,
      "##ch": 274,
      "##ent": 275,
      "##ans": 276,
      "##ais": 277,
      "##ux": 278,
      "se": 279,
      "##ut": 280,
      "##ment": 281,
      "des": 282,
      "est": 283,
      "qui": 284,
      "une": 285,
      "##ro": 286,
      "##at": 287,
      "ch": 288,
      "##ll": 289,
      "##ce": 290,
      "##se": 291,
      "##ui": 292,
      "dans": 293,
      "était": 294,
      "re": 295,
      "##au": 296,
      "##de": 297,
      "pas": 298,
      "du": 299,
      "par": 300,
      "##que": 301,
      "##ri": 302,
      "##out": 303,
      "##al": 304,
      "##tte": 305,
      "##omme": 306,
      "##ion": 307,
      "Il": 308,
      "##ont": 309,
      "pl": 310,
      "--": 311,
      "au": 312,
      "##res": 313,
      "##ée": 314,
      "##ra": 315,
      "avait": 316,
      "ne": 317,
      "##ge": 318,
      "##ère": 319,
      "sa": 320,
      "##tre": 321,
      "##ier": 322,
      "##ien": 323,
      "sur": 324,
      "##aient": 325,
      "##és": 326,
      "son": 327,
      "##qu": 328,
      "##eu": 329,
      "##ons": 330,
      "pour": 331,
      "##mp": 332,
      "##ble": 333,
      "##ve": 334,
      "##ol": 335,
      "##and": 336,
      "##ec": 337,
      "pr": 338,
      "##ff": 339,
      "on": 340,
      "lui": 341,
      "dé": 342,
      "##il": 343,
      "##ir": 344,
      "plus": 345,
      "##che": 346,
      "vous": 347,
      "##os": 348,
      "in": 349,
      "##ort": 350,
      "##ard": 351,
      "elle": 352,
      "tout": 353,
      "comme": 354,
      "##et": 355,
      "##pp": 356,
      "ar": 357,
      "##la": 358,
      "##ig": 359,
      "##oir": 360,
      "##mb": 361,
      "##ille": 362,
      "##uis": 363,
      "cette": 364,
      "##ver": 365,
      "##ois": 366,
      "##onn": 367,
      "##end": 368,
      "Le": 369,
      "si": 370,
      "avec": 371,
      "##ain": 372,
      "je": 373,
      "Je": 374,
      "ent": 375,
      "##ure": 376,
      "tr": 377,
      "dit": 378,
      "##ond": 379,
      "##ire": 380,
      "ré": 381,
      "gr": 382,
      "aut": 383,
      "##aire": 384,
      "##ag": 385,
      "##ès": 386,
      "pro": 387,
      "##ill": 388,
      "La": 389,
      "##pr": 390,
      "##urs": 391,
      "Ce": 392,
      "##si": 393,
      "##té": 394,
      "##ci": 395,
      "éc": 396,
      "##mes": 397,
      "com": 398,
      "##uit": 399,
      "ses": 400,
      "##ul": 401,
      "##oup": 402,
      "##ation": 403,
      "##ot": 404,
      "##ine": 405,
      "##ité": 406,
      "##oy": 407,
      "mê": 408,
      "deux": 409,
      "##ouv": 410,
      "fait": 411,
      "##ic": 412,
      "##ér": 413,
      "mais": 414,
      "##ap": 415,
      "quel": 416,
      "br": 417,
      "ces": 418,
      "ou": 419,
      "où": 420,
      "app": 421,
      "ai": 422,
      "dis": 423,
      "##ac": 424,
      "##bl": 425,
      "##én": 426,
      "ma": 427,
      "vie": 428,
      "es": 429,
      "là": 430,
      "##able": 431,
      "Et": 432,
      "##ose": 433,
      "homme": 434,
      "##tes": 435,
      "ex": 436,
      "tou": 437,
      "##um": 438,
      "nous": 439,
      "##am": 440,
      "te": 441,
      "aux": 442,
      "an": 443,
      "##omb": 444,
      "mon": 445,
      "##ers": 446,
      "##eur": 447,
      "##age": 448,
      "enf": 449,
      "##orte": 450,
      "##lles": 451,
      "moi": 452,
      "##onne": 453,
      "bien": 454,
      "même": 455,
      "##aine": 456,
      "##iv": 457,
      "être": 458,
      "##ées": 459,
      "res": 460,
      "dev": 461,
      "Qu": 462,
      "fa": 463,
      "##use": 464,
      "##ière": 465,
      "##nd": 466,
      "##iss": 467,
      "##id": 468,
      "##ieu": 469,
      "##ré": 470,
      "##ite": 471,
      "##ête": 472,
      "as": 473,
      "##ques": 474,
      "##oire": 475,
      "reg": 476,
      "peu": 477,
      "sans": 478,
      "Les": 479,
      "##--": 480,
      "che": 481,
      "##ante": 482,
      "##pl": 483,
      "##ours": 484,
      "##ord": 485,
      "Elle": 486,
      "##ique": 487,
      "##ing": 488,
      "mar": 489,
      "##ût": 490,
      "##ran": 491,
      "##aint": 492,
      "##ore": 493,
      "cont": 494,
      "##ens": 495,
      "me": 496,
      "On": 497,
      "pe": 498,
      "##ole": 499,
      "ha": 500,
      "su": 501,
      "autre": 502,
      "ca": 503,
      "ép": 504,
      "poi": 505,
      "tu": 506,
      "all": 507,
      "##cc": 508,
      "pet": 509,
      "##oit": 510,
      "##ise": 511,
      "ab": 512,
      "sous": 513,
      "pass": 514,
      "ser": 515,
      "Mar": 516,
      "##aiss": 517,
      "pre": 518,
      "##onc": 519,
      "Ch": 520,
      "##eux": 521,
      "voi": 522,
      "tra": 523,
      "cela": 524,
      "regard": 525,
      "##ti": 526,
      "##ants": 527,
      "##mps": 528,
      "##erre": 529,
      "enc": 530,
      "be": 531,
      "cha": 532,
      "grand": 533,
      "##les": 534,
      "ra": 535,
      "##ors": 536,
      "mo": 537,
      "##vre": 538,
      "di": 539,
      "am": 540,
      "##ta": 541,
      "cl": 542,
      "fais": 543,
      "##lait": 544,
      "eff": 545,
      "##aux": 546,
      "rép": 547,
      "dou": 548,
      "tro": 549,
      "##otre": 550,
      "con": 551,
      "for": 552,
      "ven": 553,
      "##tion": 554,
      "co": 555,
      "étaient": 556,
      "##mbre": 557,
      "coup": 558,
      "sou": 559,
      "##ang": 560,
      "##ance": 561,
      "fe": 562,
      "tous": 563,
      "En": 564,
      "main": 565,
      "sont": 566,
      "int": 567,
      "entre": 568,
      "##ert": 569,
      "quelque": 570,
      "##ieux": 571,
      "##cher": 572,
      "cr": 573,
      "##mme": 574,
      "##ius": 575,
      "puis": 576,
      "##av": 577,
      "bou": 578,
      "point": 579,
      "mal": 580,
      "##un": 581,
      "encore": 582,
      "dire": 583,
      "De": 584,
      "Par": 585,
      "ég": 586,
      "##ieur": 587,
      "##prit": 588,
      "jus": 589,
      "per": 590,
      "##ph": 591,
      "##eure": 592,
      "Un": 593,
      "Marius": 594,
      "comp": 595,
      "##ist": 596,
      "ils": 597,
      "fr": 598,
      "leur": 599,
      "car": 600,
      "porte": 601,
      "##ale": 602,
      "tête": 603,
      "##ass": 604,
      "Jean": 605,
      "été": 606,
      "faire": 607,
      "##ches": 608,
      "jour": 609,
      "##iè": 610,
      "##ande": 611,
      "##rait": 612,
      "##gn": 613,
      "moment": 614,
      "Que": 615,
      "##anc": 616,
      "##ét": 617,
      "temps": 618,
      "tour": 619,
      "or": 620,
      "##ule": 621,
      "##int": 622,
      "pré": 623,
      "##oin": 624,
      "eût": 625,
      "##vers": 626,
      "rien": 627,
      "cour": 628,
      "##ade": 629,
      "rue": 630,
      "bas": 631,
      "##nce": 632,
      "##oc": 633,
      "##ez": 634,
      "dem": 635,
      "chose": 636,
      "cou": 637,
      "##iers": 638,
      "dont": 639,
      "##im": 640,
      "ob": 641,
      "toute": 642,
      "cri": 643,
      "enfant": 644,
      "petit": 645,
      "##ommes": 646,
      "bon": 647,
      "év": 648,
      "##igne": 649,
      "bar": 650,
      "##près": 651,
      "sort": 652,
      "##ître": 653,
      "toutes": 654,
      "nuit": 655,
      "acc": 656,
      "fer": 657,
      "imp": 658,
      "Val": 659,
      "rec": 660,
      "yeux": 661,
      "##ad": 662,
      "sent": 663,
      "##je": 664,
      "##ter": 665,
      "Dieu": 666,
      "entend": 667,
      "##jean": 668,
      "##ide": 669,
      "bl": 670,
      "Valjean": 671,
      "voy": 672,
      "tomb": 673,
      "##be": 674,
      "##if": 675,
      "##ts": 676,
      "##sus": 677,
      "##nes": 678,
      "##aill": 679,
      "Gr": 680,
      "appe": 681,
      "##ouve": 682,
      "emp": 683,
      "##ied": 684,
      "vis": 685,
      "##ler": 686,
      "##jours": 687,
      "voix": 688,
      "jeu": 689,
      "##ib": 690,
      "peut": 691,
      "##éd": 692,
      "##ace": 693,
      "##vait": 694,
      "##endant": 695,
      "ad": 696,
      "##onsieur": 697,
      "cô": 698,
      "roi": 699,
      "cet": 700,
      "Tout": 701,
      "fit": 702,
      "fut": 703,
      "char": 704,
      "toujours": 705,
      "ple": 706,
      "##ues": 707,
      "Vous": 708,
      "##ay": 709,
      "##ong": 710,
      "trois": 711,
      "dés": 712,
      "cro": 713,
      "##osette": 714,
      "pied": 715,
      "vers": 716,
      "Cosette": 717,
      "##ress": 718,
      "devant": 719,
      "##ions": 720,
      "heure": 721,
      "donc": 722,
      "##cha": 723,
      "Mais": 724,
      "fille": 725,
      "##lo": 726,
      "atte": 727,
      "##par": 728,
      "mont": 729,
      "part": 730,
      "rou": 731,
      "##ient": 732,
      "port": 733,
      "fois": 734,
      "suis": 735,
      "arri": 736,
      "ni": 737,
      "##ces": 738,
      "der": 739,
      "voir": 740,
      "##rai": 741,
      "##ienne": 742,
      "Saint": 743,
      "répond": 744,
      "##yn": 745,
      ".»": 746,
      "sour": 747,
      "prem": 748,
      "nom": 749,
      "prof": 750,
      "##orm": 751,
      "##are": 752,
      "faisait": 753,
      "##tres": 754,
      "##ns": 755,
      "##pt": 756,
      "##ments": 757,
      "quat": 758,
      "quand": 759,
      "Th": 760,
      "vou": 761,
      "##lé": 762,
      "cons": 763,
      "pens": 764,
      "avoir": 765,
      "##va": 766,
      "##bles": 767,
      "avaient": 768,
      "##ign": 769,
      "##ussi": 770,
      "cor": 771,
      "##arde": 772,
      "##ros": 773,
      "Au": 774,
      "donn": 775,
      "fou": 776,
      "po": 777,
      "ass": 778,
      "mort": 779,
      "##air": 780,
      "##ynpl": 781,
      "mé": 782,
      "rem": 783,
      "##ynplaine": 784,
      "##per": 785,
      "##ié": 786,
      "écl": 787,
      "Gw": 788,
      "mur": 789,
      "ret": 790,
      "##aille": 791,
      "Gwynplaine": 792,
      "femme": 793,
      "##illes": 794,
      "Une": 795,
      "man": 796,
      "après": 797,
      "ont": 798,
      "##èrent": 799,
      "long": 800,
      "##pec": 801,
      "##ice": 802,
      "!»": 803,
      "père": 804,
      "##insi": 805,
      "##ies": 806,
      "##ame": 807,
      "##là": 808,
      "Paris": 809,
      "aur": 810,
      "pau": 811,
      "sec": 812,
      "esp": 813,
      "##min": 814,
      "terre": 815,
      "##od": 816,
      ".--": 817,
      "pos": 818,
      "##teur": 819,
      "ombre": 820,
      "hommes": 821,
      "sais": 822,
      "##up": 823,
      "##sez": 824,
      "##vert": 825,
      "##ras": 826,
      "mot": 827,
      "quatre": 828,
      "##onde": 829,
      "pers": 830,
      "##gle": 831,
      "##apit": 832,
      "##mer": 833,
      "pouv": 834,
      "##tait": 835,
      "Cette": 836,
      "##itu": 837,
      "côté": 838,
      "âme": 839,
      "obs": 840,
      "près": 841,
      "laiss": 842,
      "mes": 843,
      "##ndre": 844,
      "##rière": 845,
      "##ple": 846,
      "pu": 847,
      "dro": 848,
      "##lors": 849,
      "arch": 850,
      "Ils": 851,
      "mis": 852,
      "fond": 853,
      "air": 854,
      "autres": 855,
      "moins": 856,
      "##une": 857,
      "beau": 858,
      "so": 859,
      "ren": 860,
      "##og": 861,
      "##iens": 862,
      "aff": 863,
      "haut": 864,
      "##isse": 865,
      "##iel": 866,
      "hum": 867,
      "at": 868,
      "jusqu": 869,
      "##iste": 870,
      "##agn": 871,
      "quelques": 872,
      "##bre": 873,
      "inst": 874,
      "va": 875,
      "semb": 876,
      "id": 877,
      "##rit": 878,
      "##vent": 879,
      "##..": 880,
      "hab": 881,
      "##dre": 882,
      "##ures": 883,
      "fort": 884,
      "aussi": 885,
      "##être": 886,
      "vit": 887,
      "##tant": 888,
      "leurs": 889,
      "##qui": 890,
      "très": 891,
      "##puis": 892,
      "faut": 893,
      "grande": 894,
      "##omp": 895,
      "monsieur": 896,
      "ver": 897,
      "##tin": 898,
      "cent": 899,
      "vol": 900,
      "ins": 901,
      "##ges": 902,
      "inc": 903,
      "ind": 904,
      "##ume": 905,
      "bour": 906,
      "Pour": 907,
      "##nte": 908,
      "pris": 909,
      "##amais": 910,
      "mère": 911,
      "ve": 912,
      "##ven": 913,
      "pres": 914,
      "gros": 915,
      "inf": 916,
      "reprit": 917,
      "##ât": 918,
      "sol": 919,
      "##aud": 920,
      "ans": 921,
      "##ab": 922,
      "ainsi": 923,
      "##ombre": 924,
      "petite": 925,
      "##leur": 926,
      "prés": 927,
      "jeune": 928,
      "répondit": 929,
      "##ché": 930,
      "##erie": 931,
      "bras": 932,
      "##ence": 933,
      "souff": 934,
      "##éra": 935,
      "##ingoire": 936,
      "Gringoire": 937,
      "Dans": 938,
      "toi": 939,
      "##aise": 940,
      "##ierre": 941,
      "jet": 942,
      "##ins": 943,
      "Nous": 944,
      "##ôt": 945,
      "##ît": 946,
      "liv": 947,
      "reste": 948,
      "##oie": 949,
      "ten": 950,
      "disait": 951,
      "##yant": 952,
      "##auche": 953,
      "déc": 954,
      "Quand": 955,
      "travers": 956,
      "##gent": 957,
      "##ature": 958,
      "##rê": 959,
      "##mble": 960,
      "jamais": 961,
      "vieux": 962,
      "Si": 963,
      "##hé": 964,
      "noir": 965,
      "##bres": 966,
      "##ront": 967,
      "##ouss": 968,
      "st": 969,
      "fl": 970,
      "##ze": 971,
      "##nait": 972,
      "avez": 973,
      "mat": 974,
      "votre": 975,
      "hor": 976,
      "##vé": 977,
      "##aut": 978,
      "##iqu": 979,
      "venait": 980,
      "esprit": 981,
      "viv": 982,
      "##asse": 983,
      "##ég": 984,
      "ri": 985,
      "sc": 986,
      "##pre": 987,
      "presque": 988,
      "écri": 989,
      "Ph": 990,
      "##ations": 991,
      "##rac": 992,
      "contre": 993,
      "pieds": 994,
      "monde": 995,
      "lum": 996,
      "##fois": 997,
      "##ourd": 998,
      "##énard": 999,
      "Thénard": 1000,
      "im": 1001,
      "tre": 1002,
      "Thénardier": 1003,
      "fran": 1004,
      "inter": 1005,
      "vent": 1006,
      "##oses": 1007,
      "ciel": 1008,
      "ta": 1009,
      "mains": 1010,
      "##ppe": 1011,
      "##issait": 1012,
      "non": 1013,
      "oe": 1014,
      "ter": 1015,
      "fin": 1016,
      "mit": 1017,
      "ph": 1018,
      "tant": 1019,
      "##ud": 1020,
      "##ages": 1021,
      "pauvre": 1022,
      "oeil": 1023,
      "##ile": 1024,
      "##oute": 1025,
      "place": 1026,
      "ouv": 1027,
      "##chait": 1028,
      "##ieuse": 1029,
      "rés": 1030,
      "quoi": 1031,
      "##aute": 1032,
      "##pendant": 1033,
      "trouv": 1034,
      "sile": 1035,
      "sorte": 1036,
      "##idi": 1037,
      "trou": 1038,
      "vu": 1039,
      "dessus": 1040,
      "off": 1041,
      "ag": 1042,
      "##uss": 1043,
      "cert": 1044,
      "##mé": 1045,
      "ac": 1046,
      "lar": 1047,
      "##él": 1048,
      "##chant": 1049,
      "voyait": 1050,
      "##ères": 1051,
      "depuis": 1052,
      "esc": 1053,
      "assez": 1054,
      "##lant": 1055,
      "col": 1056,
      "##ner": 1057,
      "##na": 1058,
      "##pe": 1059,
      "##auv": 1060,
      "chambre": 1061,
      "Ur": 1062,
      "rê": 1063,
      "déf": 1064,
      "elles": 1065,
      "lord": 1066,
      "maître": 1067,
      "pen": 1068,
      "##ob": 1069,
      "##quel": 1070,
      "arrê": 1071,
      "obsc": 1072,
      "##ric": 1073,
      "bonne": 1074,
      "cin": 1075,
      "sé": 1076,
      "##sible": 1077,
      "##ingt": 1078,
      "effet": 1079,
      "vrai": 1080,
      "An": 1081,
      "eut": 1082,
      "##phe": 1083,
      "bat": 1084,
      "conf": 1085,
      "eau": 1086,
      "fig": 1087,
      "demand": 1088,
      "eu": 1089,
      "gen": 1090,
      "mer": 1091,
      "autour": 1092,
      "vi": 1093,
      "##ail": 1094,
      "Cl": 1095,
      "ici": 1096,
      "##ième": 1097,
      "bout": 1098,
      "##acre": 1099,
      "êtes": 1100,
      "##pos": 1101,
      "comm": 1102,
      "##ape": 1103,
      "red": 1104,
      "Oh": 1105,
      "##ate": 1106,
      "maison": 1107,
      "trop": 1108,
      "nu": 1109,
      "bruit": 1110,
      "aper": 1111,
      "clo": 1112,
      "pay": 1113,
      "##rée": 1114,
      "seul": 1115,
      "perd": 1116,
      "##inu": 1117,
      "##ardin": 1118,
      "fi": 1119,
      "amour": 1120,
      "Ursus": 1121,
      "derrière": 1122,
      "évê": 1123,
      "cher": 1124,
      "##êt": 1125,
      "cré": 1126,
      "déj": 1127,
      "Quel": 1128,
      "lumière": 1129,
      "##cle": 1130,
      "##ils": 1131,
      "##issement": 1132,
      "heur": 1133,
      "chez": 1134,
      "coeur": 1135,
      "soir": 1136,
      "##odo": 1137,
      "mil": 1138,
      "souv": 1139,
      "##né": 1140,
      "Puis": 1141,
      "pouvait": 1142,
      "Qui": 1143,
      "sole": 1144,
      "##voir": 1145,
      "allait": 1146,
      "ref": 1147,
      "##lement": 1148,
      "##asim": 1149,
      "peuple": 1150,
      "peine": 1151,
      "chev": 1152,
      "##asimodo": 1153,
      "Quasimodo": 1154,
      "##uses": 1155,
      "##çon": 1156,
      "semblait": 1157,
      "Tu": 1158,
      "##cs": 1159,
      "##ug": 1160,
      "avant": 1161,
      "fla": 1162,
      "##uite": 1163,
      "met": 1164,
      "voit": 1165,
      "mille": 1166,
      "Ma": 1167,
      "aj": 1168,
      "seule": 1169,
      "Cela": 1170,
      "18": 1171,
      "lit": 1172,
      "Ja": 1173,
      "notre": 1174,
      "pierre": 1175,
      "env": 1176,
      "##bus": 1177,
      "##enant": 1178,
      "##agne": 1179,
      "rire": 1180,
      "##yst": 1181,
      "##anche": 1182,
      "##ément": 1183,
      "##uc": 1184,
      "##mi": 1185,
      "##vres": 1186,
      "feu": 1187,
      "##oss": 1188,
      "premier": 1189,
      "sui": 1190,
      "Ah": 1191,
      "avons": 1192,
      "##ience": 1193,
      "droit": 1194,
      "fra": 1195,
      "##quoi": 1196,
      "##oe": 1197,
      "##endre": 1198,
      "dern": 1199,
      "personne": 1200,
      "Javert": 1201,
      "##roche": 1202,
      "égl": 1203,
      "déjà": 1204,
      "Mont": 1205,
      "front": 1206,
      "choses": 1207,
      "ray": 1208,
      "Ces": 1209,
      "##née": 1210,
      "##art": 1211,
      "foule": 1212,
      "##pect": 1213,
      "sombre": 1214,
      "conn": 1215,
      "##uil": 1216,
      "gra": 1217,
      "##nts": 1218,
      "siè": 1219,
      "eux": 1220,
      "pat": 1221,
      "Cependant": 1222,
      "gri": 1223,
      "Comme": 1224,
      "bo": 1225,
      "dist": 1226,
      "rel": 1227,
      "##ouis": 1228,
      "##aude": 1229,
      "reconn": 1230,
      "Voi": 1231,
      "##itude": 1232,
      "froi": 1233,
      "pensée": 1234,
      "silence": 1235,
      "évêque": 1236,
      "pol": 1237,
      "##ange": 1238,
      "étran": 1239,
      "attend": 1240,
      "fen": 1241,
      "prêtre": 1242,
      "##oebus": 1243,
      "vag": 1244,
      "##vant": 1245,
      "##ves": 1246,
      "##ution": 1247,
      "##rance": 1248,
      "matin": 1249,
      "myst": 1250,
      "##tel": 1251,
      "##aintenant": 1252,
      "nouve": 1253,
      "##mmes": 1254,
      "##rez": 1255,
      "prit": 1256,
      "enfants": 1257,
      "face": 1258,
      "##ps": 1259,
      "ext": 1260,
      "archidi": 1261,
      "hui": 1262,
      "lib": 1263,
      "tén": 1264,
      "##ète": 1265,
      "habit": 1266,
      "heures": 1267,
      "archidiacre": 1268,
      "Du": 1269,
      "appelle": 1270,
      "ville": 1271,
      "##mple": 1272,
      "nos": 1273,
      "##nant": 1274,
      "vieille": 1275,
      "voilà": 1276,
      "##igneur": 1277,
      "Phoebus": 1278,
      "##rer": 1279,
      "six": 1280,
      "sang": 1281,
      "##ition": 1282,
      "deven": 1283,
      "milieu": 1284,
      "lieu": 1285,
      "##iez": 1286,
      "soit": 1287,
      "commen": 1288,
      "gu": 1289,
      "sait": 1290,
      "##aires": 1291,
      "chemin": 1292,
      "visage": 1293,
      "gén": 1294,
      "Oui": 1295,
      "ayant": 1296,
      "##iz": 1297,
      "##erne": 1298,
      "jou": 1299,
      "ton": 1300,
      "vingt": 1301,
      "table": 1302,
      "##ente": 1303,
      "bois": 1304,
      "ang": 1305,
      "mieux": 1306,
      "pav": 1307,
      "vois": 1308,
      "##aisse": 1309,
      "##apitre": 1310,
      "cinq": 1311,
      "alors": 1312,
      "songe": 1313,
      "église": 1314,
      "fût": 1315,
      "##ttes": 1316,
      "##reux": 1317,
      "dép": 1318,
      "profond": 1319,
      "ajout": 1320,
      "##rou": 1321,
      "##rible": 1322,
      "diff": 1323,
      "##des": 1324,
      "force": 1325,
      "##ct": 1326,
      "##jourd": 1327,
      "##çait": 1328,
      "trav": 1329,
      "Louis": 1330,
      "##han": 1331,
      "soleil": 1332,
      "cond": 1333,
      "##aît": 1334,
      "douce": 1335,
      "malh": 1336,
      "jours": 1337,
      "##alité": 1338,
      "cheve": 1339,
      "voul": 1340,
      "Alors": 1341,
      "##iques": 1342,
      "chant": 1343,
      "femmes": 1344,
      "nature": 1345,
      "##cip": 1346,
      "##ell": 1347,
      "##mée": 1348,
      "cria": 1349,
      "joie": 1350,
      "loin": 1351,
      "...": 1352,
      "##ger": 1353,
      "##oux": 1354,
      "rev": 1355,
      "belle": 1356,
      "##ses": 1357,
      "##ats": 1358,
      "dix": 1359,
      "##nez": 1360,
      "vas": 1361,
      "##ince": 1362,
      "capit": 1363,
      "##ines": 1364,
      "?»": 1365,
      "font": 1366,
      "##uy": 1367,
      "##ane": 1368,
      "##veill": 1369,
      "##ible": 1370,
      "##vol": 1371,
      "##II": 1372,
      "##èbres": 1373,
      "let": 1374,
      "abs": 1375,
      "Est": 1376,
      "##reur": 1377,
      "ceux": 1378,
      "bal": 1379,
      "appar": 1380,
      "Chapitre": 1381,
      "four": 1382,
      "Sa": 1383,
      "sal": 1384,
      "én": 1385,
      "gens": 1386,
      "imm": 1387,
      "##ime": 1388,
      "cer": 1389,
      "##oul": 1390,
      "##ités": 1391,
      "chaque": 1392,
      "##llement": 1393,
      "sac": 1394,
      "tombe": 1395,
      ":--": 1396,
      "##iles": 1397,
      "grands": 1398,
      "##issant": 1399,
      "continu": 1400,
      "##aissait": 1401,
      "##cont": 1402,
      "##orme": 1403,
      "##vez": 1404,
      "art": 1405,
      "aller": 1406,
      "Jac": 1407,
      "Se": 1408,
      "gl": 1409,
      "pri": 1410,
      "vos": 1411,
      "ju": 1412,
      "serv": 1413,
      "Notre": 1414,
      "##ève": 1415,
      "##ys": 1416,
      "certain": 1417,
      "dess": 1418,
      "Des": 1419,
      "ess": 1420,
      "##tions": 1421,
      "fix": 1422,
      "##aque": 1423,
      "##ath": 1424,
      "##ect": 1425,
      "##êtes": 1426,
      "égy": 1427,
      "soup": 1428,
      "##ières": 1429,
      "figure": 1430,
      "éte": 1431,
      "##rie": 1432,
      "auc": 1433,
      "première": 1434,
      "égypt": 1435,
      "##oix": 1436,
      "Char": 1437,
      "bes": 1438,
      "##éc": 1439,
      "aujourd": 1440,
      "exp": 1441,
      "barric": 1442,
      "crois": 1443,
      "Jehan": 1444,
      "##dro": 1445,
      "##oise": 1446,
      "bonh": 1447,
      "##lez": 1448,
      "obscur": 1449,
      "imme": 1450,
      "##coup": 1451,
      "##ça": 1452,
      "parler": 1453,
      "regarda": 1454,
      "France": 1455,
      "##erm": 1456,
      "##leine": 1457,
      "##oles": 1458,
      "!--": 1459,
      "ir": 1460,
      "rent": 1461,
      "dispar": 1462,
      "monst": 1463,
      "coin": 1464,
      "dra": 1465,
      "emb": 1466,
      "gal": 1467,
      "##ute": 1468,
      "déb": 1469,
      "serait": 1470,
      "»,": 1471,
      "Dea": 1472,
      "demi": 1473,
      "espè": 1474,
      "couv": 1475,
      "ro": 1476,
      "tri": 1477,
      "chape": 1478,
      "Claude": 1479,
      "cas": 1480,
      "cal": 1481,
      "##fait": 1482,
      "ques": 1483,
      "os": 1484,
      "occ": 1485,
      "doute": 1486,
      "idée": 1487,
      "sentait": 1488,
      "présent": 1489,
      "hist": 1490,
      "mor": 1491,
      "##ouff": 1492,
      "gue": 1493,
      "pal": 1494,
      "##irent": 1495,
      "##leurs": 1496,
      "desc": 1497,
      "argent": 1498,
      "aime": 1499,
      "gre": 1500,
      "rais": 1501,
      "##cé": 1502,
      "appro": 1503,
      "vient": 1504,
      "blanc": 1505,
      "Dame": 1506,
      "ore": 1507,
      "saint": 1508,
      "##lui": 1509,
      "salle": 1510,
      "sub": 1511,
      "plein": 1512,
      "##érable": 1513,
      "Made": 1514,
      "Monsieur": 1515,
      "mas": 1516,
      "##rant": 1517,
      "intér": 1518,
      "préc": 1519,
      "corps": 1520,
      "instant": 1521,
      "loi": 1522,
      "Mon": 1523,
      "Sur": 1524,
      "##gne": 1525,
      "écria": 1526,
      "siècle": 1527,
      "##terre": 1528,
      "##laient": 1529,
      "##ret": 1530,
      "resse": 1531,
      "éd": 1532,
      "pourtant": 1533,
      "francs": 1534,
      "écha": 1535,
      "##lus": 1536,
      "##nde": 1537,
      "##let": 1538,
      "##vement": 1539,
      "profonde": 1540,
      "##esse": 1541,
      "Où": 1542,
      "##âce": 1543,
      "##ieurs": 1544,
      "##illard": 1545,
      "mad": 1546,
      "##gleterre": 1547,
      "Angleterre": 1548,
      "vert": 1549,
      "passé": 1550,
      "passer": 1551,
      "att": 1552,
      "##da": 1553,
      "fat": 1554,
      "##ru": 1555,
      "##ira": 1556,
      "##pér": 1557,
      "##illeurs": 1558,
      "Voilà": 1559,
      "mois": 1560,
      "##ales": 1561,
      "Eh": 1562,
      "Gav": 1563,
      "pâ": 1564,
      "##éri": 1565,
      "supp": 1566,
      "Es": 1567,
      "dom": 1568,
      "##rés": 1569,
      "anc": 1570,
      "Gavroche": 1571,
      "sau": 1572,
      "##vit": 1573,
      "révol": 1574,
      "Son": 1575,
      "##aître": 1576,
      "veut": 1577,
      "Non": 1578,
      "oise": 1579,
      "ça": 1580,
      "##enir": 1581,
      "pén": 1582,
      "##amb": 1583,
      "dét": 1584,
      "##anger": 1585,
      "mou": 1586,
      "rend": 1587,
      "##rent": 1588,
      "trans": 1589,
      "compre": 1590,
      "retour": 1591,
      "gard": 1592,
      "prod": 1593,
      "##oupe": 1594,
      "droite": 1595,
      "capitaine": 1596,
      "él": 1597,
      "ténèbres": 1598,
      "##bout": 1599,
      "##rette": 1600,
      "dél": 1601,
      "somme": 1602,
      "##ène": 1603,
      "##levent": 1604,
      "beaucoup": 1605,
      "soci": 1606,
      "veux": 1607,
      "##antes": 1608,
      "garde": 1609,
      "jardin": 1610,
      "pendant": 1611,
      "ru": 1612,
      "##lon": 1613,
      "compl": 1614,
      "tenait": 1615,
      "aperç": 1616,
      "##lée": 1617,
      "##ablement": 1618,
      "regardait": 1619,
      "Ne": 1620,
      "maintenant": 1621,
      "dém": 1622,
      "cab": 1623,
      "forme": 1624,
      "petits": 1625,
      "Fauche": 1626,
      "al": 1627,
      "étoi": 1628,
      "##cep": 1629,
      "comb": 1630,
      "mauv": 1631,
      "ense": 1632,
      "##usque": 1633,
      "jeunes": 1634,
      "attent": 1635,
      "Fauchelevent": 1636,
      "gar": 1637,
      "lég": 1638,
      "éle": 1639,
      "##fin": 1640,
      "##âte": 1641,
      "##quelle": 1642,
      "##irait": 1643,
      "cheveux": 1644,
      "Jacques": 1645,
      "pouss": 1646,
      "debout": 1647,
      "##ura": 1648,
      "oubl": 1649,
      "gauche": 1650,
      "rep": 1651,
      "rencont": 1652,
      "cheval": 1653,
      "##ueur": 1654,
      "basse": 1655,
      "##auté": 1656,
      "##oque": 1657,
      "mari": 1658,
      "atta": 1659,
      "pays": 1660,
      "froid": 1661,
      "roy": 1662,
      "sin": 1663,
      "espèce": 1664,
      "##ots": 1665,
      "fall": 1666,
      "abord": 1667,
      "##ém": 1668,
      "reven": 1669,
      "savait": 1670,
      "phil": 1671,
      "##ote": 1672,
      "##ia": 1673,
      "##ousse": 1674,
      "prendre": 1675,
      "bouche": 1676,
      "barricade": 1677,
      "Madeleine": 1678,
      "fai": 1679,
      "##arqu": 1680,
      "croy": 1681,
      "bri": 1682,
      "mour": 1683,
      "mouve": 1684,
      "parole": 1685,
      "##irer": 1686,
      "Ar": 1687,
      "né": 1688,
      "pont": 1689,
      "##mpl": 1690,
      "frère": 1691,
      "rouge": 1692,
      "ém": 1693,
      "laquelle": 1694,
      "toit": 1695,
      "épau": 1696,
      "bourge": 1697,
      "vague": 1698,
      "##hors": 1699,
      "##erv": 1700,
      "façon": 1701,
      "##ement": 1702,
      "##aign": 1703,
      "publ": 1704,
      "ign": 1705,
      "écout": 1706,
      "Pas": 1707,
      "fam": 1708,
      "min": 1709,
      "##uer": 1710,
      "quelqu": 1711,
      "##usement": 1712,
      "##ige": 1713,
      "humain": 1714,
      "égyptienne": 1715,
      "ailleurs": 1716,
      "huit": 1717,
      "##vis": 1718,
      "##pul": 1719,
      "##oso": 1720,
      "brusque": 1721,
      "diable": 1722,
      "ord": 1723,
      "sommes": 1724,
      "##con": 1725,
      "##jet": 1726,
      "dehors": 1727,
      "##rém": 1728,
      "##tice": 1729,
      "##ormand": 1730,
      "Cour": 1731,
      "piè": 1732,
      "celle": 1733,
      "##uille": 1734,
      "##oyen": 1735,
      "##élas": 1736,
      "cur": 1737,
      "pap": 1738,
      "##nse": 1739,
      "##mait": 1740,
      "tran": 1741,
      "éclat": 1742,
      "éclair": 1743,
      "pare": 1744,
      "##pin": 1745,
      "celui": 1746,
      "const": 1747,
      "étrange": 1748,
      "faute": 1749,
      "##iter": 1750,
      "déch": 1751,
      "aurait": 1752,
      "escal": 1753,
      "philoso": 1754,
      "##rat": 1755,
      "parce": 1756,
      "##pris": 1757,
      "demanda": 1758,
      "passe": 1759,
      "jol": 1760,
      "pend": 1761,
      "éche": 1762,
      "étant": 1763,
      "##icul": 1764,
      "effra": 1765,
      "##ast": 1766,
      "archit": 1767,
      "livres": 1768,
      "frapp": 1769,
      "sens": 1770,
      "##iant": 1771,
      "##fe": 1772,
      "destin": 1773,
      "besoin": 1774,
      "aig": 1775,
      "rues": 1776,
      "##jol": 1777,
      "suff": 1778,
      "##ades": 1779,
      "charm": 1780,
      "fenêtre": 1781,
      "immense": 1782,
      "##anches": 1783,
      "offic": 1784,
      "quelle": 1785,
      "neu": 1786,
      "inconn": 1787,
      "genoux": 1788,
      "lang": 1789,
      "##ème": 1790,
      "deme": 1791,
      "sourire": 1792,
      "pavé": 1793,
      "sera": 1794,
      "haute": 1795,
      "peur": 1796,
      "##ult": 1797,
      "Enjol": 1798,
      "Enjolras": 1799,
      "can": 1800,
      "no": 1801,
      "##gé": 1802,
      "quit": 1803,
      "##ands": 1804,
      "dessous": 1805,
      "Tous": 1806,
      "vue": 1807,
      "faite": 1808,
      "##èvre": 1809,
      "dév": 1810,
      "entendit": 1811,
      "doi": 1812,
      "##sif": 1813,
      "##amin": 1814,
      "personn": 1815,
      "bourgeois": 1816,
      "Re": 1817,
      "suite": 1818,
      "lequel": 1819,
      "##uait": 1820,
      "Bar": 1821,
      "Com": 1822,
      "donne": 1823,
      "##ern": 1824,
      "quin": 1825,
      "##ourg": 1826,
      "malheure": 1827,
      "dents": 1828,
      "pours": 1829,
      "déses": 1830,
      "remarqu": 1831,
      "soeur": 1832,
      "##ême": 1833,
      "##est": 1834,
      "##oign": 1835,
      "expl": 1836,
      "donné": 1837,
      "rêve": 1838,
      "question": 1839,
      "Rien": 1840,
      "filles": 1841,
      "##iver": 1842,
      "proc": 1843,
      "donner": 1844,
      "cui": 1845,
      "pil": 1846,
      "##ive": 1847,
      "##ust": 1848,
      "édif": 1849,
      "Gille": 1850,
      "leva": 1851,
      "consid": 1852,
      "mouvement": 1853,
      "noire": 1854,
      "##el": 1855,
      "dég": 1856,
      "##urent": 1857,
      "maisons": 1858,
      "histoire": 1859,
      "tort": 1860,
      "doux": 1861,
      "puiss": 1862,
      "entendait": 1863,
      "nouveau": 1864,
      "##normand": 1865,
      "sept": 1866,
      "succ": 1867,
      "relig": 1868,
      "madame": 1869,
      "Gillenormand": 1870,
      "bord": 1871,
      "grâce": 1872,
      "enfin": 1873,
      "possible": 1874,
      "ajouta": 1875,
      "##lier": 1876,
      "##met": 1877,
      "##temps": 1878,
      "pourquoi": 1879,
      "##cess": 1880,
      "aveu": 1881,
      "##rage": 1882,
      "##érieux": 1883,
      "men": 1884,
      "vais": 1885,
      "##anou": 1886,
      "##chée": 1887,
      "passait": 1888,
      "étais": 1889,
      "paroles": 1890,
      "##ains": 1891,
      "murm": 1892,
      "volont": 1893,
      "##rue": 1894,
      "##rist": 1895,
      "##onner": 1896,
      "##cile": 1897,
      "viole": 1898,
      "ble": 1899,
      "ine": 1900,
      "éb": 1901,
      "##ron": 1902,
      "##ris": 1903,
      "##ables": 1904,
      "##cid": 1905,
      "conv": 1906,
      "longtemps": 1907,
      "Cet": 1908,
      "sign": 1909,
      "vér": 1910,
      "disting": 1911,
      "lors": 1912,
      "##êtres": 1913,
      "##aie": 1914,
      "ouver": 1915,
      "humaine": 1916,
      "livre": 1917,
      "arrêta": 1918,
      "spec": 1919,
      "##este": 1920,
      "##uill": 1921,
      "blanche": 1922,
      "ant": 1923,
      "ann": 1924,
      "abî": 1925,
      "form": 1926,
      "appelait": 1927,
      "misérable": 1928,
      "raison": 1929,
      "##eurs": 1930,
      "savoir": 1931,
      "prob": 1932,
      "tremb": 1933,
      "gla": 1934,
      "semble": 1935,
      "pair": 1936,
      "vic": 1937,
      "##été": 1938,
      "parmi": 1939,
      "##onné": 1940,
      "faisaient": 1941,
      "tranqui": 1942,
      "log": 1943,
      "».": 1944,
      "eng": 1945,
      "duc": 1946,
      "coups": 1947,
      "seulement": 1948,
      "##ecture": 1949,
      "##iff": 1950,
      "inn": 1951,
      "prév": 1952,
      "bonheur": 1953,
      "cap": 1954,
      "##hém": 1955,
      "commun": 1956,
      "conc": 1957,
      "fils": 1958,
      "fleurs": 1959,
      "moyen": 1960,
      "##mment": 1961,
      "##ess": 1962,
      "conte": 1963,
      "sortir": 1964,
      "Après": 1965,
      "##arté": 1966,
      "triste": 1967,
      "venu": 1968,
      "Pourquoi": 1969,
      "hô": 1970,
      "##anch": 1971,
      "entra": 1972,
      "doig": 1973,
      "signe": 1974,
      "vole": 1975,
      "##éro": 1976,
      "##rir": 1977,
      "##euf": 1978,
      "heureux": 1979,
      "méde": 1980,
      "stup": 1981,
      "cra": 1982,
      "doc": 1983,
      "fau": 1984,
      "has": 1985,
      "##oue": 1986,
      "##itié": 1987,
      "##tement": 1988,
      "état": 1989,
      "##deur": 1990,
      "propre": 1991,
      "sold": 1992,
      "brusquement": 1993,
      "##gue": 1994,
      "##tout": 1995,
      "##istre": 1996,
      "venir": 1997,
      "justice": 1998,
      "assis": 1999,
      "aperce": 2000,
      "échapp": 2001,
      "bête": 2002,
      "sing": 2003,
      "##ry": 2004,
      "##velo": 2005,
      "mots": 2006,
      "large": 2007,
      "fant": 2008,
      "##ailles": 2009,
      "##urait": 2010,
      "autant": 2011,
      "vieillard": 2012,
      "resta": 2013,
      "traî": 2014,
      "quelquefois": 2015,
      "ordre": 2016,
      "sourd": 2017,
      "Comment": 2018,
      "ache": 2019,
      "hors": 2020,
      "regarde": 2021,
      "marche": 2022,
      "souffle": 2023,
      "police": 2024,
      "âge": 2025,
      "##ieure": 2026,
      "##antine": 2027,
      "##geait": 2028,
      "faisant": 2029,
      "terrible": 2030,
      "condam": 2031,
      "Ses": 2032,
      "fum": 2033,
      "her": 2034,
      "vint": 2035,
      "ceci": 2036,
      "##olé": 2037,
      "XI": 2038,
      "bât": 2039,
      "tard": 2040,
      "parle": 2041,
      "comment": 2042,
      "immob": 2043,
      "poursui": 2044,
      "Or": 2045,
      "Toute": 2046,
      "soi": 2047,
      "##ument": 2048,
      "##ng": 2049,
      "##arou": 2050,
      "##ten": 2051,
      "plu": 2052,
      "boule": 2053,
      "##inte": 2054,
      "##ression": 2055,
      "consc": 2056,
      "ressemb": 2057,
      "##iait": 2058,
      "##ma": 2059,
      "##isait": 2060,
      "alla": 2061,
      "Fantine": 2062,
      "çà": 2063,
      "##resse": 2064,
      "maj": 2065,
      "épouv": 2066,
      "pleine": 2067,
      "flamb": 2068,
      "guerre": 2069,
      "oreille": 2070,
      "hasard": 2071,
      "##iment": 2072,
      "écrit": 2073,
      "impos": 2074,
      "dernier": 2075,
      "ast": 2076,
      "dos": 2077,
      "vo": 2078,
      "##tés": 2079,
      "parti": 2080,
      "##iller": 2081,
      "singul": 2082,
      "div": 2083,
      "dress": 2084,
      "passant": 2085,
      "clarté": 2086,
      "friss": 2087,
      "sentit": 2088,
      "##ah": 2089,
      "##op": 2090,
      "rapp": 2091,
      "##esté": 2092,
      "regarder": 2093,
      "tourna": 2094,
      "horiz": 2095,
      "descend": 2096,
      "attention": 2097,
      "fallait": 2098,
      "coll": 2099,
      "infin": 2100,
      "##ellig": 2101,
      "révolution": 2102,
      "ci": 2103,
      "doit": 2104,
      "##main": 2105,
      "##dit": 2106,
      "##êle": 2107,
      "chèvre": 2108,
      "resp": 2109,
      "##lais": 2110,
      "##reau": 2111,
      "sav": 2112,
      "prend": 2113,
      "robe": 2114,
      "lâ": 2115,
      "ébl": 2116,
      "prin": 2117,
      "ouvert": 2118,
      "rappe": 2119,
      "empê": 2120,
      "cents": 2121,
      "souvent": 2122,
      "bohém": 2123,
      "hide": 2124,
      "mag": 2125,
      "sy": 2126,
      "##ili": 2127,
      "commence": 2128,
      "tru": 2129,
      "##acun": 2130,
      "grosse": 2131,
      "rom": 2132,
      "##rès": 2133,
      "##rass": 2134,
      "##ôle": 2135,
      "lente": 2136,
      "écol": 2137,
      "##ices": 2138,
      "interr": 2139,
      "perdu": 2140,
      "gout": 2141,
      "lè": 2142,
      "vite": 2143,
      "arra": 2144,
      "réf": 2145,
      "cause": 2146,
      "précip": 2147,
      "tomber": 2148,
      "escalier": 2149,
      "##cin": 2150,
      "##ivers": 2151,
      "cell": 2152,
      "##rale": 2153,
      "prome": 2154,
      "entrer": 2155,
      "empl": 2156,
      "##oiselle": 2157,
      "##usc": 2158,
      "##ides": 2159,
      "redout": 2160,
      "_L": 2161,
      "bu": 2162,
      "quart": 2163,
      "chande": 2164,
      "brû": 2165,
      "nav": 2166,
      "pitié": 2167,
      "thé": 2168,
      "élé": 2169,
      "##got": 2170,
      "##cer": 2171,
      "##utes": 2172,
      "simple": 2173,
      "##oyez": 2174,
      "##less": 2175,
      "éblou": 2176,
      "Hélas": 2177,
      "##vée": 2178,
      "##ori": 2179,
      "##inaire": 2180,
      "##adis": 2181,
      "dorm": 2182,
      "##ber": 2183,
      "##âtre": 2184,
      "##isme": 2185,
      "##utre": 2186,
      "parlait": 2187,
      "##mpe": 2188,
      "bris": 2189,
      "aucun": 2190,
      "conscience": 2191,
      ",--": 2192,
      "##arne": 2193,
      "##onnement": 2194,
      "ouvrit": 2195,
      "repr": 2196,
      "entendre": 2197,
      "adm": 2198,
      "intérieur": 2199,
      "pièce": 2200,
      "Car": 2201,
      "lut": 2202,
      "magn": 2203,
      "pain": 2204,
      "##yrac": 2205,
      "chance": 2206,
      "##aume": 2207,
      "pron": 2208,
      "propos": 2209,
      "ap": 2210,
      "cre": 2211,
      "pou": 2212,
      "poit": 2213,
      "tours": 2214,
      "##mbres": 2215,
      "temp": 2216,
      "époque": 2217,
      "Courfe": 2218,
      "Courfeyrac": 2219,
      "Pont": 2220,
      "Te": 2221,
      "##rais": 2222,
      "##ction": 2223,
      "##oires": 2224,
      "repar": 2225,
      "##rine": 2226,
      "affaire": 2227,
      "jeta": 2228,
      "abîme": 2229,
      "sat": 2230,
      "tend": 2231,
      "##ceau": 2232,
      "##seigneur": 2233,
      "##acle": 2234,
      "Quoi": 2235,
      "##ances": 2236,
      "arrière": 2237,
      "baiss": 2238,
      "fur": 2239,
      "luc": 2240,
      "sû": 2241,
      "##tent": 2242,
      "##teurs": 2243,
      "##rier": 2244,
      "obscurité": 2245,
      "combat": 2246,
      "ignor": 2247,
      "architecture": 2248,
      "ait": 2249,
      "fus": 2250,
      "mi": 2251,
      "rap": 2252,
      "##bé": 2253,
      "##uiss": 2254,
      "intellig": 2255,
      "stat": 2256,
      "occup": 2257,
      "joy": 2258,
      "morte": 2259,
      "##ls": 2260,
      "poign": 2261,
      "poing": 2262,
      "beauté": 2263,
      "égout": 2264,
      "lentement": 2265,
      "cellule": 2266,
      "bais": 2267,
      "##raient": 2268,
      "##all": 2269,
      "##istes": 2270,
      "##ierge": 2271,
      "rég": 2272,
      "réc": 2273,
      "exc": 2274,
      "flot": 2275,
      "Jond": 2276,
      "bra": 2277,
      "##andis": 2278,
      "##ilité": 2279,
      "angle": 2280,
      "devait": 2281,
      "##ieusement": 2282,
      "##ugu": 2283,
      "lettre": 2284,
      "continua": 2285,
      "Jondrette": 2286,
      "bâ": 2287,
      "##yp": 2288,
      "##ouver": 2289,
      "##gea": 2290,
      "##ident": 2291,
      "maire": 2292,
      "éch": 2293,
      "##llez": 2294,
      "éterne": 2295,
      "existe": 2296,
      "enfer": 2297,
      "sergent": 2298,
      "colère": 2299,
      "lords": 2300,
      "loup": 2301,
      "##onie": 2302,
      "##erté": 2303,
      "end": 2304,
      "surtout": 2305,
      "chaî": 2306,
      "genre": 2307,
      "hér": 2308,
      "##vi": 2309,
      "##osse": 2310,
      "cru": 2311,
      "rêver": 2312,
      "ancien": 2313,
      "inconnu": 2314,
      "Elles": 2315,
      "cardin": 2316,
      "lugu": 2317,
      "vont": 2318,
      "##he": 2319,
      "plais": 2320,
      "grandes": 2321,
      "Enfin": 2322,
      "horrible": 2323,
      "fini": 2324,
      "certaine": 2325,
      "travail": 2326,
      "famille": 2327,
      "langue": 2328,
      "bor": 2329,
      "gagn": 2330,
      "quar": 2331,
      "avais": 2332,
      "##lam": 2333,
      "manqu": 2334,
      "neuf": 2335,
      "banc": 2336,
      "cath": 2337,
      "put": 2338,
      "vêt": 2339,
      "seigneur": 2340,
      "cris": 2341,
      "dernière": 2342,
      "couvent": 2343,
      "bohémienne": 2344,
      "##lie": 2345,
      "repre": 2346,
      "champ": 2347,
      "accent": 2348,
      "obser": 2349,
      "chapeau": 2350,
      "ensemble": 2351,
      "mourir": 2352,
      "nécess": 2353,
      "##oût": 2354,
      "mêle": 2355,
      "respect": 2356,
      "partie": 2357,
      "ram": 2358,
      "tir": 2359,
      "us": 2360,
      "##lot": 2361,
      "##iné": 2362,
      "selon": 2363,
      "ange": 2364,
      "fenêtres": 2365,
      "poitrine": 2366,
      "Pet": 2367,
      "Sans": 2368,
      "lai": 2369,
      "vin": 2370,
      "##era": 2371,
      "arm": 2372,
      "devoir": 2373,
      "super": 2374,
      "sortit": 2375,
      "particul": 2376,
      "voulait": 2377,
      "chercher": 2378,
      "vaste": 2379,
      "lettres": 2380,
      "horizon": 2381,
      "mai": 2382,
      "sauv": 2383,
      "##iane": 2384,
      "##ûte": 2385,
      "ress": 2386,
      "Quant": 2387,
      "passa": 2388,
      "##alement": 2389,
      "grave": 2390,
      "palais": 2391,
      "société": 2392,
      "officier": 2393,
      "interromp": 2394,
      "Ainsi": 2395,
      "##uste": 2396,
      "plut": 2397,
      "neige": 2398,
      "##veau": 2399,
      "##urer": 2400,
      "faites": 2401,
      "voulez": 2402,
      "idées": 2403,
      "mettre": 2404,
      "mauvais": 2405,
      "papier": 2406,
      "philosoph": 2407,
      "hiver": 2408,
      "jamb": 2409,
      "têtes": 2410,
      "Éc": 2411,
      "horreur": 2412,
      "bataille": 2413,
      "génér": 2414,
      "énorme": 2415,
      "aveugle": 2416,
      "représ": 2417,
      "lucarne": 2418,
      "farou": 2419,
      "##rement": 2420,
      "##uré": 2421,
      "rele": 2422,
      "##rif": 2423,
      "##quis": 2424,
      "##ards": 2425,
      "arbres": 2426,
      "argot": 2427,
      "moments": 2428,
      "##iennent": 2429,
      "pauvres": 2430,
      "quinze": 2431,
      "médecin": 2432,
      "but": 2433,
      "meur": 2434,
      "vain": 2435,
      "faç": 2436,
      "partout": 2437,
      "rayon": 2438,
      "Jos": 2439,
      "gib": 2440,
      "oui": 2441,
      "##cteur": 2442,
      "uns": 2443,
      "chef": 2444,
      "longue": 2445,
      "lèvres": 2446,
      "##rouv": 2447,
      "##ére": 2448,
      "##erc": 2449,
      "##onnes": 2450,
      "entrée": 2451,
      "belles": 2452,
      "court": 2453,
      "portes": 2454,
      "Sainte": 2455,
      "aucune": 2456,
      "Bark": 2457,
      "vide": 2458,
      "##erait": 2459,
      "dén": 2460,
      "Toutes": 2461,
      "science": 2462,
      "##phedro": 2463,
      "pâle": 2464,
      "Barkil": 2465,
      "Co": 2466,
      "lune": 2467,
      "lueur": 2468,
      "##usse": 2469,
      "avent": 2470,
      "##rod": 2471,
      "chair": 2472,
      "laissé": 2473,
      "triom": 2474,
      "magnif": 2475,
      "cardinal": 2476,
      "Barkilphedro": 2477,
      "situ": 2478,
      "##ss": 2479,
      "##ost": 2480,
      "##dans": 2481,
      "réveill": 2482,
      "##ombe": 2483,
      "mess": 2484,
      "instants": 2485,
      "mystère": 2486,
      "absol": 2487,
      "épaules": 2488,
      "inex": 2489,
      "impossible": 2490,
      "plutôt": 2491,
      "##ula": 2492,
      "##ège": 2493,
      "##issaient": 2494,
      "espér": 2495,
      "misère": 2496,
      "édifice": 2497,
      "civ": 2498,
      "cass": 2499,
      "er": 2500,
      "##aces": 2501,
      "asse": 2502,
      "##meral": 2503,
      "scul": 2504,
      "Charles": 2505,
      "aperçut": 2506,
      "sinistre": 2507,
      "_M": 2508,
      "âmes": 2509,
      "##land": 2510,
      "##nc": 2511,
      "trouve": 2512,
      "##illon": 2513,
      "##oth": 2514,
      "##onneur": 2515,
      "juste": 2516,
      "corde": 2517,
      "laissa": 2518,
      "docteur": 2519,
      "bén": 2520,
      "fleur": 2521,
      "ga": 2522,
      "##val": 2523,
      "dedans": 2524,
      "##ater": 2525,
      "reine": 2526,
      "pourrait": 2527,
      "prov": 2528,
      "mêmes": 2529,
      "vieilles": 2530,
      "toile": 2531,
      "trouver": 2532,
      "liberté": 2533,
      "essay": 2534,
      "##meralda": 2535,
      "?--": 2536,
      "Be": 2537,
      "Là": 2538,
      "cul": 2539,
      "sp": 2540,
      "spect": 2541,
      "##once": 2542,
      "##chaient": 2543,
      "##iend": 2544,
      "##ignes": 2545,
      "##illé": 2546,
      "appl": 2547,
      "telle": 2548,
      "voici": 2549,
      "croix": 2550,
      "troisième": 2551,
      "morts": 2552,
      "sév": 2553,
      "monstre": 2554,
      "oiseau": 2555,
      "Hom": 2556,
      "_C": 2557,
      "ailes": 2558,
      "fil": 2559,
      "manger": 2560,
      "##tée": 2561,
      "##ome": 2562,
      "##ES": 2563,
      "##ites": 2564,
      "parut": 2565,
      "##uisse": 2566,
      "prenait": 2567,
      "ami": 2568,
      "effort": 2569,
      "##idement": 2570,
      "voud": 2571,
      "souvenir": 2572,
      "calme": 2573,
      "vérité": 2574,
      "nombre": 2575,
      "##iche": 2576,
      "##bes": 2577,
      "##its": 2578,
      "##ieuses": 2579,
      "paraissait": 2580,
      "baron": 2581,
      "cabare": 2582,
      "ouverte": 2583,
      "Clo": 2584,
      "Tour": 2585,
      "honn": 2586,
      "mine": 2587,
      "étro": 2588,
      "##apolé": 2589,
      "appuy": 2590,
      "examin": 2591,
      "évanou": 2592,
      "II": 2593,
      "Plus": 2594,
      "pan": 2595,
      "viens": 2596,
      "##ication": 2597,
      "clair": 2598,
      "petites": 2599,
      "emport": 2600,
      "Quelque": 2601,
      "oiseaux": 2602,
      "Deux": 2603,
      "Pierre": 2604,
      "##omm": 2605,
      "##ents": 2606,
      "tel": 2607,
      "sortait": 2608,
      "second": 2609,
      "laisser": 2610,
      "noirs": 2611,
      "trouva": 2612,
      "confus": 2613,
      "doucement": 2614,
      "juge": 2615,
      "probablement": 2616,
      "tranquille": 2617,
      "Moi": 2618,
      "cir": 2619,
      "dès": 2620,
      "har": 2621,
      "tress": 2622,
      "##ym": 2623,
      "##nement": 2624,
      "donnait": 2625,
      "vivant": 2626,
      "tantôt": 2627,
      "infini": 2628,
      "Pl": 2629,
      "our": 2630,
      "tor": 2631,
      "##euse": 2632,
      "##isément": 2633,
      "plusieurs": 2634,
      "##tif": 2635,
      "poursuivit": 2636,
      "Sire": 2637,
      "sple": 2638,
      "##aï": 2639,
      "##tit": 2640,
      "Depuis": 2641,
      "adress": 2642,
      "étend": 2643,
      "logis": 2644,
      "herbe": 2645,
      "rang": 2646,
      "##af": 2647,
      "##rable": 2648,
      "tromp": 2649,
      "demain": 2650,
      "Esmeralda": 2651,
      "prodig": 2652,
      "effray": 2653,
      "Ré": 2654,
      "dr": 2655,
      "gouff": 2656,
      "lo": 2657,
      "oeu": 2658,
      "##gré": 2659,
      "##èche": 2660,
      "##îtres": 2661,
      "##oure": 2662,
      "##ffe": 2663,
      "restait": 2664,
      "tomba": 2665,
      "trouvé": 2666,
      "pénét": 2667,
      "croyait": 2668,
      "public": 2669,
      "minutes": 2670,
      "général": 2671,
      "Al": 2672,
      "band": 2673,
      "lire": 2674,
      "##teau": 2675,
      "##quin": 2676,
      "inqui": 2677,
      "##ulte": 2678,
      "double": 2679,
      "douleur": 2680,
      "insur": 2681,
      "cloche": 2682,
      "jolie": 2683,
      "innoc": 2684,
      "quarante": 2685,
      "##roi": 2686,
      "##cre": 2687,
      "##çant": 2688,
      "##uet": 2689,
      "##uel": 2690,
      "aug": 2691,
      "nez": 2692,
      "##oyait": 2693,
      "##amment": 2694,
      "conse": 2695,
      "compagn": 2696,
      "##umeur": 2697,
      "prison": 2698,
      "##venu": 2699,
      "vivre": 2700,
      "trente": 2701,
      "chevaux": 2702,
      "voulu": 2703,
      "destinée": 2704,
      "##apoléon": 2705,
      "Seu": 2706,
      "murs": 2707,
      "pier": 2708,
      "##uve": 2709,
      "##ôme": 2710,
      "Cha": 2711,
      "voyant": 2712,
      "##édi": 2713,
      "arriver": 2714,
      "commençait": 2715,
      "formid": 2716,
      "##velopp": 2717,
      "lugubre": 2718,
      "cabaret": 2719,
      "Clopin": 2720,
      "All": 2721,
      "ber": 2722,
      "êtres": 2723,
      "chacun": 2724,
      "parfois": 2725,
      "##issent": 2726,
      "épée": 2727,
      "##oncer": 2728,
      "cheminée": 2729,
      "désesp": 2730,
      "immobile": 2731,
      "majesté": 2732,
      "cathéd": 2733,
      "frém": 2734,
      "gé": 2735,
      "##th": 2736,
      "##pit": 2737,
      "##ises": 2738,
      "endro": 2739,
      "##atte": 2740,
      "marcher": 2741,
      "aband": 2742,
      "pouvoir": 2743,
      "##...": 2744,
      "##iquer": 2745,
      "échelle": 2746,
      "Josiane": 2747,
      "Napoléon": 2748,
      "gent": 2749,
      "##rain": 2750,
      "##asion": 2751,
      "change": 2752,
      "##onnier": 2753,
      "groupe": 2754,
      "marchait": 2755,
      "amis": 2756,
      "meurt": 2757,
      "gibet": 2758,
      "pi": 2759,
      "sout": 2760,
      "tap": 2761,
      "tandis": 2762,
      "##gés": 2763,
      "##eries": 2764,
      "sonne": 2765,
      "passage": 2766,
      "seconde": 2767,
      "mystérieux": 2768,
      "étoiles": 2769,
      "hôtel": 2770,
      "écolier": 2771,
      "sûr": 2772,
      "Fleur": 2773,
      "haine": 2774,
      "péri": 2775,
      "rac": 2776,
      "tum": 2777,
      "##tière": 2778,
      "##ubl": 2779,
      "##oureux": 2780,
      "chaise": 2781,
      "voyage": 2782,
      "voyez": 2783,
      "muraille": 2784,
      "##ussent": 2785,
      "Quelques": 2786,
      "##ndemain": 2787,
      "redoutable": 2788,
      "pierres": 2789,
      "dout": 2790,
      "tâ": 2791,
      "##bourg": 2792,
      "##lent": 2793,
      "##ense": 2794,
      "##chesse": 2795,
      "Quelle": 2796,
      "aura": 2797,
      "trouvait": 2798,
      "##izar": 2799,
      "disparu": 2800,
      "vertu": 2801,
      "ban": 2802,
      "##lin": 2803,
      "##ds": 2804,
      "##orable": 2805,
      "##quet": 2806,
      "Châte": 2807,
      "soule": 2808,
      "compte": 2809,
      "demande": 2810,
      "portait": 2811,
      "éclai": 2812,
      "présence": 2813,
      "franç": 2814,
      "grille": 2815,
      "monstrue": 2816,
      "lorsqu": 2817,
      "représent": 2818,
      "Ici": 2819,
      "Nic": 2820,
      "Pal": 2821,
      "dor": 2822,
      "sus": 2823,
      "##one": 2824,
      "##onge": 2825,
      "armes": 2826,
      "##ièrement": 2827,
      "entrev": 2828,
      "malade": 2829,
      "laissait": 2830,
      "obscure": 2831,
      "guet": 2832,
      "Gre": 2833,
      "honneur": 2834,
      "riv": 2835,
      "chau": 2836,
      "##llo": 2837,
      "##olog": 2838,
      "déd": 2839,
      "exe": 2840,
      "allum": 2841,
      "##avant": 2842,
      "poche": 2843,
      "sépul": 2844,
      "soupir": 2845,
      "spectacle": 2846,
      "Ave": 2847,
      "Sous": 2848,
      "XV": 2849,
      "cle": 2850,
      "sor": 2851,
      "##lés": 2852,
      "##reaux": 2853,
      "##roy": 2854,
      "faits": 2855,
      "perm": 2856,
      "arriva": 2857,
      "polit": 2858,
      "malheur": 2859,
      "retourna": 2860,
      "mauvaise": 2861,
      "bons": 2862,
      "bizar": 2863,
      "cla": 2864,
      "hés": 2865,
      "mét": 2866,
      "Ég": 2867,
      "lendemain": 2868,
      "##iette": 2869,
      "##uire": 2870,
      "content": 2871,
      "##angé": 2872,
      "croire": 2873,
      "barb": 2874,
      "popul": 2875,
      "grosses": 2876,
      "créature": 2877,
      "navire": 2878,
      "désespoir": 2879,
      "ame": 2880,
      "faud": 2881,
      "mord": 2882,
      "nation": 2883,
      "##ici": 2884,
      "##ourde": 2885,
      "##ase": 2886,
      "comte": 2887,
      "monseigneur": 2888,
      "rêverie": 2889,
      "Petit": 2890,
      "clef": 2891,
      "Cor": 2892,
      "Lys": 2893,
      "Pendant": 2894,
      "].": 2895,
      "_P": 2896,
      "fun": 2897,
      "rois": 2898,
      "ruisse": 2899,
      "##grès": 2900,
      "##cy": 2901,
      "##erd": 2902,
      "##rid": 2903,
      "##veille": 2904,
      "appare": 2905,
      "exéc": 2906,
      "##ombres": 2907,
      "marbre": 2908,
      "supr": 2909,
      "poète": 2910,
      "remit": 2911,
      "idé": 2912,
      "imag": 2913,
      "Mah": 2914,
      "Maître": 2915,
      "Bo": 2916,
      "Lond": 2917,
      "jau": 2918,
      "minu": 2919,
      "##liers": 2920,
      "##mine": 2921,
      "reç": 2922,
      "savez": 2923,
      "forç": 2924,
      "ferm": 2925,
      "minute": 2926,
      "Bon": 2927,
      "Maintenant": 2928,
      "laisse": 2929,
      "##abl": 2930,
      "##taient": 2931,
      "étince": 2932,
      "##ouse": 2933,
      "parlant": 2934,
      "plan": 2935,
      "mach": 2936,
      "diri": 2937,
      "##ailli": 2938,
      "route": 2939,
      "retomb": 2940,
      "instin": 2941,
      "az": 2942,
      "ment": 2943,
      "midi": 2944,
      "pét": 2945,
      "##lex": 2946,
      "cependant": 2947,
      "##aissez": 2948,
      "rempl": 2949,
      "##rade": 2950,
      "##quer": 2951,
      "##aines": 2952,
      "brume": 2953,
      "##act": 2954,
      "chauss": 2955,
      "##issements": 2956,
      "jeter": 2957,
      "pensif": 2958,
      "mettait": 2959,
      "étoile": 2960,
      "garçon": 2961,
      "farouche": 2962,
      "Br": 2963,
      "bless": 2964,
      "gui": 2965,
      "obl": 2966,
      "épr": 2967,
      "##nne": 2968,
      "##moiselle": 2969,
      "##vaient": 2970,
      "##vard": 2971,
      "##ône": 2972,
      "##anité": 2973,
      "##itions": 2974,
      "chien": 2975,
      "##onnait": 2976,
      "apport": 2977,
      "aim": 2978,
      "aimer": 2979,
      "année": 2980,
      "monter": 2981,
      "noms": 2982,
      "riche": 2983,
      "silenc": 2984,
      "flamme": 2985,
      "faim": 2986,
      "malheureux": 2987,
      "endorm": 2988,
      "gouffre": 2989,
      "Ent": 2990,
      "rose": 2991,
      "tes": 2992,
      "tas": 2993,
      "avenir": 2994,
      "##aul": 2995,
      "##ionn": 2996,
      "##ureur": 2997,
      "rester": 2998,
      "devient": 2999,
      "rav": 3000,
      "pointe": 3001,
      "côtés": 3002,
      "mém": 3003,
      "manière": 3004,
      "sembla": 3005,
      "agit": 3006,
      "pense": 3007,
      "##quels": 3008,
      "envir": 3009,
      "approcha": 3010,
      "bleu": 3011,
      "doigt": 3012,
      "épouvant": 3013,
      "amb": 3014,
      "##ébre": 3015,
      "##abe": 3016,
      "##iée": 3017,
      "prise": 3018,
      "maîtres": 3019,
      "chem": 3020,
      "subl": 3021,
      "##asses": 3022,
      "##ocat": 3023,
      "obé": 3024,
      "ventre": 3025,
      "quoique": 3026,
      "devenu": 3027,
      "transf": 3028,
      "effrayant": 3029,
      "formidable": 3030,
      "Londres": 3031,
      "##olle": 3032,
      "##oche": 3033,
      "##ref": 3034,
      "##chés": 3035,
      "prop": 3036,
      "##illage": 3037,
      "##prise": 3038,
      "cesse": 3039,
      "jusque": 3040,
      "crime": 3041,
      "entendu": 3042,
      "admi": 3043,
      "arrivait": 3044,
      "années": 3045,
      "satis": 3046,
      "Trist": 3047,
      "pape": 3048,
      "éme": 3049,
      "lecteur": 3050,
      "étud": 3051,
      "##dez": 3052,
      "##ives": 3053,
      "##aissance": 3054,
      "empe": 3055,
      "revint": 3056,
      "Seine": 3057,
      "considér": 3058,
      "aventure": 3059,
      "cathédrale": 3060,
      "Tristan": 3061,
      "outre": 3062,
      "##îte": 3063,
      "##erme": 3064,
      "##orge": 3065,
      "##inait": 3066,
      "prune": 3067,
      "inut": 3068,
      "arbre": 3069,
      "armée": 3070,
      "entour": 3071,
      "révé": 3072,
      "compar": 3073,
      "secret": 3074,
      "posa": 3075,
      "Voici": 3076,
      "anglais": 3077,
      "songeait": 3078,
      "honnête": 3079,
      "Palais": 3080,
      "Avec": 3081,
      "Bour": 3082,
      "Guill": 3083,
      "dam": 3084,
      "gouver": 3085,
      "press": 3086,
      "##rons": 3087,
      "##usé": 3088,
      "##uxe": 3089,
      "##rim": 3090,
      "##rique": 3091,
      "##uits": 3092,
      "##nds": 3093,
      "préf": 3094,
      "ferme": 3095,
      "Grève": 3096,
      "##lotte": 3097,
      "##iété": 3098,
      "183": 3099,
      "fatig": 3100,
      "chandelle": 3101,
      "maig": 3102,
      "goût": 3103,
      "rè": 3104,
      "##rite": 3105,
      "##nier": 3106,
      "##ueill": 3107,
      "paris": 3108,
      "plac": 3109,
      "plate": 3110,
      "##qué": 3111,
      "écras": 3112,
      "disant": 3113,
      "##blanc": 3114,
      "devint": 3115,
      "##iquement": 3116,
      "caval": 3117,
      "épaule": 3118,
      "apercevait": 3119,
      "plaisir": 3120,
      "bagne": 3121,
      "##cul": 3122,
      "##ope": 3123,
      "##der": 3124,
      "seuil": 3125,
      "##idence": 3126,
      "trouble": 3127,
      "prévôt": 3128,
      "intelligence": 3129,
      "Guillaume": 3130,
      "allez": 3131,
      "cord": 3132,
      "meu": 3133,
      "nour": 3134,
      "pes": 3135,
      "sér": 3136,
      "##but": 3137,
      "lant": 3138,
      "##arlie": 3139,
      "##neau": 3140,
      "etc": 3141,
      "##celle": 3142,
      "remp": 3143,
      "prince": 3144,
      "##ilis": 3145,
      "Leblanc": 3146,
      "dites": 3147,
      "##onds": 3148,
      "répl": 3149,
      "##oyer": 3150,
      "criait": 3151,
      "sortes": 3152,
      "visible": 3153,
      "cinqu": 3154,
      "##céan": 3155,
      "interrompit": 3156,
      "Seulement": 3157,
      "azur": 3158,
      "Aussi": 3159,
      "Fro": 3160,
      "digne": 3161,
      "mus": 3162,
      "mill": 3163,
      "vén": 3164,
      "##ub": 3165,
      "##ix": 3166,
      "##pent": 3167,
      "##ha": 3168,
      "deuil": 3169,
      "##orité": 3170,
      "chat": 3171,
      "##onte": 3172,
      "aube": 3173,
      "##oisse": 3174,
      "##onnant": 3175,
      "aimait": 3176,
      "passants": 3177,
      "trag": 3178,
      "évé": 3179,
      "larmes": 3180,
      "voisin": 3181,
      "Charm": 3182,
      "ressemble": 3183,
      "vaguement": 3184,
      "##ancharlie": 3185,
      "ressemblait": 3186,
      "Water": 3187,
      "bate": 3188,
      "ris": 3189,
      "romp": 3190,
      "soix": 3191,
      "##alle": 3192,
      "##ton": 3193,
      "##yr": 3194,
      "chiff": 3195,
      "paradis": 3196,
      "épaisse": 3197,
      "douze": 3198,
      "pensa": 3199,
      "vivement": 3200,
      "contemp": 3201,
      "Frollo": 3202,
      "Mad": 3203,
      "Rob": 3204,
      "Tiens": 3205,
      "fé": 3206,
      "hard": 3207,
      "tém": 3208,
      "##raire": 3209,
      "##éta": 3210,
      "##pare": 3211,
      "##ke": 3212,
      "rece": 3213,
      "##olue": 3214,
      "##onnée": 3215,
      "distin": 3216,
      "##loo": 3217,
      "mél": 3218,
      "Clancharlie": 3219,
      "grim": 3220,
      "blancs": 3221,
      "éloign": 3222,
      "spectre": 3223,
      "soldat": 3224,
      "loge": 3225,
      "Ol": 3226,
      "Votre": 3227,
      "cieux": 3228,
      "dû": 3229,
      "foss": 3230,
      "illus": 3231,
      "plaf": 3232,
      "déta": 3233,
      "gris": 3234,
      "cess": 3235,
      "aimé": 3236,
      "march": 3237,
      "compos": 3238,
      "recl": 3239,
      "tenir": 3240,
      "Phili": 3241,
      "##III": 3242,
      "détail": 3243,
      "désespér": 3244,
      "volontiers": 3245,
      "distinguait": 3246,
      "oeuvre": 3247,
      "Waterloo": 3248,
      "##ias": 3249,
      "##iner": 3250,
      "progrès": 3251,
      "##oncé": 3252,
      "venue": 3253,
      "croit": 3254,
      "extrém": 3255,
      "suppl": 3256,
      "signif": 3257,
      "tempête": 3258,
      "idéal": 3259,
      "Hen": 3260,
      "boire": 3261,
      "gê": 3262,
      "grac": 3263,
      "rendre": 3264,
      "auber": 3265,
      "arran": 3266,
      "beaux": 3267,
      "aurais": 3268,
      "##abet": 3269,
      "tremble": 3270,
      "cloître": 3271,
      "Montf": 3272,
      "faible": 3273,
      "charmant": 3274,
      "##ernité": 3275,
      "murmura": 3276,
      "fumée": 3277,
      "boulevard": 3278,
      "princip": 3279,
      "commencement": 3280,
      "Écoute": 3281,
      "Charmolue": 3282,
      "##chot": 3283,
      "##onté": 3284,
      "prom": 3285,
      "anim": 3286,
      "##itement": 3287,
      "couver": 3288,
      "recul": 3289,
      "secou": 3290,
      "voiture": 3291,
      "froide": 3292,
      "libre": 3293,
      "sommeil": 3294,
      "goutte": 3295,
      "##ypte": 3296,
      "chaîne": 3297,
      "sculpt": 3298,
      "endroit": 3299,
      "forçat": 3300,
      "chemise": 3301,
      "empereur": 3302,
      "soixante": 3303,
      "furent": 3304,
      "tient": 3305,
      "##ude": 3306,
      "##ita": 3307,
      "##itaire": 3308,
      "##ueil": 3309,
      "plomb": 3310,
      "écar": 3311,
      "arrivé": 3312,
      "veille": 3313,
      "crép": 3314,
      "service": 3315,
      "constr": 3316,
      "malheureuse": 3317,
      "hideux": 3318,
      "jambes": 3319,
      "Madame": 3320,
      "roses": 3321,
      "tent": 3322,
      "Ép": 3323,
      "##cles": 3324,
      "##rog": 3325,
      "chans": 3326,
      "##uilles": 3327,
      "parlement": 3328,
      "entrait": 3329,
      "##otion": 3330,
      "excep": 3331,
      "cave": 3332,
      "regardant": 3333,
      "##tile": 3334,
      "importe": 3335,
      "président": 3336,
      "##iqué": 3337,
      "extra": 3338,
      "sauver": 3339,
      "##conque": 3340,
      "déchir": 3341,
      "soldats": 3342,
      "pluie": 3343,
      "truands": 3344,
      "situation": 3345,
      "cinquante": 3346,
      "Philippe": 3347,
      "Aux": 3348,
      "Ville": 3349,
      "_J": 3350,
      "cime": 3351,
      "li": 3352,
      "océan": 3353,
      "rit": 3354,
      "ronde": 3355,
      "sombres": 3356,
      "éveill": 3357,
      "##gles": 3358,
      "##ué": 3359,
      "##zième": 3360,
      "##pend": 3361,
      "##quent": 3362,
      "invis": 3363,
      "brou": 3364,
      "rame": 3365,
      "##assé": 3366,
      "##oins": 3367,
      "##idemment": 3368,
      "aurore": 3369,
      "mesure": 3370,
      "vel": 3371,
      "résol": 3372,
      "distance": 3373,
      "travaill": 3374,
      "douceur": 3375,
      "bonhomme": 3376,
      "fauteuil": 3377,
      "Allons": 3378,
      "Père": 3379,
      "cage": 3380,
      "geste": 3381,
      "hau": 3382,
      "##lées": 3383,
      "delà": 3384,
      "plai": 3385,
      "audit": 3386,
      "entr": 3387,
      "disc": 3388,
      "épuis": 3389,
      "passion": 3390,
      "##tible": 3391,
      "venons": 3392,
      "obst": 3393,
      "accro": 3394,
      "##ogne": 3395,
      "centre": 3396,
      "nuage": 3397,
      "ténébre": 3398,
      "rapport": 3399,
      "##uissier": 3400,
      "sévère": 3401,
      "Homo": 3402,
      "suprême": 3403,
      "crépusc": 3404,
      "bonnes": 3405,
      "taille": 3406,
      "##ua": 3407,
      "##AN": 3408,
      "##oint": 3409,
      "##ormes": 3410,
      "parfait": 3411,
      "##ril": 3412,
      "##ilh": 3413,
      "resté": 3414,
      "##olet": 3415,
      "arrive": 3416,
      "fraî": 3417,
      "mystér": 3418,
      "écoutait": 3419,
      "philosophe": 3420,
      "Dav": 3421,
      "Homme": 3422,
      "Va": 3423,
      "pai": 3424,
      "veu": 3425,
      "Être": 3426,
      "##tu": 3427,
      "avocat": 3428,
      "##eci": 3429,
      "épar": 3430,
      "divers": 3431,
      "effar": 3432,
      "feuille": 3433,
      "tourn": 3434,
      "couronne": 3435,
      "tombait": 3436,
      "porter": 3437,
      "Auc": 3438,
      "gloire": 3439,
      "occasion": 3440,
      "toits": 3441,
      "ordinaire": 3442,
      "bâti": 3443,
      "David": 3444,
      "Ad": 3445,
      "coi": 3446,
      "cam": 3447,
      "ligne": 3448,
      "pant": 3449,
      "##ize": 3450,
      "ouvre": 3451,
      "répand": 3452,
      "portail": 3453,
      "##itudes": 3454,
      "cercle": 3455,
      "expression": 3456,
      "##ermain": 3457,
      "drap": 3458,
      "frappa": 3459,
      "doigts": 3460,
      "faubourg": 3461,
      "instinct": 3462,
      "admirable": 3463,
      "Ceci": 3464,
      "Gerv": 3465,
      "Mab": 3466,
      "huissier": 3467,
      "##vint": 3468,
      "enn": 3469,
      "##indre": 3470,
      "chute": 3471,
      "##quelles": 3472,
      "##olie": 3473,
      "dépos": 3474,
      "##illait": 3475,
      "disp": 3476,
      "##assin": 3477,
      "##aye": 3478,
      "déser": 3479,
      "##ogue": 3480,
      "volonté": 3481,
      "stupé": 3482,
      "magnifique": 3483,
      "tressaill": 3484,
      "mémoire": 3485,
      "Oud": 3486,
      "tord": 3487,
      "##arme": 3488,
      "##oine": 3489,
      "##ination": 3490,
      "##riff": 3491,
      "##alités": 3492,
      "saut": 3493,
      "prat": 3494,
      "trait": 3495,
      "matel": 3496,
      "aspect": 3497,
      "peint": 3498,
      "cache": 3499,
      "répéta": 3500,
      "malad": 3501,
      "objet": 3502,
      "évidemment": 3503,
      "post": 3504,
      "méch": 3505,
      "##rouver": 3506,
      "personnage": 3507,
      "##ouette": 3508,
      "astre": 3509,
      "inquiét": 3510,
      "plafond": 3511,
      "recluse": 3512,
      "aî": 3513,
      "mend": 3514,
      "mante": 3515,
      "tal": 3516,
      "vête": 3517,
      "vale": 3518,
      "voie": 3519,
      "quant": 3520,
      "lab": 3521,
      "latin": 3522,
      "##ari": 3523,
      "simp": 3524,
      "gromme": 3525,
      "supér": 3526,
      "impri": 3527,
      "angoisse": 3528,
      "délic": 3529,
      "jeunesse": 3530,
      "brill": 3531,
      "nécessaire": 3532,
      "civilis": 3533,
      "Égypte": 3534,
      "rempla": 3535,
      "Pe": 3536,
      "hé": 3537,
      "jur": 3538,
      "rob": 3539,
      "tirer": 3540,
      "##bon": 3541,
      "##jon": 3542,
      "quai": 3543,
      "##arch": 3544,
      "##rip": 3545,
      "autorité": 3546,
      "##iction": 3547,
      "enfon": 3548,
      "cah": 3549,
      "clou": 3550,
      "compère": 3551,
      "bourreau": 3552,
      "énig": 3553,
      "##cident": 3554,
      "voûte": 3555,
      "##iversité": 3556,
      "Mahiette": 3557,
      "Oudarde": 3558,
      "14": 3559,
      "Jup": 3560,
      "LA": 3561,
      "dur": 3562,
      "##cée": 3563,
      "##nasse": 3564,
      "##çons": 3565,
      "##œur": 3566,
      "##iration": 3567,
      "deuxième": 3568,
      "##ivier": 3569,
      "allons": 3570,
      "about": 3571,
      "forêt": 3572,
      "recomme": 3573,
      "appeler": 3574,
      "##ignait": 3575,
      "##mercy": 3576,
      "affreux": 3577,
      "##hériff": 3578,
      "##iqua": 3579,
      "interva": 3580,
      "résist": 3581,
      "troubl": 3582,
      "reconnut": 3583,
      "attendait": 3584,
      "devenir": 3585,
      "Pontmercy": 3586,
      "Pers": 3587,
      "_A": 3588,
      "bailli": 3589,
      "foi": 3590,
      "fosse": 3591,
      "gamin": 3592,
      "goth": 3593,
      "is": 3594,
      "pist": 3595,
      "shériff": 3596,
      "##ares": 3597,
      "##uelle": 3598,
      "chois": 3599,
      "paraît": 3600,
      "ard": 3601,
      "troupe": 3602,
      "##illée": 3603,
      "éperd": 3604,
      "boute": 3605,
      "##unes": 3606,
      "Université": 3607,
      "carref": 3608,
      "journée": 3609,
      "##ièvre": 3610,
      "ador": 3611,
      "pensées": 3612,
      "vaut": 3613,
      "joue": 3614,
      "profondément": 3615,
      "rude": 3616,
      "procès": 3617,
      "joyeux": 3618,
      "jaune": 3619,
      "hauteur": 3620,
      "Mabeuf": 3621,
      "cy": 3622,
      "cat": 3623,
      "lignes": 3624,
      "##èbre": 3625,
      "##isc": 3626,
      "##ates": 3627,
      "##illons": 3628,
      "##oyé": 3629,
      "camp": 3630,
      "coucher": 3631,
      "accr": 3632,
      "fermée": 3633,
      "##parnasse": 3634,
      "jeté": 3635,
      "larges": 3636,
      "181": 3637,
      "Montparnasse": 3638,
      "vagues": 3639,
      "certains": 3640,
      "suffit": 3641,
      "canon": 3642,
      "flambe": 3643,
      "émeute": 3644,
      "lanterne": 3645,
      "Jupiter": 3646,
      "Ant": 3647,
      "Rome": 3648,
      "féro": 3649,
      "lion": 3650,
      "nus": 3651,
      "por": 3652,
      "équi": 3653,
      "##enole": 3654,
      "##utions": 3655,
      "duchesse": 3656,
      "##ries": 3657,
      "##ali": 3658,
      "plume": 3659,
      "##chev": 3660,
      "##ppenole": 3661,
      "dissi": 3662,
      "autrefois": 3663,
      "caus": 3664,
      "mode": 3665,
      "égal": 3666,
      "blanches": 3667,
      "##ormais": 3668,
      "décl": 3669,
      "ouvrir": 3670,
      "défend": 3671,
      "##ington": 3672,
      "juin": 3673,
      "chapelle": 3674,
      "royal": 3675,
      "publique": 3676,
      "magist": 3677,
      "Coppenole": 3678,
      "inutile": 3679,
      "Combe": 3680,
      "cé": 3681,
      "dame": 3682,
      "fête": 3683,
      "moit": 3684,
      "nomme": 3685,
      "nid": 3686,
      "tira": 3687,
      "##ferre": 3688,
      "##çaient": 3689,
      "##itait": 3690,
      "dépl": 3691,
      "formes": 3692,
      "venaient": 3693,
      "vision": 3694,
      "premiers": 3695,
      "nommé": 3696,
      "remont": 3697,
      "mange": 3698,
      "suivait": 3699,
      "pavés": 3700,
      "démon": 3701,
      "pilori": 3702,
      "drôle": 3703,
      "Combeferre": 3704,
      "Cité": 3705,
      "Tant": 3706,
      "hur": 3707,
      "verre": 3708,
      "##érer": 3709,
      "##mar": 3710,
      "##pét": 3711,
      "##IT": 3712,
      "##RE": 3713,
      "##oud": 3714,
      "lever": 3715,
      "##asque": 3716,
      "pard": 3717,
      "##quette": 3718,
      "songer": 3719,
      "##chez": 3720,
      "##ainte": 3721,
      "désert": 3722,
      "méchant": 3723,
      "poss": 3724,
      "humanité": 3725,
      "riait": 3726,
      "suivre": 3727,
      "tombeau": 3728,
      "attitude": 3729,
      "sergents": 3730,
      "##ichel": 3731,
      "confusément": 3732,
      "Olivier": 3733,
      "noires": 3734,
      "op": 3735,
      "tendre": 3736,
      "##rin": 3737,
      "##ode": 3738,
      "##ios": 3739,
      "##iance": 3740,
      "##onine": 3741,
      "##iennes": 3742,
      "##mbour": 3743,
      "##verse": 3744,
      "jette": 3745,
      "réalité": 3746,
      "##cine": 3747,
      "tué": 3748,
      "regards": 3749,
      "tournant": 3750,
      "Grant": 3751,
      "donna": 3752,
      "retrouver": 3753,
      "longues": 3754,
      "laissant": 3755,
      "arrêter": 3756,
      "figures": 3757,
      "façade": 3758,
      "absolument": 3759,
      "Quelquefois": 3760,
      "distinc": 3761,
      "Ou": 3762,
      "Vierge": 3763,
      "ge": 3764,
      "lois": 3765,
      "opp": 3766,
      "rée": 3767,
      "tit": 3768,
      "tonn": 3769,
      "##gée": 3770,
      "##nements": 3771,
      "ens": 3772,
      "sep": 3773,
      "##rois": 3774,
      "##outh": 3775,
      "écoute": 3776,
      "faux": 3777,
      "trad": 3778,
      "##aillons": 3779,
      "pleins": 3780,
      "désormais": 3781,
      "##paravant": 3782,
      "assist": 3783,
      "espace": 3784,
      "terreur": 3785,
      "saisit": 3786,
      "##érables": 3787,
      "jetait": 3788,
      "##iquait": 3789,
      "franch": 3790,
      "accep": 3791,
      "escar": 3792,
      "demander": 3793,
      "comprendre": 3794,
      "brig": 3795,
      "chancelier": 3796,
      "Green": 3797,
      "exemple": 3798,
      "politique": 3799,
      "éprouv": 3800,
      "moitié": 3801,
      "17": 3802,
      "Trou": 3803,
      "méd": 3804,
      "nue": 3805,
      "og": 3806,
      "##ville": 3807,
      "##itation": 3808,
      "##ompl": 3809,
      "avan": 3810,
      "##ences": 3811,
      "reb": 3812,
      "##illement": 3813,
      "##verb": 3814,
      "tré": 3815,
      "peupl": 3816,
      "crut": 3817,
      "messe": 3818,
      "affre": 3819,
      "semblaient": 3820,
      "grandeur": 3821,
      "Pourtant": 3822,
      "généra": 3823,
      "galerie": 3824,
      "questions": 3825,
      "pairs": 3826,
      "extrémité": 3827,
      "velours": 3828,
      ".,": 3829,
      "Ge": 3830,
      "Mag": 3831,
      "hâ": 3832,
      "noc": 3833,
      "pur": 3834,
      "##rup": 3835,
      "##gie": 3836,
      "##èle": 3837,
      "##ief": 3838,
      "##ueux": 3839,
      "rede": 3840,
      "##tiques": 3841,
      "répét": 3842,
      "orgue": 3843,
      "accomp": 3844,
      "sentir": 3845,
      "montagne": 3846,
      "sourc": 3847,
      "##léch": 3848,
      "retrouv": 3849,
      "habitude": 3850,
      "vraiment": 3851,
      "rayons": 3852,
      "drape": 3853,
      "mariage": 3854,
      "pareil": 3855,
      "religion": 3856,
      "statue": 3857,
      "baiser": 3858,
      "vêtu": 3859,
      "splend": 3860,
      "sépulcre": 3861,
      "cimetière": 3862,
      "Personne": 3863,
      "Eur": 3864,
      "hy": 3865,
      "##tur": 3866,
      "##tier": 3867,
      "##loire": 3868,
      "##naient": 3869,
      "##nces": 3870,
      "##bat": 3871,
      "univers": 3872,
      "##aises": 3873,
      "remet": 3874,
      "auparavant": 3875,
      "sab": 3876,
      "group": 3877,
      "##ules": 3878,
      "marquis": 3879,
      "##aissaient": 3880,
      "partir": 3881,
      "poste": 3882,
      "riches": 3883,
      "colonne": 3884,
      "cerveau": 3885,
      "poussa": 3886,
      "puissance": 3887,
      "épouvante": 3888,
      "fusil": 3889,
      "applaud": 3890,
      "populaire": 3891,
      "prunelle": 3892,
      "accroup": 3893,
      "Grantaire": 3894,
      "Mal": 3895,
      "_S": 3896,
      "ach": 3897,
      "fâ": 3898,
      "râ": 3899,
      "sérieux": 3900,
      "Ét": 3901,
      "##rées": 3902,
      "##éch": 3903,
      "##lit": 3904,
      "##icile": 3905,
      "##ède": 3906,
      "##vier": 3907,
      "##omin": 3908,
      "##uellement": 3909,
      "repos": 3910,
      "##demoiselle": 3911,
      "sage": 3912,
      "araign": 3913,
      "##cif": 3914,
      "école": 3915,
      "branches": 3916,
      "mademoiselle": 3917,
      "Chaque": 3918,
      "##part": 3919,
      "corrid": 3920,
      "scène": 3921,
      "grav": 3922,
      "charmante": 3923,
      "divin": 3924,
      "rivière": 3925,
      "Box": 3926,
      "invisible": 3927,
      "manteau": 3928,
      "As": 3929,
      "Boss": 3930,
      "Pre": 3931,
      "Pic": 3932,
      "bêtes": 3933,
      "fro": 3934,
      "mén": 3935,
      "rô": 3936,
      "tig": 3937,
      "viennent": 3938,
      "##cu": 3939,
      "##vu": 3940,
      "##omie": 3941,
      "enle": 3942,
      "cendre": 3943,
      "##inc": 3944,
      "sages": 3945,
      "trône": 3946,
      "##ager": 3947,
      "##tér": 3948,
      "tellement": 3949,
      "moindre": 3950,
      "amoureux": 3951,
      "coeurs": 3952,
      "souliers": 3953,
      "attendre": 3954,
      "répondre": 3955,
      "répondait": 3956,
      "paup": 3957,
      "flots": 3958,
      "merveille": 3959,
      "cloches": 3960,
      "création": 3961,
      "devenait": 3962,
      "travaille": 3963,
      "gliss": 3964,
      "immens": 3965,
      "rencontre": 3966,
      "empêcher": 3967,
      "triomph": 3968,
      "Champ": 3969,
      "Aut": 3970,
      "Lui": 3971,
      "Mer": 3972,
      "No": 3973,
      "Vers": 3974,
      "_T": 3975,
      "ho": 3976,
      "hon": 3977,
      "pendre": 3978,
      "vil": 3979,
      "##alles": 3980,
      "##ON": 3981,
      "##rection": 3982,
      "##onel": 3983,
      "##auf": 3984,
      "surprise": 3985,
      "arr": 3986,
      "##verne": 3987,
      "entière": 3988,
      "tristes": 3989,
      "##sière": 3990,
      "conten": 3991,
      "peau": 3992,
      "voile": 3993,
      "boue": 3994,
      "points": 3995,
      "tourb": 3996,
      "couvert": 3997,
      "criant": 3998,
      "charge": 3999,
      "charrette": 4000,
      "fortune": 4001,
      "prisonnier": 4002,
      "action": 4003,
      "vive": 4004,
      "redou": 4005,
      "referm": 4006,
      "siècles": 4007,
      "sommet": 4008,
      "cuir": 4009,
      "singulier": 4010,
      "philosophie": 4011,
      "messieurs": 4012,
      "asseoir": 4013,
      "gaî": 4014,
      "machin": 4015,
      "sublime": 4016,
      "Bah": 4017,
      "Coi": 4018,
      "_E": 4019,
      "gale": 4020,
      "imb": 4021,
      "jal": 4022,
      "lourd": 4023,
      "##taire": 4024,
      "##nés": 4025,
      "##ibles": 4026,
      "##reuil": 4027,
      "##lem": 4028,
      "envelopp": 4029,
      "ceint": 4030,
      "##cept": 4031,
      "auquel": 4032,
      "ing": 4033,
      "##sile": 4034,
      "mêlée": 4035,
      "##idité": 4036,
      "cad": 4037,
      "effroi": 4038,
      "puisque": 4039,
      "tourment": 4040,
      "portant": 4041,
      "conser": 4042,
      "attendant": 4043,
      "chanter": 4044,
      "oreilles": 4045,
      "éleva": 4046,
      "théâtre": 4047,
      "tumulte": 4048,
      "Éponine": 4049,
      "extraord": 4050,
      "Magloire": 4051,
      "16": 4052,
      "Jus": 4053,
      "_D": 4054,
      "afin": 4055,
      "dî": 4056,
      "gro": 4057,
      "lou": 4058,
      "mâ": 4059,
      "mise": 4060,
      "rid": 4061,
      "tim": 4062,
      "##tic": 4063,
      "##lons": 4064,
      "lampe": 4065,
      "unique": 4066,
      "étouff": 4067,
      "##chers": 4068,
      "##entes": 4069,
      "##uir": 4070,
      "dure": 4071,
      "##rib": 4072,
      "surf": 4073,
      "réverb": 4074,
      "##action": 4075,
      "peuvent": 4076,
      "portier": 4077,
      "##railles": 4078,
      "vivants": 4079,
      "tambour": 4080,
      "colonel": 4081,
      "##ctier": 4082,
      "sainte": 4083,
      "détour": 4084,
      "personnes": 4085,
      "vicom": 4086,
      "fauve": 4087,
      "condamné": 4088,
      "symb": 4089,
      "##ublique": 4090,
      "bizarre": 4091,
      "stupéfait": 4092,
      "recommen": 4093,
      "Bossuet": 4094,
      "Coictier": 4095,
      "Bien": 4096,
      "Port": 4097,
      "cous": 4098,
      "paille": 4099,
      "##a_": 4100,
      "##ateur": 4101,
      "parf": 4102,
      "autel": 4103,
      "##sive": 4104,
      "aile": 4105,
      "##ission": 4106,
      "meille": 4107,
      "cada": 4108,
      "épanou": 4109,
      "Christ": 4110,
      "champs": 4111,
      "doul": 4112,
      "convers": 4113,
      "couleur": 4114,
      "blanch": 4115,
      "côte": 4116,
      "écrire": 4117,
      "lieues": 4118,
      "génie": 4119,
      "....": 4120,
      "certaines": 4121,
      "subitement": 4122,
      "demeura": 4123,
      "vict": 4124,
      "rapidement": 4125,
      "ramass": 4126,
      "particulier": 4127,
      "##érence": 4128,
      "sonneur": 4129,
      "sorci": 4130,
      "civilisation": 4131,
      "Cr": 4132,
      "DE": 4133,
      "Fait": 4134,
      "Fran": 4135,
      "In": 4136,
      "Michel": 4137,
      "gorge": 4138,
      "lieux": 4139,
      "##ration": 4140,
      "##mat": 4141,
      "##tenant": 4142,
      "choc": 4143,
      "chim": 4144,
      "repris": 4145,
      "parlé": 4146,
      "proie": 4147,
      "rad": 4148,
      "souver": 4149,
      "carré": 4150,
      "tombé": 4151,
      "emporte": 4152,
      "désord": 4153,
      "montre": 4154,
      "roue": 4155,
      "hautes": 4156,
      "vitre": 4157,
      "difficile": 4158,
      "fixement": 4159,
      "##veloppe": 4160,
      "triomphe": 4161,
      "espérance": 4162,
      "##ermeil": 4163,
      "révére": 4164,
      "parisis": 4165,
      "grimace": 4166,
      "Montfermeil": 4167,
      "Antoine": 4168,
      "Europe": 4169,
      "surface": 4170,
      "cadavre": 4171,
      "Me": 4172,
      "Voyez": 4173,
      "_c": 4174,
      "folle": 4175,
      "fièvre": 4176,
      "gai": 4177,
      "masse": 4178,
      "rat": 4179,
      "##iés": 4180,
      "##urier": 4181,
      "ence": 4182,
      "##alis": 4183,
      "aud": 4184,
      "##ésus": 4185,
      "déro": 4186,
      "pros": 4187,
      "allaient": 4188,
      "rare": 4189,
      "perdre": 4190,
      "journ": 4191,
      "sortie": 4192,
      "heureuse": 4193,
      "montait": 4194,
      "roues": 4195,
      "payer": 4196,
      "flam": 4197,
      "nouvelle": 4198,
      "salut": 4199,
      "morne": 4200,
      "précisément": 4201,
      "revenir": 4202,
      "curios": 4203,
      "bâton": 4204,
      "ouverture": 4205,
      "providence": 4206,
      "##royable": 4207,
      "Bl": 4208,
      "Hô": 4209,
      "hier": 4210,
      "mères": 4211,
      "ric": 4212,
      "rage": 4213,
      "ride": 4214,
      "##sion": 4215,
      "##lure": 4216,
      "##lante": 4217,
      "##IE": 4218,
      "##ômes": 4219,
      "##itable": 4220,
      "univer": 4221,
      "##quée": 4222,
      "##olique": 4223,
      "déran": 4224,
      "inj": 4225,
      "siff": 4226,
      "branche": 4227,
      "disons": 4228,
      "excelle": 4229,
      "##issance": 4230,
      "cacher": 4231,
      "feuilles": 4232,
      "tourner": 4233,
      "courant": 4234,
      "##termin": 4235,
      "Grâce": 4236,
      "espoir": 4237,
      "tenant": 4238,
      "refus": 4239,
      "184": 4240,
      "patient": 4241,
      "voulut": 4242,
      "repouss": 4243,
      "attaque": 4244,
      "édifices": 4245,
      "succès": 4246,
      "dressa": 4247,
      "auberge": 4248,
      "simplement": 4249,
      "parfum": 4250,
      "universe": 4251,
      "),": 4252,
      "Jésus": 4253,
      "Pard": 4254,
      "bé": 4255,
      "cuis": 4256,
      "forte": 4257,
      "hélas": 4258,
      "maud": 4259,
      "not": 4260,
      "pot": 4261,
      "vac": 4262,
      "île": 4263,
      "##urant": 4264,
      "##chent": 4265,
      "plis": 4266,
      "trous": 4267,
      "##illa": 4268,
      "disent": 4269,
      "##rép": 4270,
      "abat": 4271,
      "##onction": 4272,
      "bouge": 4273,
      "##phin": 4274,
      "accompl": 4275,
      "##ormité": 4276,
      "esprits": 4277,
      "ouvrait": 4278,
      "redress": 4279,
      "nuages": 4280,
      "envie": 4281,
      "##uction": 4282,
      "commença": 4283,
      "angl": 4284,
      "embar": 4285,
      "grec": 4286,
      "masque": 4287,
      "##âteau": 4288,
      "apercevoir": 4289,
      "faudrait": 4290,
      "coiff": 4291,
      "gothique": 4292,
      "Dé": 4293,
      "Dj": 4294,
      "Mes": 4295,
      "dir": 4296,
      "eussent": 4297,
      "gend": 4298,
      "humeur": 4299,
      "pêle": 4300,
      "Ça": 4301,
      "##ètes": 4302,
      "##faud": 4303,
      "étage": 4304,
      "châ": 4305,
      "##iré": 4306,
      "##sibles": 4307,
      "écrou": 4308,
      "allée": 4309,
      "Martin": 4310,
      "conj": 4311,
      "préte": 4312,
      "##ocrat": 4313,
      "appelé": 4314,
      "éclaire": 4315,
      "Montreuil": 4316,
      "reconnaître": 4317,
      "chantait": 4318,
      "fourm": 4319,
      "rentra": 4320,
      "échafaud": 4321,
      "profondeurs": 4322,
      "complète": 4323,
      "oublié": 4324,
      "royale": 4325,
      "aigle": 4326,
      "specta": 4327,
      "dormait": 4328,
      "inexp": 4329,
      "ourque": 4330,
      "Châtelet": 4331,
      "paix": 4332,
      "camar": 4333,
      "corridor": 4334,
      "Djali": 4335,
      "lim": 4336,
      "opin": 4337,
      "pure": 4338,
      "pût": 4339,
      "utile": 4340,
      "##gon": 4341,
      "##grés": 4342,
      "##xte": 4343,
      "##ël": 4344,
      "##aigne": 4345,
      "degrés": 4346,
      "levant": 4347,
      "##rice": 4348,
      "plat": 4349,
      "prê": 4350,
      "réuss": 4351,
      "Ceux": 4352,
      "dispos": 4353,
      "enfance": 4354,
      "contin": 4355,
      "allé": 4356,
      "allant": 4357,
      "clerc": 4358,
      "perru": 4359,
      "frais": 4360,
      "##igneurs": 4361,
      "ferait": 4362,
      "adresse": 4363,
      "pensait": 4364,
      "renvers": 4365,
      "sépar": 4366,
      "Ang": 4367,
      "demandait": 4368,
      "genou": 4369,
      "patron": 4370,
      "guère": 4371,
      "apparition": 4372,
      "rentrer": 4373,
      "Reg": 4374,
      "convul": 4375,
      "antique": 4376,
      "quartier": 4377,
      "observa": 4378,
      "sauvage": 4379,
      "auguste": 4380,
      "monstrueux": 4381,
      "chaussée": 4382,
      "maîtresse": 4383,
      "mélanc": 4384,
      "mystérieuse": 4385,
      "déclar": 4386,
      "céles": 4387,
      "Dis": 4388,
      "Donc": 4389,
      "Lord": 4390,
      "Ni": 4391,
      "bonté": 4392,
      "hu": 4393,
      "mir": 4394,
      "mult": 4395,
      "naï": 4396,
      "vend": 4397,
      "œil": 4398,
      "##mont": 4399,
      "##hous": 4400,
      "##OU": 4401,
      "##aison": 4402,
      "##atoire": 4403,
      "chaud": 4404,
      "##uine": 4405,
      "##auff": 4406,
      "plaît": 4407,
      "décid": 4408,
      "enthous": 4409,
      "anx": 4410,
      "##issante": 4411,
      "sujet": 4412,
      "serpent": 4413,
      "courut": 4414,
      "indiff": 4415,
      "solitude": 4416,
      "vivait": 4417,
      "rive": 4418,
      "bonnet": 4419,
      "étranger": 4420,
      "extrê": 4421,
      "extase": 4422,
      "précaut": 4423,
      "loint": 4424,
      "ignore": 4425,
      "suffisait": 4426,
      "voleur": 4427,
      "lutte": 4428,
      "poudre": 4429,
      "crépuscule": 4430,
      "déserte": 4431,
      "enthousias": 4432,
      "dil": 4433,
      "lis": 4434,
      "orage": 4435,
      "soin": 4436,
      "tue": 4437,
      "tut": 4438,
      "##jour": 4439,
      "enne": 4440,
      "##rophe": 4441,
      "chante": 4442,
      "chass": 4443,
      "##cell": 4444,
      "##icité": 4445,
      "bouches": 4446,
      "recueill": 4447,
      "entends": 4448,
      "monta": 4449,
      "##ientôt": 4450,
      "affir": 4451,
      "indign": 4452,
      "##ntemps": 4453,
      "devenue": 4454,
      "##ellington": 4455,
      "éclata": 4456,
      "échapper": 4457,
      "fantôme": 4458,
      "astres": 4459,
      "éternelle": 4460,
      "français": 4461,
      "extraordinaire": 4462,
      "Franç": 4463,
      "enceinte": 4464,
      "Wellington": 4465,
      "bande": 4466,
      "boss": 4467,
      "creux": 4468,
      "hag": 4469,
      "nauf": 4470,
      "pous": 4471,
      "pun": 4472,
      "prière": 4473,
      "soyez": 4474,
      "##rouve": 4475,
      "##lu": 4476,
      "##o_": 4477,
      "##èse": 4478,
      "##esc": 4479,
      "##ouï": 4480,
      "##onf": 4481,
      "ill": 4482,
      "éternité": 4483,
      "##chées": 4484,
      "##rig": 4485,
      "plaine": 4486,
      "##chet": 4487,
      "##ouvre": 4488,
      "membres": 4489,
      "haï": 4490,
      "coh": 4491,
      "justic": 4492,
      "##étique": 4493,
      "fera": 4494,
      "arrivée": 4495,
      "arrêt": 4496,
      "souvient": 4497,
      "connais": 4498,
      "absor": 4499,
      "cerc": 4500,
      "comprenait": 4501,
      "revenait": 4502,
      "##astille": 4503,
      "distinguer": 4504,
      "princes": 4505,
      "brave": 4506,
      "étroite": 4507,
      "oblig": 4508,
      "événements": 4509,
      "fossoy": 4510,
      "auditoire": 4511,
      "tonnerre": 4512,
      "curiosité": 4513,
      "anglaise": 4514,
      "Den": 4515,
      "IV": 4516,
      "_N": 4517,
      "bro": 4518,
      "cit": 4519,
      "fle": 4520,
      "fous": 4521,
      "firent": 4522,
      "honte": 4523,
      "jure": 4524,
      "rass": 4525,
      "village": 4526,
      "##tal": 4527,
      "##occ": 4528,
      "##niers": 4529,
      "##mon": 4530,
      "##port": 4531,
      "##LE": 4532,
      "##orum": 4533,
      "##llem": 4534,
      "inatte": 4535,
      "inouï": 4536,
      "##ortun": 4537,
      "compris": 4538,
      "mêlé": 4539,
      "exist": 4540,
      "regret": 4541,
      "abb": 4542,
      "abbé": 4543,
      "amus": 4544,
      "Grand": 4545,
      "monte": 4546,
      "##raille": 4547,
      "##quier": 4548,
      "matière": 4549,
      "lumine": 4550,
      "Anne": 4551,
      "reconnu": 4552,
      "difforme": 4553,
      "...--": 4554,
      "continuait": 4555,
      "printemps": 4556,
      "curieux": 4557,
      "piliers": 4558,
      "succes": 4559,
      "ébran": 4560,
      "souter": 4561,
      "suspend": 4562,
      "noctur": 4563,
      "accompagn": 4564,
      "inattend": 4565,
      "Cal": 4566,
      "III": 4567,
      "Peu": 4568,
      "agent": 4569,
      "asile": 4570,
      "cœur": 4571,
      "fré": 4572,
      "fuite": 4573,
      "jadis": 4574,
      "poup": 4575,
      "tire": 4576,
      "vierge": 4577,
      "##ip": 4578,
      "##mit": 4579,
      "##oule": 4580,
      "##ueuse": 4581,
      "chas": 4582,
      "##ceaux": 4583,
      "prêt": 4584,
      "ongles": 4585,
      "##mbourg": 4586,
      "##onnés": 4587,
      "entré": 4588,
      "réch": 4589,
      "##airement": 4590,
      "##apt": 4591,
      "préocc": 4592,
      "barreaux": 4593,
      "nuits": 4594,
      "##édé": 4595,
      "Thé": 4596,
      "gross": 4597,
      "batt": 4598,
      "clocher": 4599,
      "connaît": 4600,
      "histor": 4601,
      "descendre": 4602,
      "ancienne": 4603,
      "violent": 4604,
      "rappro": 4605,
      "repartit": 4606,
      "voudrais": 4607,
      "insurrection": 4608,
      "Nicless": 4609,
      "exécut": 4610,
      "pétrif": 4611,
      "chanson": 4612,
      "intervalles": 4613,
      "ensuite": 4614,
      "araignée": 4615,
      "fossoyeur": 4616,
      "Bou": 4617,
      "Luxe": 4618,
      "Pau": 4619,
      "Ve": 4620,
      "bec": 4621,
      "bot": 4622,
      "bière": 4623,
      "out": 4624,
      "ros": 4625,
      "rug": 4626,
      "##rure": 4627,
      "##oï": 4628,
      "##yès": 4629,
      "##ith": 4630,
      "enj": 4631,
      "avis": 4632,
      "avert": 4633,
      "##chic": 4634,
      "seize": 4635,
      "##ection": 4636,
      "##ardins": 4637,
      "Leur": 4638,
      "écrite": 4639,
      "##oyant": 4640,
      "##ération": 4641,
      "appre": 4642,
      "disaient": 4643,
      "courir": 4644,
      "##ifs": 4645,
      "secours": 4646,
      "##vention": 4647,
      "bourd": 4648,
      "termin": 4649,
      "connu": 4650,
      "servir": 4651,
      "détr": 4652,
      "oubli": 4653,
      "curé": 4654,
      "cuivre": 4655,
      "hideuse": 4656,
      "élég": 4657,
      "chaînes": 4658,
      "releva": 4659,
      "Luxembourg": 4660,
      "Germain": 4661,
      "_la": 4662,
      "bi": 4663,
      "jug": 4664,
      "mue": 4665,
      "pois": 4666,
      "##ly": 4667,
      "##loir": 4668,
      "##lots": 4669,
      "##onse": 4670,
      "établ": 4671,
      "##sivement": 4672,
      "##éré": 4673,
      "marché": 4674,
      "Marie": 4675,
      "chaos": 4676,
      "effroyable": 4677,
      "colle": 4678,
      "soulier": 4679,
      "carros": 4680,
      "ruelle": 4681,
      "crier": 4682,
      "barrière": 4683,
      "##édie": 4684,
      "adoss": 4685,
      "pleurer": 4686,
      "souriant": 4687,
      "##blesse": 4688,
      "aurai": 4689,
      "volé": 4690,
      "bourse": 4691,
      "offrait": 4692,
      "reding": 4693,
      "suivit": 4694,
      "masure": 4695,
      "fatale": 4696,
      "pendu": 4697,
      "remarqué": 4698,
      "engl": 4699,
      "environ": 4700,
      "épouvantable": 4701,
      "gouvernement": 4702,
      "musique": 4703,
      "ténébreux": 4704,
      "fraîche": 4705,
      "quantité": 4706,
      "Peut": 4707,
      "céleste": 4708,
      "anxiété": 4709,
      "justicier": 4710,
      "Bastille": 4711,
      "Dès": 4712,
      "Mil": 4713,
      "bég": 4714,
      "brod": 4715,
      "don": 4716,
      "rumeur": 4717,
      "tante": 4718,
      "tiens": 4719,
      "viend": 4720,
      "##ral": 4721,
      "##vés": 4722,
      "##IS": 4723,
      "##êque": 4724,
      "##neaux": 4725,
      "##iet": 4726,
      "##omyès": 4727,
      "##oré": 4728,
      "##orce": 4729,
      "étages": 4730,
      "lesquels": 4731,
      "chère": 4732,
      "changé": 4733,
      "##alif": 4734,
      "##rad": 4735,
      "##ésie": 4736,
      "##veur": 4737,
      "##olomyès": 4738,
      "##ettes": 4739,
      "##aindre": 4740,
      "écume": 4741,
      "caché": 4742,
      "mod": 4743,
      "compter": 4744,
      "##ancer": 4745,
      "Tholomyès": 4746,
      "##merie": 4747,
      "##venait": 4748,
      "sols": 4749,
      "souffre": 4750,
      "balust": 4751,
      "morceau": 4752,
      "suppos": 4753,
      "Esp": 4754,
      "sauvé": 4755,
      "gardes": 4756,
      "personnages": 4757,
      "quinzième": 4758,
      "éclairait": 4759,
      "Pro": 4760,
      "Vol": 4761,
      "lu": 4762,
      "##tons": 4763,
      "##umes": 4764,
      "##yle": 4765,
      "##relle": 4766,
      "##anvier": 4767,
      "##ison": 4768,
      "avril": 4769,
      "sere": 4770,
      "##roph": 4771,
      "chu": 4772,
      "parts": 4773,
      "##agan": 4774,
      "facile": 4775,
      "prenant": 4776,
      "ramp": 4777,
      "##assade": 4778,
      "sentiment": 4779,
      "##terie": 4780,
      "sourde": 4781,
      "profil": 4782,
      "manque": 4783,
      "humble": 4784,
      "inspec": 4785,
      "finit": 4786,
      "vraie": 4787,
      "cherchait": 4788,
      "fixé": 4789,
      "débou": 4790,
      "profondeur": 4791,
      "##uillet": 4792,
      "demeure": 4793,
      "procureur": 4794,
      "lorsque": 4795,
      "##tenir": 4796,
      "éternel": 4797,
      "ambassade": 4798,
      "tragique": 4799,
      "excepté": 4800,
      "catast": 4801,
      "peuples": 4802,
      "ceinture": 4803,
      "sorcière": 4804,
      "préoccup": 4805,
      "Jamais": 4806,
      "bille": 4807,
      "num": 4808,
      "ty": 4809,
      "taill": 4810,
      "val": 4811,
      "##son": 4812,
      "##ling": 4813,
      "##oll": 4814,
      "##xe": 4815,
      "##pes": 4816,
      "##bri": 4817,
      "##yez": 4818,
      "##AR": 4819,
      "##anvre": 4820,
      "##uration": 4821,
      "eniv": 4822,
      "chap": 4823,
      "chasse": 4824,
      "archev": 4825,
      "##érait": 4826,
      "accus": 4827,
      "charité": 4828,
      "penser": 4829,
      "assise": 4830,
      "escla": 4831,
      "perdue": 4832,
      "cherche": 4833,
      "Maj": 4834,
      "commencer": 4835,
      "songea": 4836,
      "essouff": 4837,
      "##athieu": 4838,
      "religieuse": 4839,
      "ineff": 4840,
      "pronon": 4841,
      "Tenez": 4842,
      "hériss": 4843,
      "reprenait": 4844,
      "vaincu": 4845,
      "Beau": 4846,
      "compagnie": 4847,
      "apparence": 4848,
      "maigre": 4849,
      "tremblement": 4850,
      "tressaillit": 4851,
      "grommela": 4852,
      "inexprim": 4853,
      "Pauvre": 4854,
      "Col": 4855,
      "Digne": 4856,
      "Pol": 4857,
      "Toi": 4858,
      "VI": 4859,
      "_O": 4860,
      "aï": 4861,
      "aise": 4862,
      "fier": 4863,
      "haillons": 4864,
      "ombres": 4865,
      "pais": 4866,
      "pic": 4867,
      "ruine": 4868,
      "##oh": 4869,
      "cho": 4870,
      "chiens": 4871,
      "danseuse": 4872,
      "##riers": 4873,
      "##ribles": 4874,
      "##ttez": 4875,
      "surn": 4876,
      "prieure": 4877,
      "détres": 4878,
      "réd": 4879,
      "grond": 4880,
      "##tées": 4881,
      "quelconque": 4882,
      "anges": 4883,
      "monument": 4884,
      "##orer": 4885,
      "hauss": 4886,
      "dimin": 4887,
      "introd": 4888,
      "Parvis": 4889,
      "permet": 4890,
      "cart": 4891,
      "caress": 4892,
      "coude": 4893,
      "couche": 4894,
      "##ibre": 4895,
      "##chaî": 4896,
      "remuer": 4897,
      "misérables": 4898,
      "##racles": 4899,
      "réser": 4900,
      "confiance": 4901,
      "nuée": 4902,
      "églises": 4903,
      "angles": 4904,
      "vouloir": 4905,
      "Seigneur": 4906,
      "constat": 4907,
      "noble": 4908,
      "pairie": 4909,
      "contempl": 4910,
      "truand": 4911,
      "manquait": 4912,
      "satisf": 4913,
      "Gervaise": 4914,
      "vêtements": 4915,
      "pistolet": 4916,
      "féroce": 4917,
      "Hôtel": 4918,
      "miroir": 4919,
      "cohue": 4920,
      "redingote": 4921,
      "détresse": 4922,
      "Bru": 4923,
      "Cont": 4924,
      "_Q": 4925,
      "dign": 4926,
      "fac": 4927,
      "flotte": 4928,
      "gig": 4929,
      "jup": 4930,
      "lisait": 4931,
      "monn": 4932,
      "puits": 4933,
      "##cour": 4934,
      "##pus": 4935,
      "##men": 4936,
      "##arg": 4937,
      "##usta": 4938,
      "étal": 4939,
      "queue": 4940,
      "##inos": 4941,
      "reti": 4942,
      "développ": 4943,
      "cachot": 4944,
      "Chacun": 4945,
      "##timent": 4946,
      "effac": 4947,
      "##gnes": 4948,
      "tourne": 4949,
      "sorti": 4950,
      "visages": 4951,
      "rouges": 4952,
      "poë": 4953,
      "murailles": 4954,
      "affaires": 4955,
      "indig": 4956,
      "bourg": 4957,
      "souffrance": 4958,
      "phys": 4959,
      "larme": 4960,
      "solenne": 4961,
      "boîte": 4962,
      "##izième": 4963,
      "souper": 4964,
      "quitter": 4965,
      "écoliers": 4966,
      "creus": 4967,
      "existence": 4968,
      "laide": 4969,
      "superbe": 4970,
      "spé": 4971,
      "silencieux": 4972,
      "fatigue": 4973,
      "Henri": 4974,
      "mendiant": 4975,
      "orgueil": 4976,
      "bossu": 4977,
      "poupée": 4978,
      "Majesté": 4979,
      "physion": 4980,
      "And": 4981,
      "Avant": 4982,
      "Di": 4983,
      "Sal": 4984,
      "_p": 4985,
      "laine": 4986,
      "mér": 4987,
      "mangé": 4988,
      "paque": 4989,
      "tais": 4990,
      "##lis": 4991,
      "##can": 4992,
      "##oué": 4993,
      "##tell": 4994,
      "enveloppe": 4995,
      "celles": 4996,
      "avance": 4997,
      "##atures": 4998,
      "rej": 4999,
      "parche": 5000,
      "##mbe": 5001,
      "entrailles": 5002,
      "##ondes": 5003,
      "##aph": 5004,
      "poids": 5005,
      "servait": 5006,
      "##tive": 5007,
      "coupe": 5008,
      "##ancé": 5009,
      "évident": 5010,
      "##ouvez": 5011,
      "empire": 5012,
      "pote": 5013,
      "observ": 5014,
      "infér": 5015,
      "arrêté": 5016,
      "nuées": 5017,
      "fiacre": 5018,
      "rayonnement": 5019,
      "commencé": 5020,
      "rocher": 5021,
      "mouch": 5022,
      "produit": 5023,
      "quitté": 5024,
      "remarqua": 5025,
      "probable": 5026,
      "XIV": 5027,
      "baissa": 5028,
      "joyeuse": 5029,
      "ouragan": 5030,
      "Entre": 5031,
      "satisfait": 5032,
      "Bourbon": 5033,
      "répliqua": 5034,
      "parfaitement": 5035,
      "drapeau": 5036,
      "gaîté": 5037,
      "conversation": 5038,
      "poussière": 5039,
      "cercueil": 5040,
      "balustrade": 5041,
      "Brujon": 5042,
      "parchemin": 5043,
      "Allez": 5044,
      "Boul": 5045,
      "Gen": 5046,
      "Hé": 5047,
      "Sat": 5048,
      "bag": 5049,
      "caill": 5050,
      "lé": 5051,
      "mul": 5052,
      "sar": 5053,
      "##ache": 5054,
      "##olles": 5055,
      "##mm": 5056,
      "##fou": 5057,
      "##oug": 5058,
      "##erai": 5059,
      "##arque": 5060,
      "##anté": 5061,
      "##orde": 5062,
      "##chons": 5063,
      "sem": 5064,
      "##ésar": 5065,
      "##late": 5066,
      "train": 5067,
      "##sique": 5068,
      "réponse": 5069,
      "Parce": 5070,
      "perpét": 5071,
      "org": 5072,
      "barre": 5073,
      "accabl": 5074,
      "##beau": 5075,
      "pleurs": 5076,
      "pop": 5077,
      "poêle": 5078,
      "saisi": 5079,
      "pouvant": 5080,
      "insu": 5081,
      "##iquée": 5082,
      "tables": 5083,
      "agonie": 5084,
      "pencha": 5085,
      "185": 5086,
      "pattes": 5087,
      "jouait": 5088,
      "profonds": 5089,
      "immédi": 5090,
      "sacrée": 5091,
      "priv": 5092,
      "juges": 5093,
      "fixe": 5094,
      "éteint": 5095,
      "rendu": 5096,
      "déliv": 5097,
      "joli": 5098,
      "dégage": 5099,
      "puissant": 5100,
      "statues": 5101,
      "examina": 5102,
      "tapiss": 5103,
      "chauve": 5104,
      "détails": 5105,
      "énigme": 5106,
      "Denis": 5107,
      "Espagne": 5108,
      "bientôt": 5109,
      "cort": 5110,
      "cours": 5111,
      "file": 5112,
      "janvier": 5113,
      "rig": 5114,
      "##uments": 5115,
      "##ires": 5116,
      "##TE": 5117,
      "qualif": 5118,
      "estrade": 5119,
      "##rième": 5120,
      "pli": 5121,
      "##rachic": 5122,
      "sable": 5123,
      "sabre": 5124,
      "##irg": 5125,
      "##illefou": 5126,
      "entier": 5127,
      "réussi": 5128,
      "grat": 5129,
      "probl": 5130,
      "##illés": 5131,
      "##illerie": 5132,
      "##oyons": 5133,
      "appui": 5134,
      "toucher": 5135,
      "Quat": 5136,
      "##réc": 5137,
      "contr": 5138,
      "épous": 5139,
      "Chante": 5140,
      "fruit": 5141,
      "tournait": 5142,
      "couché": 5143,
      "accord": 5144,
      "charp": 5145,
      "foudre": 5146,
      "longs": 5147,
      "pouvaient": 5148,
      "indiv": 5149,
      "traversa": 5150,
      "##raction": 5151,
      "voisine": 5152,
      "salon": 5153,
      "servi": 5154,
      "guen": 5155,
      "comprends": 5156,
      "aperçu": 5157,
      "paysan": 5158,
      "stupeur": 5159,
      "réfug": 5160,
      "_La": 5161,
      "éléph": 5162,
      "éblouissement": 5163,
      "poignard": 5164,
      "splende": 5165,
      "Rép": 5166,
      "française": 5167,
      "entrevoyait": 5168,
      "reçu": 5169,
      "Trouillefou": 5170,
      "splendide": 5171,
      "englout": 5172,
      "spéci": 5173,
      "##rachicos": 5174,
      "Touss": 5175,
      "],": 5176,
      "_I": 5177,
      "cant": 5178,
      "dois": 5179,
      "danger": 5180,
      "lys": 5181,
      "nord": 5182,
      "page": 5183,
      "rares": 5184,
      "saill": 5185,
      "villes": 5186,
      "##mis": 5187,
      "##êche": 5188,
      "##êts": 5189,
      "degré": 5190,
      "aurez": 5191,
      "onze": 5192,
      "inv": 5193,
      "##illant": 5194,
      "##ulg": 5195,
      "brouss": 5196,
      "temple": 5197,
      "fame": 5198,
      "maréch": 5199,
      "tuer": 5200,
      "regardaient": 5201,
      "orient": 5202,
      "##ims": 5203,
      "accout": 5204,
      "pleure": 5205,
      "##loge": 5206,
      "premières": 5207,
      "consé": 5208,
      "assassin": 5209,
      "vents": 5210,
      "accept": 5211,
      "182": 5212,
      "balbut": 5213,
      "prier": 5214,
      "expri": 5215,
      "embrass": 5216,
      "intérêt": 5217,
      "intérieure": 5218,
      "rendait": 5219,
      "noeu": 5220,
      "Reims": 5221,
      "considéra": 5222,
      "religieuses": 5223,
      "bleue": 5224,
      "singulière": 5225,
      "_Le": 5226,
      "seigneurie": 5227,
      "racont": 5228,
      "Château": 5229,
      "Écoutez": 5230,
      "_Je": 5231,
      "Aucun": 5232,
      "##archie": 5233,
      "vicomte": 5234,
      "victoire": 5235,
      "extrême": 5236,
      "enjamb": 5237,
      "Toussaint": 5238,
      "Der": 5239,
      "]!": 5240,
      "aisément": 5241,
      "fureur": 5242,
      "jardins": 5243,
      "sueur": 5244,
      "âpre": 5245,
      "##érent": 5246,
      "##guer": 5247,
      "##ave": 5248,
      "##ake": 5249,
      "##naire": 5250,
      "##ouille": 5251,
      "##erons": 5252,
      "##tez": 5253,
      "chê": 5254,
      "duquel": 5255,
      "auprès": 5256,
      "inqu": 5257,
      "##lame": 5258,
      "haleine": 5259,
      "chambres": 5260,
      "chausse": 5261,
      "effront": 5262,
      "sortant": 5263,
      "impression": 5264,
      "bloc": 5265,
      "visite": 5266,
      "quatrième": 5267,
      "mépris": 5268,
      "remu": 5269,
      "secr": 5270,
      "secousse": 5271,
      "mitraille": 5272,
      "défaut": 5273,
      "coins": 5274,
      "trib": 5275,
      "précéd": 5276,
      "pareille": 5277,
      "expliquer": 5278,
      "rêveur": 5279,
      "torture": 5280,
      "condamnée": 5281,
      "##tenu": 5282,
      "rappelle": 5283,
      "réfléch": 5284,
      "furieux": 5285,
      "bandits": 5286,
      "##pital": 5287,
      "ruisseau": 5288,
      "règle": 5289,
      "désespéré": 5290,
      "affreuse": 5291,
      "Picpus": 5292,
      "Noël": 5293,
      "Théod": 5294,
      "Voltaire": 5295,
      "Basque": 5296,
      "Cer": 5297,
      "César": 5298,
      "Heure": 5299,
      "Louvre": 5300,
      "_V": 5301,
      "fid": 5302,
      "folie": 5303,
      "sois": 5304,
      "silh": 5305,
      "##tas": 5306,
      "##cas": 5307,
      "##uche": 5308,
      "##esses": 5309,
      "##ren": 5310,
      "##itant": 5311,
      "##isé": 5312,
      "étonné": 5313,
      "étonnement": 5314,
      "repl": 5315,
      "sachant": 5316,
      "pourpre": 5317,
      "prêtres": 5318,
      "##agé": 5319,
      "Celui": 5320,
      "comprit": 5321,
      "##inent": 5322,
      "exil": 5323,
      "##um_": 5324,
      "cost": 5325,
      "crâ": 5326,
      "empre": 5327,
      "##ignit": 5328,
      "espagn": 5329,
      "décro": 5330,
      "agen": 5331,
      "appellent": 5332,
      "dépass": 5333,
      "fourn": 5334,
      "Savez": 5335,
      "débat": 5336,
      "Monseigneur": 5337,
      "mouche": 5338,
      "rub": 5339,
      "ordonn": 5340,
      "mena": 5341,
      "ébau": 5342,
      "blancheur": 5343,
      "tremblait": 5344,
      "prévô": 5345,
      "soif": 5346,
      "poings": 5347,
      "voyageur": 5348,
      "faudra": 5349,
      "pantal": 5350,
      "cahute": 5351,
      "tigre": 5352,
      "referma": 5353,
      "Faites": 5354,
      "hagard": 5355,
      "nocturne": 5356,
      "numéro": 5357,
      "gigantes": 5358,
      "physionomie": 5359,
      "popula": 5360,
      "individ": 5361,
      "Con": 5362,
      "Comb": 5363,
      "Mess": 5364,
      "Rym": 5365,
      "South": 5366,
      "XX": 5367,
      "cise": 5368,
      "dirait": 5369,
      "iss": 5370,
      "ut": 5371,
      "##imes": 5372,
      "##IN": 5373,
      "##ME": 5374,
      "##erse": 5375,
      "##lets": 5376,
      "lament": 5377,
      "##us_": 5378,
      "##inées": 5379,
      "planche": 5380,
      "##rables": 5381,
      "##mph": 5382,
      "##oli": 5383,
      "ond": 5384,
      "entrant": 5385,
      "##icule": 5386,
      "##apent": 5387,
      "approche": 5388,
      "aide": 5389,
      "##onnez": 5390,
      "##réable": 5391,
      "marches": 5392,
      "bel": 5393,
      "clin": 5394,
      "souci": 5395,
      "comprachicos": 5396,
      "prépar": 5397,
      "crimine": 5398,
      "accusé": 5399,
      "senti": 5400,
      "roug": 5401,
      "porté": 5402,
      "donnée": 5403,
      "saisir": 5404,
      "soie": 5405,
      "verme": 5406,
      "infir": 5407,
      "seuls": 5408,
      "Puisque": 5409,
      "énormes": 5410,
      "greff": 5411,
      "transpare": 5412,
      "social": 5413,
      "ponts": 5414,
      "écouter": 5415,
      "déchar": 5416,
      "véritable": 5417,
      "tremblant": 5418,
      "glace": 5419,
      "entraî": 5420,
      "échappait": 5421,
      "dormir": 5422,
      "conseil": 5423,
      "menton": 5424,
      "marchand": 5425,
      "maladie": 5426,
      "paupières": 5427,
      "tristesse": 5428,
      "Regarde": 5429,
      "multitude": 5430,
      "ineffable": 5431,
      "aïeu": 5432,
      "cortège": 5433,
      "guenilles": 5434,
      "éléphant": 5435,
      "Southw": 5436,
      "Mr": 5437,
      "Ter": 5438,
      "_F": 5439,
      "cout": 5440,
      "fan": 5441,
      "ivre": 5442,
      "mens": 5443,
      "mass": 5444,
      "ours": 5445,
      "pa": 5446,
      "pans": 5447,
      "pouvez": 5448,
      "rout": 5449,
      "tât": 5450,
      "var": 5451,
      "wapent": 5452,
      "##otte": 5453,
      "##ôles": 5454,
      "##uster": 5455,
      "##ueurs": 5456,
      "##roit": 5457,
      "parlez": 5458,
      "##rion": 5459,
      "##quait": 5460,
      "##ffre": 5461,
      "détermin": 5462,
      "invent": 5463,
      "##uité": 5464,
      "##acune": 5465,
      "monuments": 5466,
      "deviner": 5467,
      "marchant": 5468,
      "##ensé": 5469,
      "Chose": 5470,
      "encl": 5471,
      "dial": 5472,
      "amours": 5473,
      "cocher": 5474,
      "inté": 5475,
      "malgré": 5476,
      "impert": 5477,
      "portière": 5478,
      "souris": 5479,
      "ouvrier": 5480,
      "habits": 5481,
      "sanglot": 5482,
      "joues": 5483,
      "voisins": 5484,
      "balcon": 5485,
      "besogne": 5486,
      "monstres": 5487,
      "approchait": 5488,
      "enseigne": 5489,
      "##aignait": 5490,
      "reprendre": 5491,
      "laideur": 5492,
      "bénéd": 5493,
      "circul": 5494,
      "##oureuse": 5495,
      "plateau": 5496,
      "Robert": 5497,
      "carrefour": 5498,
      "réel": 5499,
      "groupes": 5500,
      "arrête": 5501,
      "machinalement": 5502,
      "archevêque": 5503,
      "inexprimable": 5504,
      "paquet": 5505,
      "agenou": 5506,
      ";--": 5507,
      "Pr": 5508,
      "dort": 5509,
      "eaux": 5510,
      "lourde": 5511,
      "maint": 5512,
      "mun": 5513,
      "rouv": 5514,
      "##appe": 5515,
      "##cés": 5516,
      "##crip": 5517,
      "##uge": 5518,
      "##ôtre": 5519,
      "##meur": 5520,
      "##ark": 5521,
      "##omét": 5522,
      "##ores": 5523,
      "lesquelles": 5524,
      "parap": 5525,
      "##quais": 5526,
      "##ulaire": 5527,
      "mêlés": 5528,
      "##ications": 5529,
      "bruy": 5530,
      "fausse": 5531,
      "encomb": 5532,
      "coupé": 5533,
      "égar": 5534,
      "coudes": 5535,
      "recula": 5536,
      "blême": 5537,
      "désh": 5538,
      "quator": 5539,
      "assaill": 5540,
      "retrouve": 5541,
      "rendez": 5542,
      "instr": 5543,
      "solitaire": 5544,
      "##oiement": 5545,
      "résult": 5546,
      "reflet": 5547,
      "suivi": 5548,
      "connaissait": 5549,
      "anciens": 5550,
      "émotion": 5551,
      "cuirass": 5552,
      "brisé": 5553,
      "usage": 5554,
      "torche": 5555,
      "insurgés": 5556,
      "douter": 5557,
      "permis": 5558,
      "transform": 5559,
      "matelas": 5560,
      "posséd": 5561,
      "distinctement": 5562,
      "précaution": 5563,
      "illum": 5564,
      "privil": 5565,
      "Southwark": 5566,
      "wapentake": 5567,
      "Dom": 5568,
      "_le": 5569,
      "bû": 5570,
      "fél": 5571,
      "fuir": 5572,
      "iv": 5573,
      "opér": 5574,
      "pé": 5575,
      "éner": 5576,
      "##écile": 5577,
      "##ni": 5578,
      "##nons": 5579,
      "##pers": 5580,
      "##jou": 5581,
      "##mence": 5582,
      "##anterie": 5583,
      "##ensible": 5584,
      "parlaient": 5585,
      "##alg": 5586,
      "plaint": 5587,
      "surpre": 5588,
      "##uisait": 5589,
      "##ict": 5590,
      "vieill": 5591,
      "rest": 5592,
      "asp": 5593,
      "amalg": 5594,
      "forces": 5595,
      "direction": 5596,
      "tourné": 5597,
      "sentant": 5598,
      "##aillon": 5599,
      "fouet": 5600,
      "##plend": 5601,
      "verge": 5602,
      "riant": 5603,
      "rires": 5604,
      "phras": 5605,
      "actions": 5606,
      "défense": 5607,
      "évêques": 5608,
      "vagab": 5609,
      "ajoutait": 5610,
      "difformité": 5611,
      "##oulin": 5612,
      "espèces": 5613,
      "gueule": 5614,
      "palpit": 5615,
      "approcher": 5616,
      "revenu": 5617,
      "remarquer": 5618,
      "communes": 5619,
      "descendait": 5620,
      "prends": 5621,
      "chandelles": 5622,
      "sculp": 5623,
      "Plume": 5624,
      "compagnon": 5625,
      "souleva": 5626,
      "##ionnaire": 5627,
      "aîné": 5628,
      "immensité": 5629,
      "dîner": 5630,
      "Théodule": 5631,
      "Babet": 5632,
      "Herm": 5633,
      "Rou": 5634,
      "St": 5635,
      "_m": 5636,
      "cél": 5637,
      "##rand": 5638,
      "##rains": 5639,
      "##uf": 5640,
      "##aim": 5641,
      "##ouches": 5642,
      "dente": 5643,
      "##anes": 5644,
      "##nel": 5645,
      "levé": 5646,
      "##tenait": 5647,
      "##rières": 5648,
      "##ttent": 5649,
      "##olée": 5650,
      "##chement": 5651,
      "inond": 5652,
      "##onna": 5653,
      "tron": 5654,
      "trés": 5655,
      "prost": 5656,
      "##otions": 5657,
      "##érie": 5658,
      "vieil": 5659,
      "##rét": 5660,
      "marteau": 5661,
      "contraire": 5662,
      "##aissent": 5663,
      "Che": 5664,
      "##tige": 5665,
      "courage": 5666,
      "arriv": 5667,
      "soeurs": 5668,
      "renf": 5669,
      "volée": 5670,
      "indust": 5671,
      "venez": 5672,
      "agon": 5673,
      "rêves": 5674,
      "envoy": 5675,
      "suiv": 5676,
      "...»": 5677,
      "irré": 5678,
      "osc": 5679,
      "présenta": 5680,
      "raisons": 5681,
      "fatalité": 5682,
      "sauve": 5683,
      "garder": 5684,
      "sociale": 5685,
      "humaines": 5686,
      "ordres": 5687,
      "éclairée": 5688,
      "savais": 5689,
      "arracher": 5690,
      "apost": 5691,
      "poignée": 5692,
      "baisers": 5693,
      "absolu": 5694,
      "prodigieux": 5695,
      "innocence": 5696,
      "augment": 5697,
      "éclairé": 5698,
      "considérait": 5699,
      "règne": 5700,
      "cavalerie": 5701,
      "témoin": 5702,
      "veulent": 5703,
      "titre": 5704,
      "ogive": 5705,
      "remettre": 5706,
      "désordre": 5707,
      "enthousiasme": 5708,
      "contemplation": 5709,
      "multi": 5710,
      "Quatre": 5711,
      "chaussetier": 5712,
      "Plumet": 5713,
      "Ex": 5714,
      "Gis": 5715,
      "LE": 5716,
      "Vén": 5717,
      "Viens": 5718,
      "cire": 5719,
      "fonction": 5720,
      "hâte": 5721,
      "nul": 5722,
      "pout": 5723,
      "sque": 5724,
      "Était": 5725,
      "##cent": 5726,
      "##iants": 5727,
      "##ivement": 5728,
      "##èmes": 5729,
      "##bur": 5730,
      "##reurs": 5731,
      "##urb": 5732,
      "sein": 5733,
      "##atrue": 5734,
      "aum": 5735,
      "auteur": 5736,
      "##trer": 5737,
      "##ffes": 5738,
      "incident": 5739,
      "réun": 5740,
      "##érité": 5741,
      "serai": 5742,
      "crainte": 5743,
      "caract": 5744,
      "##ader": 5745,
      "partage": 5746,
      "Thunes": 5747,
      "possibles": 5748,
      "inclin": 5749,
      "jetant": 5750,
      "vivante": 5751,
      "terrain": 5752,
      "défin": 5753,
      "perdait": 5754,
      "refl": 5755,
      "absence": 5756,
      "sacrif": 5757,
      "fatal": 5758,
      "gardé": 5759,
      "minuit": 5760,
      "huitième": 5761,
      "pièces": 5762,
      "parents": 5763,
      "##éroï": 5764,
      "fantais": 5765,
      "occupé": 5766,
      "tiré": 5767,
      "jambe": 5768,
      "amende": 5769,
      "##lexion": 5770,
      "pesant": 5771,
      "bateau": 5772,
      "recevoir": 5773,
      "supérieure": 5774,
      "robes": 5775,
      "générale": 5776,
      "contenait": 5777,
      "symbole": 5778,
      "spectateurs": 5779,
      "obligé": 5780,
      "bottes": 5781,
      "Milord": 5782,
      "paisible": 5783,
      "Boulatrue": 5784,
      "Derrière": 5785,
      "issue": 5786,
      "squele": 5787,
      "Boulatruelle": 5788,
      "Av": 5789,
      "Fe": 5790,
      "Fav": 5791,
      "QU": 5792,
      "_s": 5793,
      "cint": 5794,
      "emme": 5795,
      "fît": 5796,
      "fasse": 5797,
      "héroï": 5798,
      "oct": 5799,
      "tonne": 5800,
      "vid": 5801,
      "##ich": 5802,
      "##bert": 5803,
      "##fleur": 5804,
      "##âme": 5805,
      "lame": 5806,
      "laquais": 5807,
      "##itoy": 5808,
      "##arité": 5809,
      "envers": 5810,
      "enchaî": 5811,
      "changer": 5812,
      "##rions": 5813,
      "songes": 5814,
      "##vel": 5815,
      "##eté": 5816,
      "##lab": 5817,
      "gran": 5818,
      "process": 5819,
      "##sives": 5820,
      "appét": 5821,
      "resplend": 5822,
      "assi": 5823,
      "regardé": 5824,
      "soud": 5825,
      "intent": 5826,
      "puisse": 5827,
      "bouc": 5828,
      "bouill": 5829,
      "complet": 5830,
      "chargé": 5831,
      "roule": 5832,
      "cornes": 5833,
      "pudeur": 5834,
      "insp": 5835,
      "boutique": 5836,
      "cherchant": 5837,
      "absent": 5838,
      "artillerie": 5839,
      "disparaître": 5840,
      "chevalier": 5841,
      "néant": 5842,
      "éclatant": 5843,
      "murmure": 5844,
      "##ession": 5845,
      "lâche": 5846,
      "promen": 5847,
      "Temple": 5848,
      "furie": 5849,
      "ignorance": 5850,
      "occupait": 5851,
      "borne": 5852,
      "messire": 5853,
      "trompe": 5854,
      "abandonné": 5855,
      "funèbre": 5856,
      "dirigea": 5857,
      "transfig": 5858,
      "sérén": 5859,
      "millions": 5860,
      "ennui": 5861,
      "sourcil": 5862,
      "galetas": 5863,
      "jalous": 5864,
      "ingén": 5865,
      "chaste": 5866,
      "inspecteur": 5867,
      "choeur": 5868,
      "immédiate": 5869,
      "populace": 5870,
      "Lai": 5871,
      "Sais": 5872,
      "Trois": 5873,
      "_l": 5874,
      "faces": 5875,
      "gém": 5876,
      "herm": 5877,
      "hyp": 5878,
      "nég": 5879,
      "suit": 5880,
      "santé": 5881,
      "tale": 5882,
      "##éh": 5883,
      "##mathieu": 5884,
      "##OR": 5885,
      "qualité": 5886,
      "las": 5887,
      "##itution": 5888,
      "unes": 5889,
      "##chère": 5890,
      "##utin": 5891,
      "chaises": 5892,
      "planches": 5893,
      "##ram": 5894,
      "sache": 5895,
      "savent": 5896,
      "surg": 5897,
      "sonner": 5898,
      "arc": 5899,
      "##uisit": 5900,
      "##onniers": 5901,
      "##agnes": 5902,
      "touché": 5903,
      "marcha": 5904,
      "pelle": 5905,
      "rall": 5906,
      "diam": 5907,
      "amère": 5908,
      "effarou": 5909,
      "Enf": 5910,
      "bouff": 5911,
      "##istres": 5912,
      "frat": 5913,
      "courb": 5914,
      "blas": 5915,
      "charme": 5916,
      "montrant": 5917,
      "##vah": 5918,
      "donnant": 5919,
      "assaut": 5920,
      "posé": 5921,
      "##drez": 5922,
      "livide": 5923,
      "act": 5924,
      "arrêtait": 5925,
      "déjeu": 5926,
      "habituellement": 5927,
      "sanglots": 5928,
      "jouer": 5929,
      "profondes": 5930,
      "vase": 5931,
      "artiste": 5932,
      "massif": 5933,
      "pousser": 5934,
      "architec": 5935,
      "##lamation": 5936,
      "gaz": 5937,
      "souvenirs": 5938,
      "torches": 5939,
      "rangs": 5940,
      "innocent": 5941,
      "frémissement": 5942,
      "doré": 5943,
      "vénérable": 5944,
      "illusion": 5945,
      "signifie": 5946,
      "brouillard": 5947,
      "effaré": 5948,
      "éperdu": 5949,
      "1815": 5950,
      "équil": 5951,
      "oppos": 5952,
      "ménage": 5953,
      "Champmathieu": 5954,
      "##matique": 5955,
      "flamands": 5956,
      "abbaye": 5957,
      "cartouches": 5958,
      "Aj": 5959,
      "Avez": 5960,
      "Bourg": 5961,
      "Fl": 5962,
      "Gonde": 5963,
      "Gud": 5964,
      "Soit": 5965,
      "Tel": 5966,
      "Vou": 5967,
      "fuit": 5968,
      "fussent": 5969,
      "mirent": 5970,
      "mène": 5971,
      "muet": 5972,
      "odeur": 5973,
      "pomme": 5974,
      "tirait": 5975,
      "##rité": 5976,
      "##tants": 5977,
      "##lys": 5978,
      "##mage": 5979,
      "##monie": 5980,
      "##pé": 5981,
      "##IL": 5982,
      "##UR": 5983,
      "##aig": 5984,
      "deniers": 5985,
      "##anque": 5986,
      "##ision": 5987,
      "##nev": 5988,
      "lent": 5989,
      "avou": 5990,
      "étre": 5991,
      "##chèrent": 5992,
      "surveill": 5993,
      "##oly": 5994,
      "##laurier": 5995,
      "##onnerie": 5996,
      "##illaient": 5997,
      "disci": 5998,
      "maç": 5999,
      "touchait": 6000,
      "marm": 6001,
      "autrement": 6002,
      "##aissant": 6003,
      "Chanvre": 6004,
      "race": 6005,
      "amant": 6006,
      "forcé": 6007,
      "perf": 6008,
      "couchant": 6009,
      "accour": 6010,
      "ferai": 6011,
      "impat": 6012,
      "import": 6013,
      "répondu": 6014,
      "Aug": 6015,
      "##rasse": 6016,
      "incend": 6017,
      "indé": 6018,
      "infortun": 6019,
      "souffles": 6020,
      "tenaient": 6021,
      "flanc": 6022,
      "escabe": 6023,
      "coloss": 6024,
      "ajouter": 6025,
      "certes": 6026,
      "servante": 6027,
      "irrit": 6028,
      "révolte": 6029,
      "révolutions": 6030,
      "rendit": 6031,
      "comprend": 6032,
      "aigu": 6033,
      "succéd": 6034,
      "ouvertes": 6035,
      "voleurs": 6036,
      "cramp": 6037,
      "plumes": 6038,
      "descendit": 6039,
      "réveiller": 6040,
      "Belle": 6041,
      "harmonie": 6042,
      "péril": 6043,
      "1830": 6044,
      "Aucune": 6045,
      "héros": 6046,
      "État": 6047,
      "honorable": 6048,
      "Portland": 6049,
      "fleuve": 6050,
      "carrosse": 6051,
      "##ustache": 6052,
      "retira": 6053,
      "potence": 6054,
      "Chantefleur": 6055,
      "##guerite": 6056,
      "Certes": 6057,
      "Gondelaurier": 6058,
      "Gudule": 6059,
      "Chanvrerie": 6060,
      "Chantefleurie": 6061,
      "EN": 6062,
      "Eustache": 6063,
      "Tou": 6064,
      "_B": 6065,
      "bise": 6066,
      "balles": 6067,
      "da": 6068,
      "date": 6069,
      "jaill": 6070,
      "lait": 6071,
      "orig": 6072,
      "pign": 6073,
      "pente": 6074,
      "vig": 6075,
      "vib": 6076,
      "vaisse": 6077,
      "##étrer": 6078,
      "##app": 6079,
      "##yth": 6080,
      "##aies": 6081,
      "##ueusement": 6082,
      "##rot": 6083,
      "château": 6084,
      "rejet": 6085,
      "plaie": 6086,
      "##ierges": 6087,
      "##quise": 6088,
      "##ardes": 6089,
      "##mbla": 6090,
      "grise": 6091,
      "proté": 6092,
      "##érien": 6093,
      "fav": 6094,
      "##ingts": 6095,
      "trah": 6096,
      "##timb": 6097,
      "effa": 6098,
      "venant": 6099,
      "Devant": 6100,
      "carte": 6101,
      "##iève": 6102,
      "appel": 6103,
      "pleines": 6104,
      "traversé": 6105,
      "ouvrage": 6106,
      "gravement": 6107,
      "reconnaissance": 6108,
      "##angeau": 6109,
      "apparaissait": 6110,
      "saltimb": 6111,
      "expéd": 6112,
      "débord": 6113,
      "oublier": 6114,
      "fallu": 6115,
      "##ousseau": 6116,
      "canons": 6117,
      "trembler": 6118,
      "traînait": 6119,
      "hérit": 6120,
      "Tourne": 6121,
      "panier": 6122,
      "circ": 6123,
      "étendit": 6124,
      "effrayante": 6125,
      "événement": 6126,
      "résistance": 6127,
      "bouteille": 6128,
      "flambeaux": 6129,
      "magistrat": 6130,
      "trép": 6131,
      "Genev": 6132,
      "sagesse": 6133,
      "imbécile": 6134,
      "souveraine": 6135,
      "perruque": 6136,
      "inquiet": 6137,
      "costume": 6138,
      "crâne": 6139,
      "pantalon": 6140,
      "Combien": 6141,
      "trésor": 6142,
      "procession": 6143,
      "Laigle": 6144,
      "Geneviève": 6145,
      "Go": 6146,
      "Imp": 6147,
      "Per": 6148,
      "Pier": 6149,
      "Res": 6150,
      "Sc": 6151,
      "Ton": 6152,
      "aust": 6153,
      "ayez": 6154,
      "cand": 6155,
      "dieux": 6156,
      "far": 6157,
      "fière": 6158,
      "juillet": 6159,
      "lan": 6160,
      "mousse": 6161,
      "médi": 6162,
      "nou": 6163,
      "rasse": 6164,
      "rud": 6165,
      "tab": 6166,
      "##rut": 6167,
      "##lants": 6168,
      "##uyant": 6169,
      "##mn": 6170,
      "##èce": 6171,
      "##vén": 6172,
      "##dé": 6173,
      "quorum": 6174,
      "##arte": 6175,
      "##ourite": 6176,
      "seau": 6177,
      "seizième": 6178,
      "danse": 6179,
      "parvint": 6180,
      "savant": 6181,
      "surpris": 6182,
      "prie": 6183,
      "onde": 6184,
      "départ": 6185,
      "enterre": 6186,
      "restée": 6187,
      "##iteux": 6188,
      "serrure": 6189,
      "voiles": 6190,
      "trace": 6191,
      "encre": 6192,
      "puisqu": 6193,
      "frères": 6194,
      "carrés": 6195,
      "course": 6196,
      "fermer": 6197,
      "tombée": 6198,
      "##ayonne": 6199,
      "montrait": 6200,
      "Aujourd": 6201,
      "poésie": 6202,
      "idi": 6203,
      "##venir": 6204,
      "image": 6205,
      "redoute": 6206,
      "frag": 6207,
      "derniers": 6208,
      "étranges": 6209,
      "drame": 6210,
      "gueux": 6211,
      "grelot": 6212,
      "pénétrer": 6213,
      "légit": 6214,
      "royauté": 6215,
      "croyais": 6216,
      "officiers": 6217,
      "glaci": 6218,
      "frisson": 6219,
      "mirac": 6220,
      "##landre": 6221,
      "étroit": 6222,
      "adressa": 6223,
      "gentilh": 6224,
      "cessé": 6225,
      "avança": 6226,
      "redoubl": 6227,
      "bégay": 6228,
      "dignité": 6229,
      "maréchal": 6230,
      "Châteaupers": 6231,
      "prévôté": 6232,
      "Vénus": 6233,
      "Favourite": 6234,
      "granit": 6235,
      "gentilhomme": 6236,
      "Auster": 6237,
      "Flam": 6238,
      "Flandre": 6239,
      "Même": 6240,
      "_H": 6241,
      "bond": 6242,
      "casse": 6243,
      "dalle": 6244,
      "gonds": 6245,
      "gonf": 6246,
      "lin": 6247,
      "lèvre": 6248,
      "mans": 6249,
      "##raine": 6250,
      "##nie": 6251,
      "##ènes": 6252,
      "##bilité": 6253,
      "##di": 6254,
      "##ham": 6255,
      "##ER": 6256,
      "##estes": 6257,
      "##ouci": 6258,
      "##ouvert": 6259,
      "##rets": 6260,
      "lambe": 6261,
      "levait": 6262,
      "##ind": 6263,
      "##endez": 6264,
      "rez": 6265,
      "##rate": 6266,
      "nette": 6267,
      "surs": 6268,
      "sonore": 6269,
      "prud": 6270,
      "##onnière": 6271,
      "Leurs": 6272,
      "dite": 6273,
      "protes": 6274,
      "mêlait": 6275,
      "##acité": 6276,
      "##orel": 6277,
      "##olette": 6278,
      "tuy": 6279,
      "abomin": 6280,
      "passaient": 6281,
      "encor": 6282,
      "clas": 6283,
      "venus": 6284,
      "courait": 6285,
      "courte": 6286,
      "baraque": 6287,
      "pleu": 6288,
      "pleurait": 6289,
      "souriait": 6290,
      "##igné": 6291,
      "##upté": 6292,
      "##ogra": 6293,
      "volupté": 6294,
      "indist": 6295,
      "bourru": 6296,
      "##assement": 6297,
      "phén": 6298,
      "acte": 6299,
      "demandé": 6300,
      "commis": 6301,
      "command": 6302,
      "voitures": 6303,
      "droits": 6304,
      "frappe": 6305,
      "fronts": 6306,
      "grill": 6307,
      "relief": 6308,
      "apparaît": 6309,
      "##ectures": 6310,
      "barricades": 6311,
      "attaché": 6312,
      "royaume": 6313,
      "Arras": 6314,
      "inconnue": 6315,
      "pilier": 6316,
      "spectres": 6317,
      "médecine": 6318,
      "majest": 6319,
      "écriture": 6320,
      "divine": 6321,
      "gouttes": 6322,
      "précipita": 6323,
      "prononcer": 6324,
      "sûre": 6325,
      "excès": 6326,
      "gagné": 6327,
      "gagner": 6328,
      "laid": 6329,
      "essaya": 6330,
      "drôles": 6331,
      "tapis": 6332,
      "monstrueuse": 6333,
      "##nnent": 6334,
      "endormi": 6335,
      "diverses": 6336,
      "objets": 6337,
      "inquiétude": 6338,
      "imprimerie": 6339,
      "bouteilles": 6340,
      "carrefours": 6341,
      "##litz": 6342,
      "gravité": 6343,
      "Anglais": 6344,
      "successivement": 6345,
      "inattendu": 6346,
      "Venez": 6347,
      "catastrophe": 6348,
      "Satan": 6349,
      "charpente": 6350,
      "aïeul": 6351,
      "parapet": 6352,
      "industrie": 6353,
      "sérénité": 6354,
      "équilibre": 6355,
      "Austerlitz": 6356,
      "!...": 6357,
      "App": 6358,
      "Fa": 6359,
      "Hor": 6360,
      "Hard": 6361,
      "Lors": 6362,
      "Mi": 6363,
      "Nos": 6364,
      "buiss": 6365,
      "dange": 6366,
      "fal": 6367,
      "fange": 6368,
      "lueurs": 6369,
      "nues": 6370,
      "tau": 6371,
      "tric": 6372,
      "##ach": 6373,
      "##tation": 6374,
      "##her": 6375,
      "##onça": 6376,
      "##urée": 6377,
      "##uraient": 6378,
      "##ueule": 6379,
      "étourd": 6380,
      "##inrent": 6381,
      "##enne": 6382,
      "serez": 6383,
      "seigneurs": 6384,
      "parcour": 6385,
      "##velle": 6386,
      "##irant": 6387,
      "écu": 6388,
      "moine": 6389,
      "mart": 6390,
      "caverne": 6391,
      "passions": 6392,
      "Marguerite": 6393,
      "##aissa": 6394,
      "dim": 6395,
      "république": 6396,
      "demoiselle": 6397,
      "##imité": 6398,
      "crimes": 6399,
      "barbe": 6400,
      "tombant": 6401,
      "appelez": 6402,
      "appelaient": 6403,
      "désag": 6404,
      "montrer": 6405,
      "source": 6406,
      "consol": 6407,
      "posses": 6408,
      "inform": 6409,
      "tenu": 6410,
      "flèche": 6411,
      "richesse": 6412,
      "offici": 6413,
      "Quelqu": 6414,
      "militaire": 6415,
      "connaître": 6416,
      "grimp": 6417,
      "attendu": 6418,
      "nouvelles": 6419,
      "lieutenant": 6420,
      "##aquette": 6421,
      "croisées": 6422,
      "couvrait": 6423,
      "roche": 6424,
      "calcul": 6425,
      "palp": 6426,
      "cabri": 6427,
      "poussait": 6428,
      "rencontrer": 6429,
      "émotions": 6430,
      "respira": 6431,
      "précipit": 6432,
      "manqué": 6433,
      "vêtue": 6434,
      "nécessité": 6435,
      "farouches": 6436,
      "cassé": 6437,
      "toilette": 6438,
      "Tourangeau": 6439,
      "tumult": 6440,
      "fermées": 6441,
      "##ionnaires": 6442,
      "logette": 6443,
      "escarpe": 6444,
      "râle": 6445,
      "tourbillon": 6446,
      "Justice": 6447,
      "ratta": 6448,
      "universelle": 6449,
      "##ocratie": 6450,
      "continue": 6451,
      "muette": 6452,
      "Heureusement": 6453,
      "ordonnance": 6454,
      "multipl": 6455,
      "Gisquette": 6456,
      "appétit": 6457,
      "12": 6458,
      "10": 6459,
      "Gal": 6460,
      "Li": 6461,
      "LES": 6462,
      "Rol": 6463,
      "_f": 6464,
      "_G": 6465,
      "sanc": 6466,
      "##rante": 6467,
      "##cteurs": 6468,
      "##iam": 6469,
      "##ètre": 6470,
      "##NT": 6471,
      "##âche": 6472,
      "##înt": 6473,
      "##relles": 6474,
      "##ann": 6475,
      "##is_": 6476,
      "##orges": 6477,
      "##uen": 6478,
      "étions": 6479,
      "##uté": 6480,
      "ché": 6481,
      "chacune": 6482,
      "nef": 6483,
      "##veil": 6484,
      "##irma": 6485,
      "arb": 6486,
      "##oirs": 6487,
      "prolon": 6488,
      "écor": 6489,
      "comble": 6490,
      "##inet": 6491,
      "quels": 6492,
      "diss": 6493,
      "serais": 6494,
      "Change": 6495,
      "rampe": 6496,
      "forêts": 6497,
      "##ibi": 6498,
      "portaient": 6499,
      "constell": 6500,
      "remuait": 6501,
      "manche": 6502,
      "inscrip": 6503,
      "solide": 6504,
      "battre": 6505,
      "payé": 6506,
      "graves": 6507,
      "patrie": 6508,
      "étrang": 6509,
      "continuer": 6510,
      "irrés": 6511,
      "élevé": 6512,
      "rencontra": 6513,
      "mouvements": 6514,
      "demeurait": 6515,
      "dévou": 6516,
      "antre": 6517,
      "assises": 6518,
      "fantômes": 6519,
      "collège": 6520,
      "précipice": 6521,
      "brûler": 6522,
      "admiration": 6523,
      "pouce": 6524,
      "tendresse": 6525,
      "ignorant": 6526,
      "ressort": 6527,
      "philosophes": 6528,
      "Homère": 6529,
      "tressaille": 6530,
      "funèbres": 6531,
      "fermés": 6532,
      "féod": 6533,
      "supplice": 6534,
      "animaux": 6535,
      "froidement": 6536,
      "obstacle": 6537,
      "aînée": 6538,
      "supérieur": 6539,
      "pardon": 6540,
      "cuisine": 6541,
      "gendarme": 6542,
      "inouïe": 6543,
      "tyran": 6544,
      "problème": 6545,
      "splendeur": 6546,
      "conséquent": 6547,
      "greffier": 6548,
      "intéress": 6549,
      "quatorze": 6550,
      "immédiatement": 6551,
      "médioc": 6552,
      "Agn": 6553,
      "Gueule": 6554,
      "Huche": 6555,
      "Ital": 6556,
      "Mus": 6557,
      "Tandis": 6558,
      "Win": 6559,
      "cité": 6560,
      "dog": 6561,
      "doss": 6562,
      "feux": 6563,
      "glo": 6564,
      "ivres": 6565,
      "loc": 6566,
      "lions": 6567,
      "lève": 6568,
      "pages": 6569,
      "sén": 6570,
      "saign": 6571,
      "tint": 6572,
      "véc": 6573,
      "vari": 6574,
      "##crit": 6575,
      "##icip": 6576,
      "##hait": 6577,
      "##hum": 6578,
      "lac": 6579,
      "aviez": 6580,
      "##ller": 6581,
      "##auphin": 6582,
      "parvenu": 6583,
      "##ilée": 6584,
      "prote": 6585,
      "écart": 6586,
      "enfoncer": 6587,
      "contient": 6588,
      "##ension": 6589,
      "hale": 6590,
      "halles": 6591,
      "abond": 6592,
      "amer": 6593,
      "cler": 6594,
      "soula": 6595,
      "souhait": 6596,
      "crit": 6597,
      "orphe": 6598,
      "couloir": 6599,
      "fermait": 6600,
      "voyaient": 6601,
      "voyons": 6602,
      "##logue": 6603,
      "sourit": 6604,
      "assass": 6605,
      "remis": 6606,
      "mangeait": 6607,
      "longueur": 6608,
      "poser": 6609,
      "verte": 6610,
      "insouci": 6611,
      "presse": 6612,
      "informe": 6613,
      "horloge": 6614,
      "terres": 6615,
      "office": 6616,
      "commode": 6617,
      "redesc": 6618,
      "cloaque": 6619,
      "clochers": 6620,
      "perdit": 6621,
      "siège": 6622,
      "dépens": 6623,
      "naturelle": 6624,
      "égyptiennes": 6625,
      "jardinier": 6626,
      "légère": 6627,
      "rencontré": 6628,
      "fallut": 6629,
      "croyez": 6630,
      "éclairs": 6631,
      "charmants": 6632,
      "violemment": 6633,
      "logique": 6634,
      "concent": 6635,
      "immobilité": 6636,
      "voû": 6637,
      "symp": 6638,
      "emplit": 6639,
      "combattants": 6640,
      "rapide": 6641,
      "ressour": 6642,
      "appuya": 6643,
      "Révol": 6644,
      "##avantage": 6645,
      "Bonjour": 6646,
      "silencieusement": 6647,
      "##ault": 6648,
      "cordes": 6649,
      "bâtiment": 6650,
      "Merci": 6651,
      "dérob": 6652,
      "ennemi": 6653,
      "Français": 6654,
      "existait": 6655,
      "réchauff": 6656,
      "jupe": 6657,
      "observation": 6658,
      "enclos": 6659,
      "dialogue": 6660,
      "imperturb": 6661,
      "linge": 6662,
      "Agnès": 6663,
      "?...": 6664,
      "Allem": 6665,
      "Ca": 6666,
      "Har": 6667,
      "Joly": 6668,
      "Méd": 6669,
      "Sont": 6670,
      "Tom": 6671,
      "VII": 6672,
      "VIII": 6673,
      "bre": 6674,
      "balle": 6675,
      "bayonne": 6676,
      "davantage": 6677,
      "fine": 6678,
      "lanc": 6679,
      "mouv": 6680,
      "nar": 6681,
      "oc": 6682,
      "pommes": 6683,
      "vingts": 6684,
      "émer": 6685,
      "##gra": 6686,
      "##loup": 6687,
      "##cier": 6688,
      "##oît": 6689,
      "##iante": 6690,
      "##fé": 6691,
      "##US": 6692,
      "##iteur": 6693,
      "##isté": 6694,
      "##istible": 6695,
      "##usion": 6696,
      "##atif": 6697,
      "##ative": 6698,
      "##quan": 6699,
      "##qués": 6700,
      "pourvu": 6701,
      "##blement": 6702,
      "prête": 6703,
      "##icien": 6704,
      "##aparte": 6705,
      "bron": 6706,
      "bran": 6707,
      "exté": 6708,
      "touche": 6709,
      "cachait": 6710,
      "épre": 6711,
      "allées": 6712,
      "##tième": 6713,
      "clous": 6714,
      "faisons": 6715,
      "républ": 6716,
      "craindre": 6717,
      "carac": 6718,
      "carrée": 6719,
      "portefe": 6720,
      "##assent": 6721,
      "courbé": 6722,
      "basque": 6723,
      "couleurs": 6724,
      "recteur": 6725,
      "blouse": 6726,
      "nommer": 6727,
      "corb": 6728,
      "auraient": 6729,
      "verra": 6730,
      "##tins": 6731,
      "livrée": 6732,
      "découp": 6733,
      "découv": 6734,
      "traverser": 6735,
      "##ousses": 6736,
      "sépare": 6737,
      "confond": 6738,
      "ajoute": 6739,
      "envol": 6740,
      "dernières": 6741,
      "##entement": 6742,
      "salua": 6743,
      "soupira": 6744,
      "galop": 6745,
      "saints": 6746,
      "subst": 6747,
      "éduc": 6748,
      "dommage": 6749,
      "alc": 6750,
      "combien": 6751,
      "léger": 6752,
      "poussé": 6753,
      "sinon": 6754,
      "frappé": 6755,
      "frapper": 6756,
      "puissante": 6757,
      "traîne": 6758,
      "regardez": 6759,
      "herbes": 6760,
      "plupart": 6761,
      "boulevers": 6762,
      "parties": 6763,
      "réflexion": 6764,
      "prononcé": 6765,
      "particulièrement": 6766,
      "erreur": 6767,
      "chauff": 6768,
      "retomba": 6769,
      "Henrie": 6770,
      "couverte": 6771,
      "sculptures": 6772,
      "épars": 6773,
      "Gervais": 6774,
      "délicate": 6775,
      "campagne": 6776,
      "glisser": 6777,
      "Bienvenu": 6778,
      "excellent": 6779,
      "redressa": 6780,
      "camarade": 6781,
      "lumineux": 6782,
      "chuchot": 6783,
      "chapite": 6784,
      "semaine": 6785,
      "fournaise": 6786,
      "gigantesque": 6787,
      "résultat": 6788,
      "amalgam": 6789,
      "Voulez": 6790,
      "discipl": 6791,
      "irrésistible": 6792,
      "Am": 6793,
      "Ab": 6794,
      "Dites": 6795,
      "Force": 6796,
      "Ho": 6797,
      "Jim": 6798,
      "Myr": 6799,
      "Neuf": 6800,
      "Paul": 6801,
      "Paquette": 6802,
      "Sois": 6803,
      "Toul": 6804,
      "_d": 6805,
      "ah": 6806,
      "dieu": 6807,
      "frac": 6808,
      "firma": 6809,
      "ger": 6810,
      "gourde": 6811,
      "hi": 6812,
      "irai": 6813,
      "joi": 6814,
      "joign": 6815,
      "joint": 6816,
      "lie": 6817,
      "ps": 6818,
      "voc": 6819,
      "vaill": 6820,
      "##uée": 6821,
      "##uvre": 6822,
      "##èches": 6823,
      "##yri": 6824,
      "##âtres": 6825,
      "##ûment": 6826,
      "##ongea": 6827,
      "##iser": 6828,
      "##isée": 6829,
      "##omper": 6830,
      "##ourage": 6831,
      "aval": 6832,
      "paresse": 6833,
      "songé": 6834,
      "##quant": 6835,
      "##ppes": 6836,
      "grin": 6837,
      "écoul": 6838,
      "brut": 6839,
      "appart": 6840,
      "aider": 6841,
      "##énarde": 6842,
      "exprès": 6843,
      "auxquels": 6844,
      "fab": 6845,
      "asc": 6846,
      "mars": 6847,
      "prenez": 6848,
      "claire": 6849,
      "clôt": 6850,
      "coqui": 6851,
      "égoï": 6852,
      "impas": 6853,
      "admet": 6854,
      "chargée": 6855,
      "##loque": 6856,
      "nommait": 6857,
      "assit": 6858,
      "saison": 6859,
      "archers": 6860,
      "rense": 6861,
      "voler": 6862,
      "incon": 6863,
      "indiquer": 6864,
      "souffert": 6865,
      "style": 6866,
      "interro": 6867,
      "interrog": 6868,
      "finir": 6869,
      "ouvriers": 6870,
      "battait": 6871,
      "boutiques": 6872,
      "commiss": 6873,
      "commande": 6874,
      "bruits": 6875,
      "apparut": 6876,
      "fourneau": 6877,
      "Jack": 6878,
      "éteindre": 6879,
      "osait": 6880,
      "présentait": 6881,
      "morale": 6882,
      "paysans": 6883,
      "singe": 6884,
      "famil": 6885,
      "suffis": 6886,
      "donnent": 6887,
      "explique": 6888,
      "menace": 6889,
      "violente": 6890,
      "ouverts": 6891,
      "stupide": 6892,
      "briser": 6893,
      "certainement": 6894,
      "réveilla": 6895,
      "essayer": 6896,
      "appuyait": 6897,
      "circon": 6898,
      "harang": 6899,
      "bandit": 6900,
      "géant": 6901,
      "sépulc": 6902,
      "XVIII": 6903,
      "métaph": 6904,
      "##lexand": 6905,
      "blessé": 6906,
      "placé": 6907,
      "couverts": 6908,
      "reculer": 6909,
      "chansons": 6910,
      "dispers": 6911,
      "valets": 6912,
      "porche": 6913,
      "Bahorel": 6914,
      "meilleure": 6915,
      "décidément": 6916,
      "naufrage": 6917,
      "monnaie": 6918,
      "République": 6919,
      "accoutum": 6920,
      "chêne": 6921,
      "ivro": 6922,
      "célèbre": 6923,
      "##bury": 6924,
      "Miracles": 6925,
      "possession": 6926,
      "Liénarde": 6927,
      "Hucheloup": 6928,
      "portefeuille": 6929,
      "éducation": 6930,
      "Avoir": 6931,
      "Ben": 6932,
      "Bal": 6933,
      "Bel": 6934,
      "Comp": 6935,
      "Mort": 6936,
      "Pant": 6937,
      "Près": 6938,
      "UN": 6939,
      "Vau": 6940,
      "aille": 6941,
      "fê": 6942,
      "gousse": 6943,
      "laissez": 6944,
      "masses": 6945,
      "od": 6946,
      "py": 6947,
      "paill": 6948,
      "sèche": 6949,
      "tot": 6950,
      "##uves": 6951,
      "##èg": 6952,
      "##lence": 6953,
      "##omac": 6954,
      "unif": 6955,
      "##chon": 6956,
      "semain": 6957,
      "parall": 6958,
      "##olas": 6959,
      "prouv": 6960,
      "démes": 6961,
      "##orter": 6962,
      "##onnaient": 6963,
      "##ott": 6964,
      "##oyée": 6965,
      "brune": 6966,
      "##bli": 6967,
      "mame": 6968,
      "bienfait": 6969,
      "grandi": 6970,
      "rab": 6971,
      "modes": 6972,
      "doubl": 6973,
      "cogn": 6974,
      "coffre": 6975,
      "intrép": 6976,
      "##avres": 6977,
      "boug": 6978,
      "barons": 6979,
      "recomm": 6980,
      "atteindre": 6981,
      "monté": 6982,
      "montra": 6983,
      "porta": 6984,
      "poches": 6985,
      "##venue": 6986,
      "##auds": 6987,
      "Silence": 6988,
      "taverne": 6989,
      "ouvrant": 6990,
      "refer": 6991,
      "géné": 6992,
      "songeur": 6993,
      "chantant": 6994,
      "éteinte": 6995,
      "galères": 6996,
      "Mademoiselle": 6997,
      "gardait": 6998,
      "Armé": 6999,
      "traîner": 7000,
      "sourds": 7001,
      "respirer": 7002,
      "lâcher": 7003,
      "empêche": 7004,
      "magie": 7005,
      "arracha": 7006,
      "admirer": 7007,
      "fusils": 7008,
      "cruche": 7009,
      "##lamations": 7010,
      "bancs": 7011,
      "assemb": 7012,
      "spir": 7013,
      "évanoui": 7014,
      "géomét": 7015,
      "représentation": 7016,
      "plancher": 7017,
      "damné": 7018,
      "cordon": 7019,
      "arrange": 7020,
      "épuisé": 7021,
      "fraîches": 7022,
      "vêtement": 7023,
      "enfonça": 7024,
      "flambeau": 7025,
      "opule": 7026,
      "éprouvait": 7027,
      "Autour": 7028,
      "cadavres": 7029,
      "camarades": 7030,
      "apprendre": 7031,
      "##rophes": 7032,
      "satisfaction": 7033,
      "poëte": 7034,
      "organ": 7035,
      "espagnol": 7036,
      "cuirassiers": 7037,
      "bûcher": 7038,
      "opération": 7039,
      "énerg": 7040,
      "définit": 7041,
      "fantaisie": 7042,
      "jalousie": 7043,
      "austère": 7044,
      "Italie": 7045,
      "Révolution": 7046,
      "##quanonne": 7047,
      "Atte": 7048,
      "Bla": 7049,
      "Bab": 7050,
      "Fal": 7051,
      "Faire": 7052,
      "Fermain": 7053,
      "Hol": 7054,
      "Is": 7055,
      "Laissez": 7056,
      "Magn": 7057,
      "Pil": 7058,
      "Ro": 7059,
      "Rit": 7060,
      "Sim": 7061,
      "_v": 7062,
      "_b": 7063,
      "dôme": 7064,
      "emm": 7065,
      "jui": 7066,
      "mout": 7067,
      "mât": 7068,
      "nud": 7069,
      "naissance": 7070,
      "pis": 7071,
      "pousse": 7072,
      "rôle": 7073,
      "sienne": 7074,
      "somm": 7075,
      "ves": 7076,
      "âne": 7077,
      "##éf": 7078,
      "##gons": 7079,
      "##clo": 7080,
      "##ms": 7081,
      "##vième": 7082,
      "##jec": 7083,
      "##LA": 7084,
      "##nthe": 7085,
      "##ara": 7086,
      "##asions": 7087,
      "quelles": 7088,
      "##char": 7089,
      "parla": 7090,
      "paraître": 7091,
      "plong": 7092,
      "dér": 7093,
      "iné": 7094,
      "inde": 7095,
      "##ets": 7096,
      "##oises": 7097,
      "régn": 7098,
      "réalités": 7099,
      "prologue": 7100,
      "##cide": 7101,
      "##ulté": 7102,
      "##oyaient": 7103,
      "aid": 7104,
      "monolog": 7105,
      "bienveill": 7106,
      "##issants": 7107,
      "peux": 7108,
      "café": 7109,
      "abe": 7110,
      "soul": 7111,
      "boucher": 7112,
      "bouquet": 7113,
      "également": 7114,
      "perce": 7115,
      "comptait": 7116,
      "carab": 7117,
      "##inthe": 7118,
      "##ocs": 7119,
      "ferma": 7120,
      "##ibus": 7121,
      "niveau": 7122,
      "##igny": 7123,
      "corre": 7124,
      "foudro": 7125,
      "remue": 7126,
      "##pects": 7127,
      "soient": 7128,
      "affl": 7129,
      "vall": 7130,
      "##riture": 7131,
      "habitu": 7132,
      "##tines": 7133,
      "veines": 7134,
      "##autés": 7135,
      "écrivait": 7136,
      "terribles": 7137,
      "réserv": 7138,
      "offre": 7139,
      "défig": 7140,
      "soirs": 7141,
      "envoie": 7142,
      "distrait": 7143,
      "nouveaux": 7144,
      "différence": 7145,
      "condition": 7146,
      "revient": 7147,
      "balay": 7148,
      "masques": 7149,
      "vertus": 7150,
      "domest": 7151,
      "complét": 7152,
      "démol": 7153,
      "familles": 7154,
      "jolies": 7155,
      "##astique": 7156,
      "langage": 7157,
      "considérable": 7158,
      "##uilly": 7159,
      "innomb": 7160,
      "capable": 7161,
      "communauté": 7162,
      "vieillards": 7163,
      "rappelait": 7164,
      "syll": 7165,
      "romane": 7166,
      "éblouissant": 7167,
      "furieuse": 7168,
      "lugubres": 7169,
      "ressais": 7170,
      "façons": 7171,
      "réveillé": 7172,
      "inexorable": 7173,
      "##iendrait": 7174,
      "conseiller": 7175,
      "Champs": 7176,
      "berge": 7177,
      "dédaigne": 7178,
      "soupirail": 7179,
      "permission": 7180,
      "clameur": 7181,
      "_Pour": 7182,
      "imagination": 7183,
      "rompit": 7184,
      "épaisseur": 7185,
      "composé": 7186,
      "animal": 7187,
      "méchante": 7188,
      "talons": 7189,
      "dissip": 7190,
      "brigand": 7191,
      "sourcils": 7192,
      "recommença": 7193,
      "meilleur": 7194,
      "prétend": 7195,
      "mélancolique": 7196,
      "lointain": 7197,
      "esclave": 7198,
      "Andry": 7199,
      "inférieure": 7200,
      "municip": 7201,
      "phrase": 7202,
      "Pierrat": 7203,
      "Hardquanonne": 7204,
      "cabriolet": 7205,
      "dossier": 7206,
      "républic": 7207,
      "alcô": 7208,
      "semaines": 7209,
      "Bre": 7210,
      "Bapt": 7211,
      "Gran": 7212,
      "_R": 7213,
      "bav": 7214,
      "gaie": 7215,
      "hié": 7216,
      "jas": 7217,
      "jac": 7218,
      "luis": 7219,
      "luit": 7220,
      "pin": 7221,
      "saute": 7222,
      "ti": 7223,
      "th": 7224,
      "taire": 7225,
      "tôt": 7226,
      "vulg": 7227,
      "ôta": 7228,
      "##rud": 7229,
      "##tt": 7230,
      "##unt": 7231,
      "##nu": 7232,
      "##nation": 7233,
      "##nière": 7234,
      "##moul": 7235,
      "##vaire": 7236,
      "##yre": 7237,
      "##ouf": 7238,
      "##erais": 7239,
      "##itée": 7240,
      "##nequin": 7241,
      "lents": 7242,
      "levée": 7243,
      "##oris": 7244,
      "unité": 7245,
      "étiez": 7246,
      "querelle": 7247,
      "##ina": 7248,
      "##ende": 7249,
      "estomac": 7250,
      "chrét": 7251,
      "retent": 7252,
      "retenir": 7253,
      "##aucon": 7254,
      "paraissaient": 7255,
      "##riche": 7256,
      "pla": 7257,
      "##vet": 7258,
      "arme": 7259,
      "arts": 7260,
      "gras": 7261,
      "##ciation": 7262,
      "écou": 7263,
      "comédie": 7264,
      "mêler": 7265,
      "##ictions": 7266,
      "##érat": 7267,
      "brise": 7268,
      "##blier": 7269,
      "enfonce": 7270,
      "##ivre": 7271,
      "##issable": 7272,
      "hall": 7273,
      "épouse": 7274,
      "seras": 7275,
      "seraient": 7276,
      "amar": 7277,
      "efface": 7278,
      "conven": 7279,
      "coq": 7280,
      "ferez": 7281,
      "crie": 7282,
      "craint": 7283,
      "couteau": 7284,
      "évasion": 7285,
      "fermé": 7286,
      "imper": 7287,
      "##bell": 7288,
      "croyant": 7289,
      "##resses": 7290,
      "##vate": 7291,
      "manants": 7292,
      "hauts": 7293,
      "fautes": 7294,
      "verd": 7295,
      "insist": 7296,
      "incl": 7297,
      "indéc": 7298,
      "souffler": 7299,
      "traversait": 7300,
      "écriait": 7301,
      "##ilet": 7302,
      "quoiqu": 7303,
      "obscures": 7304,
      "confront": 7305,
      "##uctions": 7306,
      "boeuf": 7307,
      "boiteux": 7308,
      "cheminées": 7309,
      "chevet": 7310,
      "chevelure": 7311,
      "revêt": 7312,
      "prix": 7313,
      "##oiselles": 7314,
      "rentrait": 7315,
      "oreiller": 7316,
      "élève": 7317,
      "##lone": 7318,
      "reproche": 7319,
      "ministre": 7320,
      "neuvième": 7321,
      "langues": 7322,
      "noce": 7323,
      "quitta": 7324,
      "semblent": 7325,
      "engage": 7326,
      "achevait": 7327,
      "fumées": 7328,
      "parlent": 7329,
      "collines": 7330,
      "révolutionnaire": 7331,
      "respirait": 7332,
      "promener": 7333,
      "promena": 7334,
      "Telle": 7335,
      "sauvages": 7336,
      "chefs": 7337,
      "emporter": 7338,
      "prodigieuse": 7339,
      "oeuvres": 7340,
      "inquiète": 7341,
      "pioche": 7342,
      "Nicolette": 7343,
      "dédain": 7344,
      "hésitation": 7345,
      "Corne": 7346,
      "propri": 7347,
      "1832": 7348,
      "##abeth": 7349,
      "secoua": 7350,
      "sculpture": 7351,
      "geôle": 7352,
      "douloureux": 7353,
      "journaux": 7354,
      "pétrifié": 7355,
      "juger": 7356,
      "Diable": 7357,
      "##lisabeth": 7358,
      "mouchoir": 7359,
      "silhouette": 7360,
      "routes": 7361,
      "égaré": 7362,
      "caractère": 7363,
      "intention": 7364,
      "hypoc": 7365,
      "Toujours": 7366,
      "expédient": 7367,
      "Impos": 7368,
      "vécu": 7369,
      ".)": 7370,
      "Fr": 7371,
      "Fau": 7372,
      "Fibi": 7373,
      "Joh": 7374,
      "Prouv": 7375,
      "Rom": 7376,
      "Sav": 7377,
      "Soyez": 7378,
      "Ven": 7379,
      "bure": 7380,
      "cult": 7381,
      "eurent": 7382,
      "fas": 7383,
      "gestes": 7384,
      "jud": 7385,
      "mous": 7386,
      "nations": 7387,
      "naît": 7388,
      "pire": 7389,
      "pères": 7390,
      "rond": 7391,
      "syst": 7392,
      "veste": 7393,
      "##raise": 7394,
      "##éric": 7395,
      "##sme": 7396,
      "##iaient": 7397,
      "##mons": 7398,
      "##pain": 7399,
      "##jug": 7400,
      "##êmes": 7401,
      "dent": 7402,
      "lect": 7403,
      "avancer": 7404,
      "choix": 7405,
      "recher": 7406,
      "apporte": 7407,
      "appris": 7408,
      "expos": 7409,
      "devons": 7410,
      "caveau": 7411,
      "épaiss": 7412,
      "passent": 7413,
      "sert": 7414,
      "chamb": 7415,
      "convention": 7416,
      "cochère": 7417,
      "entrevoir": 7418,
      "crou": 7419,
      "Parfois": 7420,
      "perte": 7421,
      "frêle": 7422,
      "barque": 7423,
      "adore": 7424,
      "désir": 7425,
      "roulait": 7426,
      "Thom": 7427,
      "Thib": 7428,
      "consent": 7429,
      "retrait": 7430,
      "manches": 7431,
      "habile": 7432,
      "insensé": 7433,
      "Six": 7434,
      "termes": 7435,
      "agissait": 7436,
      "##lantes": 7437,
      "habitait": 7438,
      "dépla": 7439,
      "vastes": 7440,
      "##uyait": 7441,
      "iron": 7442,
      "suppri": 7443,
      "retourner": 7444,
      "garçons": 7445,
      "légis": 7446,
      "poussant": 7447,
      "Arri": 7448,
      "pareils": 7449,
      "violence": 7450,
      "convient": 7451,
      "tranquill": 7452,
      "hôte": 7453,
      "hôpital": 7454,
      "immobiles": 7455,
      "frissonnant": 7456,
      "tendit": 7457,
      "borgne": 7458,
      "gagnait": 7459,
      "observer": 7460,
      "armées": 7461,
      "sauvée": 7462,
      "relevait": 7463,
      "magnifiques": 7464,
      "effrayé": 7465,
      "Alouette": 7466,
      "bandes": 7467,
      "étincelle": 7468,
      "retomber": 7469,
      "guichet": 7470,
      "endormie": 7471,
      "propres": 7472,
      "contempler": 7473,
      "Robin": 7474,
      "##rogly": 7475,
      "résolution": 7476,
      "posture": 7477,
      "enfonçait": 7478,
      "isole": 7479,
      "nids": 7480,
      "septième": 7481,
      "tradition": 7482,
      "##cifix": 7483,
      "enlever": 7484,
      "##térieur": 7485,
      "audience": 7486,
      "parfums": 7487,
      "embarras": 7488,
      "dirai": 7489,
      "gendar": 7490,
      "prétexte": 7491,
      "naïve": 7492,
      "naufra": 7493,
      "souterrain": 7494,
      "billet": 7495,
      "haussa": 7496,
      "taisait": 7497,
      "noeud": 7498,
      "secrète": 7499,
      "empreinte": 7500,
      "coutume": 7501,
      "assaillants": 7502,
      "dames": 7503,
      "saltimbanque": 7504,
      "sursaut": 7505,
      "dangereux": 7506,
      "Myriel": 7507,
      "alcôve": 7508,
      "hiérogly": 7509,
      "Impossible": 7510,
      "John": 7511,
      "conventionnel": 7512,
      "Bra": 7513,
      "Bér": 7514,
      "CH": 7515,
      "Cler": 7516,
      "Hun": 7517,
      "Houg": 7518,
      "Ier": 7519,
      "Mur": 7520,
      "Mond": 7521,
      "Pat": 7522,
      "Prés": 7523,
      "Vinos": 7524,
      "Voyons": 7525,
      "ara": 7526,
      "bill": 7527,
      "boy": 7528,
      "cot": 7529,
      "dic": 7530,
      "fers": 7531,
      "foire": 7532,
      "gagne": 7533,
      "haie": 7534,
      "pomp": 7535,
      "peste": 7536,
      "rib": 7537,
      "ster": 7538,
      "vég": 7539,
      "vendre": 7540,
      "vanité": 7541,
      "##rouss": 7542,
      "##cère": 7543,
      "##ial": 7544,
      "##bla": 7545,
      "##fs": 7546,
      "##well": 7547,
      "##omont": 7548,
      "##orb": 7549,
      "##astre": 7550,
      "##uels": 7551,
      "##inée": 7552,
      "chag": 7553,
      "danser": 7554,
      "plonge": 7555,
      "##qua": 7556,
      "##veurs": 7557,
      "entièrement": 7558,
      "tromper": 7559,
      "gronde": 7560,
      "écueil": 7561,
      "comté": 7562,
      "##inence": 7563,
      "disais": 7564,
      "exquis": 7565,
      "toucha": 7566,
      "touchant": 7567,
      "monceau": 7568,
      "allég": 7569,
      "trap": 7570,
      "douleurs": 7571,
      "couper": 7572,
      "coupée": 7573,
      "coupable": 7574,
      "croupe": 7575,
      "boul": 7576,
      "bougeait": 7577,
      "égale": 7578,
      "frén": 7579,
      "carreau": 7580,
      "##étour": 7581,
      "##étés": 7582,
      "impro": 7583,
      "Grèce": 7584,
      "adop": 7585,
      "croissant": 7586,
      "atteint": 7587,
      "montant": 7588,
      "partis": 7589,
      "mortes": 7590,
      "manusc": 7591,
      "mannequin": 7592,
      "renouve": 7593,
      "verrou": 7594,
      "vertige": 7595,
      "infâme": 7596,
      "décla": 7597,
      "découvert": 7598,
      "Simpl": 7599,
      "##iquaient": 7600,
      "écriv": 7601,
      "penché": 7602,
      "flammes": 7603,
      "rayonnant": 7604,
      "reconnais": 7605,
      "reconnaît": 7606,
      "habitants": 7607,
      "guér": 7608,
      "songeant": 7609,
      "dépense": 7610,
      "différe": 7611,
      "##inceul": 7612,
      "balan": 7613,
      "balance": 7614,
      "sacré": 7615,
      "égyptiens": 7616,
      "disparaissait": 7617,
      "débar": 7618,
      "grenier": 7619,
      "échappe": 7620,
      "transport": 7621,
      "démons": 7622,
      "##ceptible": 7623,
      "attentif": 7624,
      "rencontrait": 7625,
      "##oquet": 7626,
      "éclairc": 7627,
      "pendait": 7628,
      "neuve": 7629,
      "bourgeoisie": 7630,
      "glacée": 7631,
      "tranquillement": 7632,
      "romain": 7633,
      "promenait": 7634,
      "brûlait": 7635,
      "ébloui": 7636,
      "apais": 7637,
      "efforts": 7638,
      "honnêtes": 7639,
      "berceau": 7640,
      "frémissant": 7641,
      "endroits": 7642,
      "##dsor": 7643,
      "allumé": 7644,
      "soupirs": 7645,
      "XVI": 7646,
      "mordre": 7647,
      "aimant": 7648,
      "penseur": 7649,
      "environs": 7650,
      "proport": 7651,
      "gracieuse": 7652,
      "gracieusement": 7653,
      "exception": 7654,
      "travailler": 7655,
      "veuve": 7656,
      "sauta": 7657,
      "méchance": 7658,
      "valet": 7659,
      "labor": 7660,
      "généraux": 7661,
      "Malh": 7662,
      "enveloppé": 7663,
      "Croix": 7664,
      "universel": 7665,
      "Disons": 7666,
      "dilat": 7667,
      "dilig": 7668,
      "donjon": 7669,
      "_Qu": 7670,
      "_Il": 7671,
      "broussaille": 7672,
      "individu": 7673,
      "ondul": 7674,
      "vermeil": 7675,
      "architecte": 7676,
      "classique": 7677,
      "Roland": 7678,
      "Windsor": 7679,
      "critique": 7680,
      "Allemagne": 7681,
      "extérie": 7682,
      "épreuve": 7683,
      "corbillard": 7684,
      "firmament": 7685,
      "clôture": 7686,
      "nudité": 7687,
      "Mondétour": 7688,
      "Ber": 7689,
      "Cin": 7690,
      "Cla": 7691,
      "Camb": 7692,
      "Filles": 7693,
      "Hel": 7694,
      "Ju": 7695,
      "Su": 7696,
      "Voir": 7697,
      "bê": 7698,
      "bad": 7699,
      "bêt": 7700,
      "bassin": 7701,
      "dura": 7702,
      "dauphin": 7703,
      "fêtes": 7704,
      "linceul": 7705,
      "mang": 7706,
      "nie": 7707,
      "note": 7708,
      "rau": 7709,
      "rente": 7710,
      "vif": 7711,
      "zén": 7712,
      "équ": 7713,
      "##rui": 7714,
      "##rales": 7715,
      "##éant": 7716,
      "##gail": 7717,
      "##tis": 7718,
      "##elem": 7719,
      "##nis": 7720,
      "##noc": 7721,
      "##nèrent": 7722,
      "##iation": 7723,
      "##vrier": 7724,
      "##dam": 7725,
      "##hommes": 7726,
      "##RA": 7727,
      "##CE": 7728,
      "##ouettes": 7729,
      "##ernes": 7730,
      "##annes": 7731,
      "##tembre": 7732,
      "##tements": 7733,
      "envah": 7734,
      "sexe": 7735,
      "desp": 7736,
      "revoir": 7737,
      "##rirent": 7738,
      "places": 7739,
      "##lac": 7740,
      "sill": 7741,
      "rét": 7742,
      "grève": 7743,
      "##agée": 7744,
      "commer": 7745,
      "##oyés": 7746,
      "##oyens": 7747,
      "##apeur": 7748,
      "extérieur": 7749,
      "monarchie": 7750,
      "marée": 7751,
      "membre": 7752,
      "sud": 7753,
      "cale": 7754,
      "passée": 7755,
      "chaleur": 7756,
      "amert": 7757,
      "conqu": 7758,
      "boulet": 7759,
      "malades": 7760,
      "Demain": 7761,
      "coule": 7762,
      "accou": 7763,
      "accablement": 7764,
      "sentier": 7765,
      "voyais": 7766,
      "tombaient": 7767,
      "attente": 7768,
      "montagnes": 7769,
      "portrait": 7770,
      "##igner": 7771,
      "mécont": 7772,
      "remerc": 7773,
      "remua": 7774,
      "airain": 7775,
      "install": 7776,
      "soufflait": 7777,
      "Phelem": 7778,
      "phy": 7779,
      "certitude": 7780,
      "suivant": 7781,
      "connaissez": 7782,
      "botte": 7783,
      "tableau": 7784,
      "travaux": 7785,
      "glor": 7786,
      "galeries": 7787,
      "aimez": 7788,
      "gren": 7789,
      "pâles": 7790,
      "moue": 7791,
      "élect": 7792,
      "oublie": 7793,
      "mourant": 7794,
      "rougeur": 7795,
      "ému": 7796,
      "écouta": 7797,
      "Pasque": 7798,
      "pendue": 7799,
      "contemple": 7800,
      "colline": 7801,
      "rappela": 7802,
      "roman": 7803,
      "buvait": 7804,
      "élément": 7805,
      "admire": 7806,
      "régiment": 7807,
      "Petite": 7808,
      "armés": 7809,
      "superst": 7810,
      "soutane": 7811,
      "hôtels": 7812,
      "Nicolas": 7813,
      "politiques": 7814,
      "Bonaparte": 7815,
      "prunelles": 7816,
      "compartiment": 7817,
      "meubles": 7818,
      "réplique": 7819,
      "gracieux": 7820,
      "Adam": 7821,
      "redevint": 7822,
      "répétait": 7823,
      "_De": 7824,
      "emportement": 7825,
      "écroulement": 7826,
      "opinion": 7827,
      "Calvaire": 7828,
      "serein": 7829,
      "réduit": 7830,
      "##irgin": 7831,
      "fameux": 7832,
      "balbutia": 7833,
      "Messieurs": 7834,
      "criminel": 7835,
      "rouvrit": 7836,
      "indéfin": 7837,
      "##vénient": 7838,
      "enterrement": 7839,
      "inscription": 7840,
      "Gueulemer": 7841,
      "inconvénient": 7842,
      "Magnon": 7843,
      "Prouvaire": 7844,
      "Thomas": 7845,
      "isolement": 7846,
      "Hougomont": 7847,
      "manuscrit": 7848,
      "Simplice": 7849,
      "zénith": 7850,
      ").": 7851,
      "Cat": 7852,
      "Cath": 7853,
      "MA": 7854,
      "Pres": 7855,
      "Pousse": 7856,
      "Ver": 7857,
      "Vrai": 7858,
      "août": 7859,
      "basses": 7860,
      "fol": 7861,
      "gîte": 7862,
      "hib": 7863,
      "mû": 7864,
      "meure": 7865,
      "mince": 7866,
      "rot": 7867,
      "séd": 7868,
      "scell": 7869,
      "ul": 7870,
      "Ève": 7871,
      "##ége": 7872,
      "##tie": 7873,
      "##lation": 7874,
      "##cte": 7875,
      "##cées": 7876,
      "##ugn": 7877,
      "##nité": 7878,
      "##nées": 7879,
      "##mul": 7880,
      "##pres": 7881,
      "##point": 7882,
      "##hée": 7883,
      "##âmes": 7884,
      "##OS": 7885,
      "##esp": 7886,
      "##onation": 7887,
      "##eresse": 7888,
      "##ley": 7889,
      "qualités": 7890,
      "##itaires": 7891,
      "##arm": 7892,
      "lecteurs": 7893,
      "##org": 7894,
      "##ases": 7895,
      "éto": 7896,
      "##ousin": 7897,
      "chaude": 7898,
      "##rich": 7899,
      "##rices": 7900,
      "##quaient": 7901,
      "##quins": 7902,
      "##mpes": 7903,
      "##ilé": 7904,
      "##uise": 7905,
      "##onnées": 7906,
      "##ends": 7907,
      "##illis": 7908,
      "aimée": 7909,
      "texte": 7910,
      "##olets": 7911,
      "caves": 7912,
      "cachée": 7913,
      "abus": 7914,
      "prennent": 7915,
      "##oncée": 7916,
      "##tières": 7917,
      "encombre": 7918,
      "rarement": 7919,
      "classe": 7920,
      "coût": 7921,
      "##phère": 7922,
      "compose": 7923,
      "demie": 7924,
      "coud": 7925,
      "crié": 7926,
      "évent": 7927,
      "##adém": 7928,
      "entendant": 7929,
      "##bel": 7930,
      "corne": 7931,
      "éclats": 7932,
      "auré": 7933,
      "espère": 7934,
      "##umeurs": 7935,
      "vives": 7936,
      "treize": 7937,
      "terrass": 7938,
      "agréable": 7939,
      "escad": 7940,
      "séance": 7941,
      "perdus": 7942,
      "créé": 7943,
      "mettant": 7944,
      "griffes": 7945,
      "guéri": 7946,
      "différent": 7947,
      "croisée": 7948,
      "ironie": 7949,
      "dragons": 7950,
      "triang": 7951,
      "chapeaux": 7952,
      "cast": 7953,
      "osse": 7954,
      "madone": 7955,
      "élarg": 7956,
      "faiblesse": 7957,
      "aiguille": 7958,
      "bleus": 7959,
      "volets": 7960,
      "respiration": 7961,
      "brûle": 7962,
      "##orian": 7963,
      "admirait": 7964,
      "baisser": 7965,
      "récla": 7966,
      "superpos": 7967,
      "représente": 7968,
      "vainque": 7969,
      "cassée": 7970,
      "trouvez": 7971,
      "vieillesse": 7972,
      "essayé": 7973,
      "Corinthe": 7974,
      "remplissait": 7975,
      "blessés": 7976,
      "préfecture": 7977,
      "##hak": 7978,
      "rompre": 7979,
      "cessa": 7980,
      "Montfaucon": 7981,
      "construit": 7982,
      "déchiré": 7983,
      "plaies": 7984,
      "148": 7985,
      "rudement": 7986,
      "franchi": 7987,
      "hâta": 7988,
      "hydre": 7989,
      "fâche": 7990,
      "paupière": 7991,
      "arrond": 7992,
      "Jusqu": 7993,
      "rideau": 7994,
      "mélancolie": 7995,
      "François": 7996,
      "absorbé": 7997,
      "poisson": 7998,
      "1855": 7999,
      "rubans": 8000,
      "privilège": 8001,
      "Hermite": 8002,
      "poutre": 8003,
      "déjeuner": 8004,
      "Bourgogne": 8005,
      "Florian": 8006,
      "maçonnerie": 8007,
      "Flamands": 8008,
      "abominable": 8009,
      "imperturbable": 8010,
      "émerveill": 8011,
      "Toulon": 8012,
      "Baby": 8013,
      "##msgail": 8014,
      "innombrables": 8015,
      "incliné": 8016,
      "tranquillité": 8017,
      "rauque": 8018,
      "Presque": 8019,
      "Dante": 8020,
      "Font": 8021,
      "Flame": 8022,
      "Gand": 8023,
      "He": 8024,
      "Ind": 8025,
      "Moulin": 8026,
      "Outre": 8027,
      "Will": 8028,
      "_U": 8029,
      "atel": 8030,
      "fag": 8031,
      "ghe": 8032,
      "gâteau": 8033,
      "gilet": 8034,
      "hym": 8035,
      "jar": 8036,
      "luxe": 8037,
      "naître": 8038,
      "oh": 8039,
      "omn": 8040,
      "purs": 8041,
      "pate": 8042,
      "poul": 8043,
      "ranc": 8044,
      "sci": 8045,
      "tar": 8046,
      "vapeur": 8047,
      "virgin": 8048,
      "##aques": 8049,
      "##tr": 8050,
      "##uant": 8051,
      "##nerie": 8052,
      "##moins": 8053,
      "##èque": 8054,
      "##vic": 8055,
      "##bar": 8056,
      "##yl": 8057,
      "##OI": 8058,
      "##oudre": 8059,
      "##reg": 8060,
      "##anmoins": 8061,
      "##issez": 8062,
      "##neur": 8063,
      "lev": 8064,
      "##teaux": 8065,
      "enl": 8066,
      "avions": 8067,
      "##chante": 8068,
      "##roc": 8069,
      "chapitre": 8070,
      "reins": 8071,
      "plant": 8072,
      "sag": 8073,
      "surpl": 8074,
      "pourra": 8075,
      "détes": 8076,
      "##chevelle": 8077,
      "##ardi": 8078,
      "armé": 8079,
      "##igine": 8080,
      "##onnante": 8081,
      "autrui": 8082,
      "proch": 8083,
      "##illées": 8084,
      "comtes": 8085,
      "##éraire": 8086,
      "##érém": 8087,
      "dise": 8088,
      "exh": 8089,
      "marque": 8090,
      "éping": 8091,
      "allais": 8092,
      "Mars": 8093,
      "Chez": 8094,
      "regardent": 8095,
      "cop": 8096,
      "Parmi": 8097,
      "perles": 8098,
      "##asser": 8099,
      "petitesse": 8100,
      "sortaient": 8101,
      "sortirent": 8102,
      "accoud": 8103,
      "impl": 8104,
      "implac": 8105,
      "blonde": 8106,
      "appela": 8107,
      "portée": 8108,
      "sourn": 8109,
      "profit": 8110,
      "##arement": 8111,
      "##ignant": 8112,
      "fonds": 8113,
      "vitres": 8114,
      "##quième": 8115,
      "vermoul": 8116,
      "incom": 8117,
      "flét": 8118,
      "scrup": 8119,
      "tremp": 8120,
      "terrif": 8121,
      "phare": 8122,
      "sortent": 8123,
      "défait": 8124,
      "battu": 8125,
      "nuance": 8126,
      "mett": 8127,
      "distrib": 8128,
      "dépit": 8129,
      "difformes": 8130,
      "Charlem": 8131,
      "couvre": 8132,
      "moust": 8133,
      "garg": 8134,
      "garn": 8135,
      "brille": 8136,
      "écouté": 8137,
      "éclatait": 8138,
      "nobles": 8139,
      "doivent": 8140,
      "remarquable": 8141,
      "explication": 8142,
      "cravate": 8143,
      "empêchait": 8144,
      "brûlé": 8145,
      "dormi": 8146,
      "brisée": 8147,
      "ignorait": 8148,
      "poignante": 8149,
      "reprend": 8150,
      "observait": 8151,
      "mêlent": 8152,
      "civile": 8153,
      "_Mat": 8154,
      "jugement": 8155,
      "étendue": 8156,
      "gentils": 8157,
      "bizarres": 8158,
      "métier": 8159,
      "exécution": 8160,
      "rempli": 8161,
      "apporter": 8162,
      "obéit": 8163,
      "mélange": 8164,
      "éloigner": 8165,
      "auberg": 8166,
      "principale": 8167,
      "secouant": 8168,
      "écarlate": 8169,
      "labyri": 8170,
      "troublé": 8171,
      "méditation": 8172,
      "Georges": 8173,
      "cousin": 8174,
      "proscrit": 8175,
      "embarrass": 8176,
      "conjectures": 8177,
      "indifférence": 8178,
      "suspendu": 8179,
      "fréque": 8180,
      "ambassadeurs": 8181,
      "essoufflé": 8182,
      "tapisserie": 8183,
      "lamentable": 8184,
      "pause": 8185,
      "Rouge": 8186,
      "aumône": 8187,
      "squelette": 8188,
      "incendie": 8189,
      "pignons": 8190,
      "tuyau": 8191
    },
    "merges": [
      [
        "##e",
        "##s"
      ],
      [
        "##a",
        "##i"
      ],
      [
        "##n",
        "##t"
      ],
      [
        "##o",
        "##u"
      ],
      [
        "##r",
        "##e"
      ],
      [
        "d",
        "##e"
      ],
      [
        "##o",
        "##n"
      ],
      [
        "##e",
        "##r"
      ],
      [
        "##ai",
        "##t"
      ],
      [
        "##l",
        "##e"
      ],
      [
        "q",
        "##u"
      ],
      [
        "##a",
        "##n"
      ],
      [
        "##m",
        "##e"
      ],
      [
        "l",
        "##a"
      ],
      [
        "##i",
        "##t"
      ],
      [
        "##a",
        "##r"
      ],
      [
        "##i",
        "##s"
      ],
      [
        "##n",
        "##e"
      ],
      [
        "e",
        "##t"
      ],
      [
        "l",
        "##e"
      ],
      [
        "##t",
        "##e"
      ],
      [
        "##u",
        "##r"
      ],
      [
        "##i",
        "##e"
      ],
      [
        "##a",
        "##nt"
      ],
      [
        "##o",
        "##i"
      ],
      [
        "##o",
        "##m"
      ],
      [
        "##o",
        "##r"
      ],
      [
        "##ou",
        "##r"
      ],
      [
        "##a",
        "##s"
      ],
      [
        "e",
        "##n"
      ],
      [
        "##l",
        "##le"
      ],
      [
        "##u",
        "##s"
      ],
      [
        "c",
        "##e"
      ],
      [
        "##u",
        "##e"
      ],
      [
        "a",
        "##v"
      ],
      [
        "u",
        "##n"
      ],
      [
        "i",
        "##l"
      ],
      [
        "é",
        "##t"
      ],
      [
        "l",
        "##es"
      ],
      [
        "##s",
        "##t"
      ],
      [
        "qu",
        "##e"
      ],
      [
        "##ou",
        "##s"
      ],
      [
        "##i",
        "##n"
      ],
      [
        "##e",
        "##n"
      ],
      [
        "##c",
        "##h"
      ],
      [
        "##e",
        "##nt"
      ],
      [
        "##an",
        "##s"
      ],
      [
        "##ai",
        "##s"
      ],
      [
        "##u",
        "##x"
      ],
      [
        "s",
        "##e"
      ],
      [
        "##u",
        "##t"
      ],
      [
        "##me",
        "##nt"
      ],
      [
        "d",
        "##es"
      ],
      [
        "e",
        "##st"
      ],
      [
        "qu",
        "##i"
      ],
      [
        "u",
        "##ne"
      ],
      [
        "##r",
        "##o"
      ],
      [
        "##a",
        "##t"
      ],
      [
        "c",
        "##h"
      ],
      [
        "##l",
        "##l"
      ],
      [
        "##c",
        "##e"
      ],
      [
        "##s",
        "##e"
      ],
      [
        "##u",
        "##i"
      ],
      [
        "d",
        "##ans"
      ],
      [
        "ét",
        "##ait"
      ],
      [
        "r",
        "##e"
      ],
      [
        "##a",
        "##u"
      ],
      [
        "##d",
        "##e"
      ],
      [
        "p",
        "##as"
      ],
      [
        "d",
        "##u"
      ],
      [
        "p",
        "##ar"
      ],
      [
        "##q",
        "##ue"
      ],
      [
        "##r",
        "##i"
      ],
      [
        "##ou",
        "##t"
      ],
      [
        "##a",
        "##l"
      ],
      [
        "##t",
        "##te"
      ],
      [
        "##om",
        "##me"
      ],
      [
        "##i",
        "##on"
      ],
      [
        "I",
        "##l"
      ],
      [
        "##o",
        "##nt"
      ],
      [
        "p",
        "##l"
      ],
      [
        "-",
        "##-"
      ],
      [
        "a",
        "##u"
      ],
      [
        "##r",
        "##es"
      ],
      [
        "##é",
        "##e"
      ],
      [
        "##r",
        "##a"
      ],
      [
        "av",
        "##ait"
      ],
      [
        "n",
        "##e"
      ],
      [
        "##g",
        "##e"
      ],
      [
        "##è",
        "##re"
      ],
      [
        "s",
        "##a"
      ],
      [
        "##t",
        "##re"
      ],
      [
        "##i",
        "##er"
      ],
      [
        "##ie",
        "##n"
      ],
      [
        "s",
        "##ur"
      ],
      [
        "##ai",
        "##ent"
      ],
      [
        "##é",
        "##s"
      ],
      [
        "s",
        "##on"
      ],
      [
        "##q",
        "##u"
      ],
      [
        "##e",
        "##u"
      ],
      [
        "##on",
        "##s"
      ],
      [
        "p",
        "##our"
      ],
      [
        "##m",
        "##p"
      ],
      [
        "##b",
        "##le"
      ],
      [
        "##v",
        "##e"
      ],
      [
        "##o",
        "##l"
      ],
      [
        "##an",
        "##d"
      ],
      [
        "##e",
        "##c"
      ],
      [
        "p",
        "##r"
      ],
      [
        "##f",
        "##f"
      ],
      [
        "o",
        "##n"
      ],
      [
        "l",
        "##ui"
      ],
      [
        "d",
        "##é"
      ],
      [
        "##i",
        "##l"
      ],
      [
        "##i",
        "##r"
      ],
      [
        "pl",
        "##us"
      ],
      [
        "##ch",
        "##e"
      ],
      [
        "v",
        "##ous"
      ],
      [
        "##o",
        "##s"
      ],
      [
        "i",
        "##n"
      ],
      [
        "##or",
        "##t"
      ],
      [
        "##ar",
        "##d"
      ],
      [
        "e",
        "##lle"
      ],
      [
        "t",
        "##out"
      ],
      [
        "c",
        "##omme"
      ],
      [
        "##e",
        "##t"
      ],
      [
        "##p",
        "##p"
      ],
      [
        "a",
        "##r"
      ],
      [
        "##l",
        "##a"
      ],
      [
        "##i",
        "##g"
      ],
      [
        "##oi",
        "##r"
      ],
      [
        "##m",
        "##b"
      ],
      [
        "##i",
        "##lle"
      ],
      [
        "##u",
        "##is"
      ],
      [
        "ce",
        "##tte"
      ],
      [
        "##v",
        "##er"
      ],
      [
        "##o",
        "##is"
      ],
      [
        "##on",
        "##n"
      ],
      [
        "##en",
        "##d"
      ],
      [
        "L",
        "##e"
      ],
      [
        "s",
        "##i"
      ],
      [
        "av",
        "##ec"
      ],
      [
        "##ai",
        "##n"
      ],
      [
        "j",
        "##e"
      ],
      [
        "J",
        "##e"
      ],
      [
        "e",
        "##nt"
      ],
      [
        "##u",
        "##re"
      ],
      [
        "t",
        "##r"
      ],
      [
        "d",
        "##it"
      ],
      [
        "##on",
        "##d"
      ],
      [
        "##i",
        "##re"
      ],
      [
        "r",
        "##é"
      ],
      [
        "g",
        "##r"
      ],
      [
        "a",
        "##ut"
      ],
      [
        "##ai",
        "##re"
      ],
      [
        "##a",
        "##g"
      ],
      [
        "##è",
        "##s"
      ],
      [
        "p",
        "##ro"
      ],
      [
        "##i",
        "##ll"
      ],
      [
        "L",
        "##a"
      ],
      [
        "##p",
        "##r"
      ],
      [
        "##ur",
        "##s"
      ],
      [
        "C",
        "##e"
      ],
      [
        "##s",
        "##i"
      ],
      [
        "##t",
        "##é"
      ],
      [
        "##c",
        "##i"
      ],
      [
        "é",
        "##c"
      ],
      [
        "##m",
        "##es"
      ],
      [
        "c",
        "##om"
      ],
      [
        "##u",
        "##it"
      ],
      [
        "s",
        "##es"
      ],
      [
        "##u",
        "##l"
      ],
      [
        "##ou",
        "##p"
      ],
      [
        "##at",
        "##ion"
      ],
      [
        "##o",
        "##t"
      ],
      [
        "##i",
        "##ne"
      ],
      [
        "##it",
        "##é"
      ],
      [
        "##o",
        "##y"
      ],
      [
        "m",
        "##ê"
      ],
      [
        "de",
        "##ux"
      ],
      [
        "##ou",
        "##v"
      ],
      [
        "f",
        "##ait"
      ],
      [
        "##i",
        "##c"
      ],
      [
        "##é",
        "##r"
      ],
      [
        "m",
        "##ais"
      ],
      [
        "##a",
        "##p"
      ],
      [
        "que",
        "##l"
      ],
      [
        "b",
        "##r"
      ],
      [
        "c",
        "##es"
      ],
      [
        "o",
        "##u"
      ],
      [
        "o",
        "##ù"
      ],
      [
        "a",
        "##pp"
      ],
      [
        "a",
        "##i"
      ],
      [
        "d",
        "##is"
      ],
      [
        "##a",
        "##c"
      ],
      [
        "##b",
        "##l"
      ],
      [
        "##é",
        "##n"
      ],
      [
        "m",
        "##a"
      ],
      [
        "v",
        "##ie"
      ],
      [
        "e",
        "##s"
      ],
      [
        "l",
        "##à"
      ],
      [
        "##a",
        "##ble"
      ],
      [
        "E",
        "##t"
      ],
      [
        "##o",
        "##se"
      ],
      [
        "h",
        "##omme"
      ],
      [
        "##t",
        "##es"
      ],
      [
        "e",
        "##x"
      ],
      [
        "t",
        "##ou"
      ],
      [
        "##u",
        "##m"
      ],
      [
        "n",
        "##ous"
      ],
      [
        "##a",
        "##m"
      ],
      [
        "t",
        "##e"
      ],
      [
        "a",
        "##ux"
      ],
      [
        "a",
        "##n"
      ],
      [
        "##om",
        "##b"
      ],
      [
        "m",
        "##on"
      ],
      [
        "##er",
        "##s"
      ],
      [
        "##e",
        "##ur"
      ],
      [
        "##a",
        "##ge"
      ],
      [
        "en",
        "##f"
      ],
      [
        "##or",
        "##te"
      ],
      [
        "##ll",
        "##es"
      ],
      [
        "m",
        "##oi"
      ],
      [
        "##on",
        "##ne"
      ],
      [
        "b",
        "##ien"
      ],
      [
        "mê",
        "##me"
      ],
      [
        "##ai",
        "##ne"
      ],
      [
        "##i",
        "##v"
      ],
      [
        "ê",
        "##tre"
      ],
      [
        "##é",
        "##es"
      ],
      [
        "r",
        "##es"
      ],
      [
        "de",
        "##v"
      ],
      [
        "Q",
        "##u"
      ],
      [
        "f",
        "##a"
      ],
      [
        "##us",
        "##e"
      ],
      [
        "##i",
        "##ère"
      ],
      [
        "##n",
        "##d"
      ],
      [
        "##is",
        "##s"
      ],
      [
        "##i",
        "##d"
      ],
      [
        "##ie",
        "##u"
      ],
      [
        "##r",
        "##é"
      ],
      [
        "##it",
        "##e"
      ],
      [
        "##ê",
        "##te"
      ],
      [
        "a",
        "##s"
      ],
      [
        "##qu",
        "##es"
      ],
      [
        "##oi",
        "##re"
      ],
      [
        "re",
        "##g"
      ],
      [
        "p",
        "##eu"
      ],
      [
        "s",
        "##ans"
      ],
      [
        "L",
        "##es"
      ],
      [
        "##-",
        "##-"
      ],
      [
        "ch",
        "##e"
      ],
      [
        "##ant",
        "##e"
      ],
      [
        "##p",
        "##l"
      ],
      [
        "##our",
        "##s"
      ],
      [
        "##or",
        "##d"
      ],
      [
        "E",
        "##lle"
      ],
      [
        "##i",
        "##que"
      ],
      [
        "##in",
        "##g"
      ],
      [
        "m",
        "##ar"
      ],
      [
        "##û",
        "##t"
      ],
      [
        "##r",
        "##an"
      ],
      [
        "##ai",
        "##nt"
      ],
      [
        "##o",
        "##re"
      ],
      [
        "c",
        "##ont"
      ],
      [
        "##en",
        "##s"
      ],
      [
        "m",
        "##e"
      ],
      [
        "O",
        "##n"
      ],
      [
        "p",
        "##e"
      ],
      [
        "##o",
        "##le"
      ],
      [
        "h",
        "##a"
      ],
      [
        "s",
        "##u"
      ],
      [
        "aut",
        "##re"
      ],
      [
        "c",
        "##a"
      ],
      [
        "é",
        "##p"
      ],
      [
        "p",
        "##oi"
      ],
      [
        "t",
        "##u"
      ],
      [
        "a",
        "##ll"
      ],
      [
        "##c",
        "##c"
      ],
      [
        "p",
        "##et"
      ],
      [
        "##o",
        "##it"
      ],
      [
        "##is",
        "##e"
      ],
      [
        "a",
        "##b"
      ],
      [
        "s",
        "##ous"
      ],
      [
        "pas",
        "##s"
      ],
      [
        "s",
        "##er"
      ],
      [
        "M",
        "##ar"
      ],
      [
        "##ais",
        "##s"
      ],
      [
        "p",
        "##re"
      ],
      [
        "##on",
        "##c"
      ],
      [
        "C",
        "##h"
      ],
      [
        "##e",
        "##ux"
      ],
      [
        "v",
        "##oi"
      ],
      [
        "t",
        "##ra"
      ],
      [
        "ce",
        "##la"
      ],
      [
        "reg",
        "##ard"
      ],
      [
        "##t",
        "##i"
      ],
      [
        "##ant",
        "##s"
      ],
      [
        "##mp",
        "##s"
      ],
      [
        "##er",
        "##re"
      ],
      [
        "en",
        "##c"
      ],
      [
        "b",
        "##e"
      ],
      [
        "ch",
        "##a"
      ],
      [
        "gr",
        "##and"
      ],
      [
        "##l",
        "##es"
      ],
      [
        "r",
        "##a"
      ],
      [
        "##or",
        "##s"
      ],
      [
        "m",
        "##o"
      ],
      [
        "##v",
        "##re"
      ],
      [
        "d",
        "##i"
      ],
      [
        "a",
        "##m"
      ],
      [
        "##t",
        "##a"
      ],
      [
        "c",
        "##l"
      ],
      [
        "f",
        "##ais"
      ],
      [
        "##l",
        "##ait"
      ],
      [
        "e",
        "##ff"
      ],
      [
        "##a",
        "##ux"
      ],
      [
        "ré",
        "##p"
      ],
      [
        "d",
        "##ou"
      ],
      [
        "t",
        "##ro"
      ],
      [
        "##o",
        "##tre"
      ],
      [
        "c",
        "##on"
      ],
      [
        "f",
        "##or"
      ],
      [
        "v",
        "##en"
      ],
      [
        "##t",
        "##ion"
      ],
      [
        "c",
        "##o"
      ],
      [
        "ét",
        "##aient"
      ],
      [
        "##mb",
        "##re"
      ],
      [
        "c",
        "##oup"
      ],
      [
        "s",
        "##ou"
      ],
      [
        "##an",
        "##g"
      ],
      [
        "##an",
        "##ce"
      ],
      [
        "f",
        "##e"
      ],
      [
        "t",
        "##ous"
      ],
      [
        "E",
        "##n"
      ],
      [
        "m",
        "##ain"
      ],
      [
        "s",
        "##ont"
      ],
      [
        "i",
        "##nt"
      ],
      [
        "ent",
        "##re"
      ],
      [
        "##er",
        "##t"
      ],
      [
        "quel",
        "##que"
      ],
      [
        "##ie",
        "##ux"
      ],
      [
        "##ch",
        "##er"
      ],
      [
        "c",
        "##r"
      ],
      [
        "##m",
        "##me"
      ],
      [
        "##i",
        "##us"
      ],
      [
        "p",
        "##uis"
      ],
      [
        "##a",
        "##v"
      ],
      [
        "b",
        "##ou"
      ],
      [
        "poi",
        "##nt"
      ],
      [
        "m",
        "##al"
      ],
      [
        "##u",
        "##n"
      ],
      [
        "enc",
        "##ore"
      ],
      [
        "d",
        "##ire"
      ],
      [
        "D",
        "##e"
      ],
      [
        "P",
        "##ar"
      ],
      [
        "é",
        "##g"
      ],
      [
        "##ie",
        "##ur"
      ],
      [
        "##pr",
        "##it"
      ],
      [
        "j",
        "##us"
      ],
      [
        "p",
        "##er"
      ],
      [
        "##p",
        "##h"
      ],
      [
        "##eu",
        "##re"
      ],
      [
        "U",
        "##n"
      ],
      [
        "Mar",
        "##ius"
      ],
      [
        "com",
        "##p"
      ],
      [
        "##is",
        "##t"
      ],
      [
        "il",
        "##s"
      ],
      [
        "f",
        "##r"
      ],
      [
        "le",
        "##ur"
      ],
      [
        "c",
        "##ar"
      ],
      [
        "p",
        "##orte"
      ],
      [
        "##a",
        "##le"
      ],
      [
        "t",
        "##ête"
      ],
      [
        "##as",
        "##s"
      ],
      [
        "Je",
        "##an"
      ],
      [
        "ét",
        "##é"
      ],
      [
        "f",
        "##aire"
      ],
      [
        "##ch",
        "##es"
      ],
      [
        "j",
        "##our"
      ],
      [
        "##i",
        "##è"
      ],
      [
        "##an",
        "##de"
      ],
      [
        "##r",
        "##ait"
      ],
      [
        "##g",
        "##n"
      ],
      [
        "mo",
        "##ment"
      ],
      [
        "Q",
        "##ue"
      ],
      [
        "##an",
        "##c"
      ],
      [
        "##é",
        "##t"
      ],
      [
        "te",
        "##mps"
      ],
      [
        "t",
        "##our"
      ],
      [
        "o",
        "##r"
      ],
      [
        "##u",
        "##le"
      ],
      [
        "##i",
        "##nt"
      ],
      [
        "pr",
        "##é"
      ],
      [
        "##oi",
        "##n"
      ],
      [
        "e",
        "##ût"
      ],
      [
        "##ver",
        "##s"
      ],
      [
        "r",
        "##ien"
      ],
      [
        "c",
        "##our"
      ],
      [
        "##a",
        "##de"
      ],
      [
        "r",
        "##ue"
      ],
      [
        "b",
        "##as"
      ],
      [
        "##n",
        "##ce"
      ],
      [
        "##o",
        "##c"
      ],
      [
        "##e",
        "##z"
      ],
      [
        "de",
        "##m"
      ],
      [
        "ch",
        "##ose"
      ],
      [
        "c",
        "##ou"
      ],
      [
        "##ier",
        "##s"
      ],
      [
        "d",
        "##ont"
      ],
      [
        "##i",
        "##m"
      ],
      [
        "o",
        "##b"
      ],
      [
        "tou",
        "##te"
      ],
      [
        "c",
        "##ri"
      ],
      [
        "enf",
        "##ant"
      ],
      [
        "pet",
        "##it"
      ],
      [
        "##om",
        "##mes"
      ],
      [
        "b",
        "##on"
      ],
      [
        "é",
        "##v"
      ],
      [
        "##ig",
        "##ne"
      ],
      [
        "b",
        "##ar"
      ],
      [
        "##pr",
        "##ès"
      ],
      [
        "s",
        "##ort"
      ],
      [
        "##î",
        "##tre"
      ],
      [
        "tout",
        "##es"
      ],
      [
        "n",
        "##uit"
      ],
      [
        "a",
        "##cc"
      ],
      [
        "f",
        "##er"
      ],
      [
        "i",
        "##mp"
      ],
      [
        "V",
        "##al"
      ],
      [
        "re",
        "##c"
      ],
      [
        "y",
        "##eux"
      ],
      [
        "##a",
        "##d"
      ],
      [
        "s",
        "##ent"
      ],
      [
        "##j",
        "##e"
      ],
      [
        "##t",
        "##er"
      ],
      [
        "D",
        "##ieu"
      ],
      [
        "ent",
        "##end"
      ],
      [
        "##je",
        "##an"
      ],
      [
        "##i",
        "##de"
      ],
      [
        "b",
        "##l"
      ],
      [
        "Val",
        "##jean"
      ],
      [
        "v",
        "##oy"
      ],
      [
        "t",
        "##omb"
      ],
      [
        "##b",
        "##e"
      ],
      [
        "##i",
        "##f"
      ],
      [
        "##t",
        "##s"
      ],
      [
        "##s",
        "##us"
      ],
      [
        "##n",
        "##es"
      ],
      [
        "##ai",
        "##ll"
      ],
      [
        "G",
        "##r"
      ],
      [
        "app",
        "##e"
      ],
      [
        "##ou",
        "##ve"
      ],
      [
        "e",
        "##mp"
      ],
      [
        "##ie",
        "##d"
      ],
      [
        "v",
        "##is"
      ],
      [
        "##l",
        "##er"
      ],
      [
        "##j",
        "##ours"
      ],
      [
        "voi",
        "##x"
      ],
      [
        "j",
        "##eu"
      ],
      [
        "##i",
        "##b"
      ],
      [
        "pe",
        "##ut"
      ],
      [
        "##é",
        "##d"
      ],
      [
        "##a",
        "##ce"
      ],
      [
        "##v",
        "##ait"
      ],
      [
        "##end",
        "##ant"
      ],
      [
        "a",
        "##d"
      ],
      [
        "##ons",
        "##ieur"
      ],
      [
        "c",
        "##ô"
      ],
      [
        "r",
        "##oi"
      ],
      [
        "ce",
        "##t"
      ],
      [
        "T",
        "##out"
      ],
      [
        "f",
        "##it"
      ],
      [
        "f",
        "##ut"
      ],
      [
        "ch",
        "##ar"
      ],
      [
        "tou",
        "##jours"
      ],
      [
        "p",
        "##le"
      ],
      [
        "##u",
        "##es"
      ],
      [
        "V",
        "##ous"
      ],
      [
        "##a",
        "##y"
      ],
      [
        "##on",
        "##g"
      ],
      [
        "tro",
        "##is"
      ],
      [
        "d",
        "##és"
      ],
      [
        "c",
        "##ro"
      ],
      [
        "##ose",
        "##tte"
      ],
      [
        "p",
        "##ied"
      ],
      [
        "v",
        "##ers"
      ],
      [
        "C",
        "##osette"
      ],
      [
        "##res",
        "##s"
      ],
      [
        "dev",
        "##ant"
      ],
      [
        "##ion",
        "##s"
      ],
      [
        "h",
        "##eure"
      ],
      [
        "d",
        "##onc"
      ],
      [
        "##ch",
        "##a"
      ],
      [
        "M",
        "##ais"
      ],
      [
        "f",
        "##ille"
      ],
      [
        "##l",
        "##o"
      ],
      [
        "a",
        "##tte"
      ],
      [
        "##p",
        "##ar"
      ],
      [
        "m",
        "##ont"
      ],
      [
        "par",
        "##t"
      ],
      [
        "r",
        "##ou"
      ],
      [
        "##ie",
        "##nt"
      ],
      [
        "p",
        "##ort"
      ],
      [
        "f",
        "##ois"
      ],
      [
        "s",
        "##uis"
      ],
      [
        "ar",
[...]
